{"clubs": 10196, "gesplitst": 12451, "beantwoordde": 8782, "laad": 14770, "##TRE": 23684, "##aanbod": 23766, "pap": 17241, "##kow": 26610, "Honey": 3432, "##loos": 26950, "##slid": 28526, "verbranden": 20897, "eigenbelang": 11198, "bonden": 9760, "##uut": 29271, "Jonathan": 3784, "veiligheids": 20809, "communist": 10255, "39": 438, "liefde": 15047, "voltallig": 21859, "##marche": 27046, "##pte": 27944, "##ras": 28024, "##riet": 28159, "##vra": 29579, "Sharp": 6401, "blijk": 9646, "1965": 343, "Tienduizend": 6943, "Brittanni\u00eb": 1474, "bouwwerk": 9833, "Oostzee": 5370, "Weiss": 7569, "##discussie": 24876, "Thom": 6917, "omlaag": 16266, "Huib": 3487, "passage": 17306, "speciale": 19223, "sperma": 19267, "##1855": 23017, "##WIN": 23745, "Linnaeus": 4395, "suizen": 19769, "vertrokken": 21441, "##mers": 27112, "verschrompel": 21326, "Patri": 5516, "mol": 15754, "voorzitster": 21997, "globalisering": 12756, "onbegrijpelijk": 16317, "veeleisend": 20786, "##snaam": 28551, "obligaties": 16178, "vervolgd": 21477, "Lund": 4498, "##plex": 27821, "Lara": 4233, "verzachten": 21566, "broekspijp": 9908, "bouw": 9827, "ritje": 18340, "##uyt": 29280, "erdoor": 11321, "Nixon": 5212, "begonnen": 8896, "buitenwijk": 9985, "kreeftachtigen": 14628, "verstaanbaar": 21368, "Rutger": 6144, "Onzin": 5352, "Moeder": 4922, "misschien": 15689, "##bezoedeld": 24327, "meerderheid": 15475, "##hari": 25872, "geklets": 12103, "##dil": 24858, "##regel": 28064, "Tuin": 7089, "infanterie": 13681, "wachtkamer": 22195, "spook": 19313, "##NSB": 23529, "fietste": 11577, "zoeken": 22802, "##stations": 28703, "pijl": 17427, "herinner": 13214, "deze": 10646, "zwarte": 22934, "kenmerk": 14175, "Links": 4394, "Voorts": 7446, "##mannen": 27039, "begaafd": 8877, "encyclopedie": 11283, "klasgenote": 14302, "05": 162, "Body": 1319, "Bed": 1115, "netvleugelig": 16035, "sciencefiction": 18823, "Heijn": 3268, "Pri": 5736, "scheer": 18626, "achtentwintig": 8099, "ballet": 8715, "twaalf": 20431, "joods": 13978, "kapot": 14109, "##ZE": 23750, "##ves": 29441, "##wijck": 29732, "##tsch": 29127, "SGP": 6164, "Nigel": 5185, "meent": 15472, "##sniveau": 28560, "Drink": 2251, "gevoelens": 12557, "producten": 17778, "##ssus": 28668, "Bor": 1365, "Rotterdammer": 6097, "##kijkend": 26483, "##aap": 23779, "Denemarken": 2085, "Brief": 1456, "zonsondergang": 22845, "Stephen": 6666, "##steden": 28708, "reorganisatie": 18213, "wa": 22138, "Phil": 5593, "##floot": 25301, "##journalist": 26378, "Premier": 5730, "discreet": 10748, "streek": 19664, "Rad": 5830, "mamma": 15330, "provocatie": 17852, "vitrine": 21711, "Harderwijk": 3200, "Ronny": 6071, "##levensbedreigend": 26804, "74": 488, "rijbewijs": 18306, "##shaw": 28463, "Ricciard": 5969, "sneeuw": 19109, "##rak": 28003, "##tanden": 28889, "noemde": 16093, "##tevoren": 28966, "##makelaar": 27023, "verre": 21281, "raadselachtig": 17922, "##neem": 27277, "hen": 13185, "wallen": 22209, "##gre": 25783, "zuidwest": 22884, "district": 10760, "meermal": 15477, "zakdoek": 22651, "1909": 287, "dodelijk": 10786, "##ruit": 28279, "Spiegel": 6591, "gerucht": 12379, "authentiek": 8638, "radicalis": 17949, "oplossingen": 16920, "ingenieur": 13709, "##seizoen": 28441, "struik": 19715, "veroordelen": 21241, "veldslag": 20816, "##ERN": 23320, "##omys": 27453, "Dutch": 2295, "##orgia": 27574, "principe": 17735, "##gren": 25785, "##shian": 28465, "Schneider": 6298, "##ger": 25553, "pour": 17650, "aanzienlijke": 8039, "Baet": 1029, "##co": 24653, "##verschillen": 29412, "stiefmoeder": 19537, "Sevilla": 6388, "##atine": 24096, "Suriname": 6754, "Joegoslavi\u00eb": 3764, "##middag": 27128, "Alba": 685, "Federatie": 2594, "vervanging": 21461, "snee": 19107, "##ovo": 27650, "##cellen": 24552, "messen": 15555, "Grant": 3041, "Velde": 7263, "gracht": 12833, "##191": 23033, "vakmanschap": 20708, "prairie": 17667, "##KEL": 23442, "Onderstaand": 5330, "Maleisi\u00eb": 4593, "seizoen": 18851, "vredes": 22035, "masker": 15391, "##their": 28974, "ceremonie": 10106, "bijgevolg": 9554, "lapje": 14860, "Nergens": 5135, "Farrell": 2581, "James": 3688, "##cross": 24735, "Wayne": 7552, "marihuana": 15371, "##kleuren": 26531, "bedekken": 8801, "slijp": 19016, "moeite": 15733, "Oekra\u00efne": 5287, "Mill": 4875, "urenlang": 20665, "##haven": 25881, "Siberische": 6422, "elektronica": 11247, "zwee": 22936, "##1853": 23016, "Water": 7545, "##gedekt": 25418, "Duitsch": 2279, "kunsten": 14709, "map": 15360, "sjokte": 18952, "Vind": 7371, "Nijvel": 5194, "bovendi": 9837, "sjaal": 18947, "gelekt": 12161, "volkslied": 21846, "Bus": 1544, "Rijnmond": 5996, "belastingvrij": 9031, "##sector": 28437, "Roemeen": 6034, "Uruguay": 7165, "Resolutie": 5942, "##paradijs": 27694, "Osaka": 5404, "##verpakking": 29402, "fregat": 11735, "Fabri": 2559, "1919": 297, "Waalse": 7494, "vertrouwelijke": 21446, "Ginn": 2958, "Rhan": 5957, "authentic": 8637, "##PK": 23587, "Antilliaans": 835, "geopend": 12290, "veranderd": 20838, "prior": 17742, "Anja": 814, "##RW": 23629, "Fuck": 2773, "Nem": 5128, "facto": 11487, "wilden": 22486, "zwerf": 22947, "##geschoold": 25585, "Schat": 6270, "deelstaten": 10571, "##gut": 25821, "aaide": 7861, "papiertje": 17247, "schilder": 18693, "##elde": 25067, "fragment": 11723, "##drift": 24948, "Christian": 1765, "Kerst": 3969, "Glenn": 2976, "##tomida": 29052, "tirade": 20117, "tekende": 19920, "Guzm": 3121, "statisch": 19443, "Roo": 6073, "Hem": 3294, "prostituees": 17833, "filter": 11603, "incest": 13655, "verwierp": 21536, "##248": 23061, "konijnen": 14511, "##boon": 24421, "sierlijke": 18915, "##meer": 27087, "A2": 522, "tafere": 19835, "Jacob": 3675, "perzik": 17405, "##vernieuwing": 29398, "##IM": 23419, "Leerlingen": 4275, "waarschijnlijk": 22180, "dames": 10512, "raak": 17927, "zelfs": 22710, "##smeekt": 28544, "Steel": 6647, "Hall": 3167, "Iran": 3624, "Ling": 4392, "elektrische": 11244, "oktober": 16224, "zonder": 22828, "financieel": 11609, "Coca": 1831, "##ban": 24168, "##cept": 24561, "Nederlanders": 5111, "##IET": 23407, "##SV": 23661, "medeoprichter": 15437, "gebruikelijke": 11909, "zoete": 22809, "model": 15716, "Koch": 4054, "lieflijk": 15055, "##onische": 27483, "hebben": 13106, "profiteerde": 17800, "ge\u00efdentificeerd": 12670, "##heerlijk": 25895, "Stille": 6685, "Feitelijk": 2599, "onderdrukking": 16363, "Filipijnen": 2634, "Hed": 3249, "kippen": 14269, "sp": 19200, "bisschop": 9605, "ploegmaat": 17536, "Copa": 1914, "onacceptabel": 16309, "relativeren": 18181, "##talig": 28884, "Fly": 2681, "evenementen": 11406, "##zzp": 29961, "verloop": 21162, "##kijkje": 26485, "boerderij": 9732, "Lit": 4405, "radiozender": 17955, "verrast": 21279, "Tanzania": 6826, "##ous": 27623, "Museeuw": 5023, "afspraken": 8320, "blad": 9619, "binnenste": 9592, "Ondanks": 5326, "Drongen": 2255, "pigment": 17426, "##jan": 26352, "Paars": 5447, "\u00e2": 30054, "33": 429, "landelijke": 14824, "verkocht": 21097, "##schot": 28393, "Sco": 6332, "verlicht": 21143, "bouwvakker": 9831, "gevangen": 12527, "noord": 16120, "voltooide": 21862, "notaris": 16142, "journalisten": 13983, "natuurkunde": 15960, "Koninklijk": 4085, "veterinair": 21620, "Parade": 5487, "vergelijkbaar": 21000, "##RR": 23624, "Uw": 7169, "##bru": 24487, "modern": 15718, "plafond": 17480, "Noorder": 5231, "universitair": 20657, "verwaarloos": 21494, "parkeerde": 17273, "erkenning": 11340, "vooruitgang": 21980, "neergelegd": 15990, "stoot": 19605, "##aji": 23903, "##ossa": 27597, "vaste": 20754, "##preventie": 27897, "Geweldig": 2923, "Stravinsky": 6711, "##NY": 23534, "Hen": 3297, "##Zullen": 23754, "Lanaken": 4215, "budget": 9954, "zijdelings": 22774, "##inspecteur": 26234, "El": 2391, "gevoel": 12555, "##al": 23917, "touch": 20260, "beurzen": 9369, "reservoir": 18236, "##age": 23879, "Dra": 2233, "##visserij": 29483, "Veenendaal": 7250, "##wijn": 29739, "gesch": 12388, "##ics": 26066, "dienaar": 10672, "opereerde": 16843, "##gast": 25373, "##master": 27056, "##schans": 28337, "wielrenner": 22454, "Girl": 2963, "motor": 15827, "wereldberoemd": 22372, "##boot": 24423, "besefte": 9228, "Louis": 4458, "##azc": 24141, "##ARE": 23194, "Frederick": 2744, "geding": 11969, "##eksuele": 25055, "treiter": 20342, "onderzoeks": 16443, "Franck": 2724, "Mini": 4886, "penseel": 17362, "schrapp": 18766, "##gonnen": 25756, "h\u00e9t": 13555, "plantaardig": 17494, "Indi\u00ebr": 3583, "oefening": 16195, "teken": 19918, "hou": 13457, "Kroati\u00eb": 4142, "klimmen": 14358, "Rex": 5951, "bewijs": 9452, "Aaron": 567, "gewaa": 12573, "nettowinst": 16034, "openbare": 16821, "overtuigen": 17170, "waarschuw": 22181, "gehandicapten": 12051, "##foon": 25312, "Amo": 767, "vastbesloten": 20753, "##CI": 23239, "Blijkbaar": 1295, "Zij": 7796, "vatbaar": 20770, "##sprei": 28632, "Ambacht": 752, "##pluim": 27828, "international": 13834, "schenking": 18645, "Feld": 2601, "Marcel": 4627, "liefhebben": 15051, "oosters": 16801, "Heij": 3265, "gordijnen": 12812, "##itt": 26313, "##liefhebber": 26840, "knak": 14395, "treffer": 20336, "ge\u00efmporteerd": 12672, "lichtgewond": 15032, "onbepaald": 16329, "##komedie": 26577, "Bernadette": 1198, "los": 15183, "##lund": 26979, "##plan": 27800, "Genesis": 2873, "##trekkende": 29098, "leuk": 14976, "gerenoveerd": 12360, "zevenhonderd": 22745, "elektronische": 11249, "bekijk": 8983, "##plank": 27802, "knie\u00ebn": 14412, "emplo": 11280, "Koppen": 4100, "stappen": 19428, "tien": 20079, "dwe": 11096, "Mountain": 4998, "Messi": 4813, "1892": 268, "aangespoord": 7915, "##dreiging": 24942, "##BE": 23212, "##verhuur": 29373, "losmaakte": 15190, "Mog": 4930, "Portugal": 5708, "tegenover": 19907, "from": 11745, "Kni": 4046, "##gesprek": 25607, "massal": 15394, "##row": 28260, "Conn": 1889, "Kett": 3974, "##1865": 23024, "hotels": 13456, "Kon": 4079, "##ake": 23908, "##gewenst": 25669, "verblijfplaats": 20878, "Sul": 6741, "finish": 11614, "##\u00ef": 144, "Antillian": 836, "beslaa": 9229, "aarts": 8052, "##gat": 25375, "##inta": 26243, "bewezen": 9451, "integreren": 13802, "oppassen": 16935, "procent": 17764, "achterover": 8127, "##zuster": 29942, "genoemd": 12271, "Pete": 5576, "##lang": 26709, "lokaal": 15149, "##burn": 24512, "##aal": 23762, "Lynley": 4513, "Arane": 866, "vooraan": 21878, "##ajoor": 23905, "##ll": 26902, "Gross": 3086, "Lady": 4201, "##vor": 29567, "baarmoeder": 8680, "gerookt": 12377, "handels": 13035, "hoefde": 13330, ")": 10, "medicijnen": 15448, "authentieke": 8639, "leef": 14887, "klager": 14288, "strafschop": 19644, "##gleden": 25733, "onbenullig": 16327, "##ado": 23845, "Tom": 6999, "##cert": 24565, "##nevel": 27302, "Angela": 801, "##pis": 27784, "krukken": 14694, "Mechelse": 4742, "Julius": 3835, "Row": 6106, "##ard": 24034, "gps": 12822, "pruik": 17855, "vaten": 20771, "verslaggeefster": 21340, "uitputtend": 20581, "Hag": 3154, "Slav": 6482, "pessimistisch": 17406, "sympathie": 19799, "##STAT": 23657, "Dhabi": 2110, "##49": 23099, "##defensie": 24811, "terreuraanslag": 19993, "Si": 6420, "Wegen": 7564, "Wales": 7514, "Jaren": 3707, "malaria": 15325, "##l\u00e9": 26991, "kruik": 14681, "##rekening": 28085, "schermutseling": 18657, "Forbes": 2694, "buien": 9960, "##ifica": 26126, "##ol": 27424, "bedreiging": 8833, "##levering": 26808, "klip": 14365, "verte": 21410, "##planning": 27804, "##pla": 27792, "Limburg": 4380, "##talent": 28883, "historici": 13308, "onheilspellend": 16524, "Carol": 1642, "presenteer": 17693, "scoorde": 18824, "typerend": 20462, "##IZ": 23438, "##rion": 28186, "shoot": 18902, "##zoon": 29926, "kiest": 14237, "##gru": 25808, "Maarten": 4538, "omslag": 16278, "leeft": 14890, "neg": 16004, "daling": 10509, "Perzi\u00eb": 5574, "kasteel": 14136, "Maureen": 4712, "nodig": 16090, "bamboe": 8721, "##staf": 28683, "##ibel": 26047, "gekregen": 12121, "oproepen": 16958, "Harmonie": 3205, "Damrak": 2034, "##normen": 27343, "Volkswagen": 7432, "buitenaf": 9969, "gespreid": 12454, "Samir": 6215, "overtreden": 17165, "geregistreerd": 12356, "##oordelen": 27528, "stikstof": 19551, "L\u00f6w": 4518, "Gele": 2850, "Gerald": 2896, "do": 10769, "##ak": 23906, "Annie": 826, "##pio": 27782, "Gasthuis": 2822, "Klei": 4027, "Evergem": 2525, "zwakke": 22925, "lenzen": 14954, "bloedvergi": 9671, "##ANK": 23184, "##zelf": 29866, "Kleur": 4031, "##osh": 27591, "hopeloos": 13437, "Help": 3292, "Hans": 3193, "aangezet": 7931, "##tarieven": 28897, "Nijs": 5193, "Beenh": 1123, "verscheidene": 21306, "McLaren": 4735, "koopman": 14529, "landstitel": 14838, "plaats": 17466, "Bah": 1032, "Kahn": 3876, "Germain": 2906, "lente": 14953, "##conventionele": 24710, "##lacht": 26683, "Afdeling": 633, "Saul": 6252, "bereid": 9144, "verschillende": 21319, "plas": 17497, "beukte": 9359, "pensioen": 17363, "Roy": 6109, "sur": 19783, "##rini": 28182, "weduwnaar": 22278, "voetgangers": 21814, "##OF": 23546, "lifestyle": 15069, "amb": 8437, "slogan": 19032, "##wacht": 29626, "##off": 27394, "##hinder": 25942, "roep": 18370, "dringend": 10985, "##hangen": 25864, "noordelijke": 16122, "Maat": 4543, "##z": 138, "Honda": 3429, "tenmin": 19967, "##tru": 29122, "##verdachte": 29350, "Whit": 7618, "eier": 11190, "verzwakken": 21608, "ontsnappen": 16651, "barsten": 8754, "Buzz": 1553, "onbehaaglijk": 16318, "##max": 27067, "##gewaaid": 25661, "loket": 15151, "Schr\u00f6der": 6318, "Lynch": 4512, "##mani": 27037, "gerepareerd": 12361, "wijken": 22467, "proeven": 17785, "bel": 9009, "##uwen": 29275, "geraffineerd": 12336, "Interview": 3613, "##erzijds": 25178, "sterven": 19518, "kwaadaardig": 14733, "##ritme": 28193, "##tank": 28891, "vuilnis": 22112, "Marc": 4626, "Town": 7029, "literaire": 15123, "1994": 372, "Eg": 2370, "rechtstreekse": 18055, "schrijftafel": 18780, "symmetrisch": 19797, "chant": 10113, "Ph": 5590, "terugdenk": 20006, "Deel": 2065, "fuseerde": 11779, "##liggen": 26853, "notering": 16147, "vrouwtje": 22102, "##geschilderd": 25584, "Klaus": 4024, "aangewakkerd": 7928, "poging": 17565, "scherpe": 18659, "veevoe": 20799, "Vil": 7360, "Arnhem": 908, "McCartney": 4728, "Arj": 894, "huurder": 13528, "telg": 19954, "##euze": 25210, "##ium": 26320, "##o\u00efde": 27665, "##rokken": 28228, "##universiteit": 29237, "##vaart": 29288, "Verenigd": 7290, "verklede": 21092, "Leider": 4291, "geestverwant": 12013, "metrostation": 15571, "tweeduizend": 20438, "kanonnen": 14084, "##vormen": 29571, "nadelig": 15911, "Caribisch": 1634, "Pam": 5474, "Saer": 6187, "stop": 19607, "gereserveerd": 12362, "Tony": 7007, "broos": 9928, "stilstaand": 19557, "##service": 28454, "spatte": 19217, "beschermen": 9196, "sprakeloos": 19336, "1945": 323, "##stikke": 28752, "##ryn": 28296, "Libanon": 4340, "Werknemers": 7596, "##D": 91, "Wevelgem": 7615, "repeteren": 18218, "eindpunt": 11222, "spuit": 19360, "##zig": 29895, "##zitter": 29907, "concentreren": 10291, "geadopteerd": 11844, "Heu": 3344, "illuster": 13609, "##ink": 26222, "##plicht": 27824, "werkelijke": 22385, "Crypt": 1965, "Zich": 7790, "dip": 10732, "Lefevere": 4281, "tragische": 20290, "2000": 381, "Shah": 6393, "##nning": 27331, "voorste": 21955, "Kerkrade": 3966, "Pepsi": 5556, "geleerden": 12154, "achillespees": 8095, "explosieven": 11455, "almachtig": 8419, "slaperig": 18989, "naai": 15887, "dist": 10758, "##OO": 23556, "##lappen": 26714, "Kosovaars": 4112, "schoft": 18717, "duurzaamheid": 11078, "vlot": 21764, "picknick": 17418, "restanten": 18249, "##\u00fa": 30020, "waarin": 22167, "Gregor": 3055, "dicht": 10659, "sweat": 19788, "medicatie": 15445, "draagt": 10934, "##geluisterd": 25504, "Pleas": 5660, "Patriot": 5519, "cognitie": 10209, "##lukken": 26977, "democra": 10599, "##chin": 24592, "##lez": 26813, "Tosca": 7018, "bewindslieden": 9457, "instantie": 13778, "inmiddels": 13752, "Pall": 5469, "snuf": 19132, "hecht": 13108, "Explorer": 2537, "##96": 23151, "Lloyd": 4417, "HEER": 3130, "Anna": 818, "juli": 13998, "Volgend": 7424, "##91": 23146, "Straat": 6704, "##rius": 28196, "Halve": 3172, "uitbundig": 20485, "Bridge": 1455, "##ringen": 28181, "dr": 10928, "##klep": 26527, "concludeerde": 10300, "steekpenningen": 19460, "doorbrak": 10875, "openlucht": 16835, "sprongen": 19357, "##boek": 24397, "Verviers": 7331, "Arti": 918, "staatshoofd": 19382, "scholieren": 18725, "##dragen": 24934, "Olivia": 5306, "##atsu": 24105, "##belasting": 24243, "Dominic": 2197, "##aaaa": 23755, "Airlines": 669, "ruige": 18458, "##bureaus": 24508, "invaller": 13862, "##kast": 26437, "groenten": 12909, "##ox": 27659, "Veel": 7247, "contra": 10362, "Vital": 7381, "lijf": 15078, "verschenen": 21307, "volgorde": 21837, "kleding": 14316, "1879": 257, "Sophia": 6553, "Julien": 3834, "Betsy": 1221, "Borg": 1367, "Onder": 5327, "passief": 17318, "##bol": 24407, "##commissaris": 24675, "##grijze": 25792, "niche": 16051, "##ramen": 28010, "award": 8670, "moed": 15724, "rozen": 18445, "ondervraging": 16429, "Yorkse": 7734, "Fig": 2630, "hartslag": 13088, "##iseren": 26276, "Kat": 3918, "##ood": 27515, "kozijn": 14592, "##fijn": 25274, "##zij": 29896, "blank": 9628, "##slaag": 28509, "##ssel": 28658, "ontsteld": 16663, "##atrice": 24104, "illegalen": 13607, "welwillend": 22350, "verhogen": 21043, "Atjeh": 942, "herop": 13235, "duurder": 11075, "hardlopen": 13070, "##lichamen": 26825, "pantoffels": 17239, "idioo": 13578, "Windows": 7657, "overgehe": 17100, "##elia": 25075, "##thans": 28971, "Groninger": 3083, "Pil": 5626, "tegenkom": 19905, "Hong": 3433, "ruiten": 18475, "##the": 28972, "cd": 10088, "compliment": 10274, "##kwam": 26660, "afslag": 8310, "##inga": 26209, "Monster": 4959, "Chili": 1747, "bon": 9758, "versierde": 21334, "##behoud": 24230, "##sesteenweg": 28456, "##inter": 26244, "dinsdag": 10729, "##bom": 24409, "muizen": 15844, "##puis": 27953, "##gloeien": 25740, "serveer": 18879, "Rang": 5856, "champignon": 10111, "Leid": 4289, "##ti\u00eble": 29029, "Kri": 4130, "richtingen": 18295, "medaille": 15427, "zilverkleurig": 22780, "afvragen": 8334, "reusachtig": 18273, "Roman": 6056, "misgaa": 15679, "##peil": 27724, "droom": 11007, "Peter": 5578, "Canadezen": 1613, "Tir": 6971, "Wilt": 7652, "Map": 4621, "design": 10628, "##gaven": 25380, "##meenschappelijk": 27086, "landgoed": 14829, "halve": 13018, "Fanta": 2575, "rust": 18488, "achter": 8100, "afzetten": 8354, "nu": 16155, "tientall": 20086, "Timmer": 6962, "Wolff": 7684, "schandaal": 18599, "Test": 6886, "specifieke": 19230, "gemeenten": 12215, "doosje": 10906, "koning": 14512, "filosofische": 11601, "Canadees": 1611, "middenveld": 15600, "onbeleefd": 16325, "Hees": 3260, "monumenten": 15787, "ermee": 11342, "##lian": 26818, "overstemd": 17160, "Pseudo": 5781, "agressief": 8366, "##scheiding": 28347, "##ift": 26132, "Niko": 5200, "Neerpelt": 5120, "wijzigingen": 22480, "lood": 15162, "##gepast": 25540, "22": 406, "##\u00eb": 143, "prompt": 17823, "##collis": 24664, "##vallei": 29299, "Droom": 2257, "Jelle": 3723, "##geduwd": 25430, "Mo": 4911, "taart": 19819, "bundel": 9997, "aanhoudende": 7940, "bandje": 8727, "tweetal": 20444, "##cadeau": 24524, "consument": 10345, "nylon": 16166, "Campert": 1607, "beoefend": 9121, "##EO": 23315, "##kruis": 26642, "Fil": 2632, "Keur": 3978, "##ac": 23801, "##achtige": 23819, "##lock": 26922, "rundvlees": 18485, "Gr": 3027, "##FL": 23344, "Nagel": 5074, "geplaatste": 12311, "Newton": 5153, "Ferro": 2620, "bestaat": 9267, "Nantes": 5079, "idealisme": 13567, "slag": 18973, "Eduard": 2349, "toevlucht": 20202, "##iseert": 26275, "##geknepen": 25472, "hamstring": 13023, "minuscule": 15663, "verbrijzeld": 20903, "##patronen": 27714, "vertrouwen": 21448, "##iff": 26124, "Force": 2695, "regelingen": 18110, "doorgebracht": 10887, "Rosa": 6084, "##gemunt": 25518, "##hotel": 25991, "Arrow": 913, "Cru": 1961, "negatief": 16005, "beklom": 8995, "Mare": 4631, "beller": 9064, "aanranding": 7975, "Woordvoerder": 7699, "Henni": 3308, "afspraakje": 8319, "mast": 15400, "toedoen": 20132, "bassist": 8770, "1953": 331, "##slag": 28515, "Bondgenoten": 1351, "doffe": 10814, "Eye": 2544, "##elaars": 25060, "blindelings": 9659, "theoretische": 20059, "Internet": 3611, "meevaller": 15491, "##leiding": 26763, "Bach": 1025, "Niklaas": 5199, "##stein": 28718, "bezitting": 9499, "nevel": 16048, "aanvullend": 8027, "gekookt": 12115, "##het": 25926, "afweging": 8341, "##OK": 23549, "Piet": 5617, "##rijders": 28166, "Lex": 4333, "bruusk": 9950, "verhaaltje": 21029, "bekogeld": 8997, "snack": 19098, "Pli": 5662, "Als": 738, "Zulk": 7832, "handelaars": 13030, "Sweet": 6769, "my": 15872, "##gezaagd": 25682, "##landen": 26703, "##zwemmen": 29953, "interesseerde": 13826, "ac": 8076, "ballonnen": 8719, "investeerder": 13869, "Nep": 5131, "Marit": 4653, "Claus": 1806, "##drager": 24935, "waaraan": 22150, "Sea": 6337, "protocol": 17843, "pure": 17898, "toewijding": 20207, "Claire": 1797, "chocolade": 10142, "ellendige": 11267, "Kris": 4134, "ok\u00e9": 16225, "repetitie": 18219, "##komen": 26578, "broertje": 9911, "volgde": 21829, "geloofd": 12182, "provincies": 17849, "##ots": 27609, "##perk": 27741, "reikt": 18153, "##gekleed": 25468, "fietser": 11574, "##lokaal": 26935, "koopwoning": 14531, "Verkeer": 7303, "##oek": 27387, "eigenhandig": 11200, "fluiten": 11656, "Tevreden": 6892, "Haas": 3146, "Home": 3424, "Zonder": 7812, "secundair": 18845, "verdienen": 20928, "vertegenwoordig": 21412, "halfuur": 13012, "##gund": 25817, "binnenkwam": 9587, "Juncker": 3840, "achterblijven": 8105, "uitblijven": 20475, "beschutte": 9223, "Willems": 7645, "##ambi": 23952, "Ir": 3619, "##bijeenkomst": 24340, "verlaat": 21117, "dioxine": 10731, "Fel": 2600, "gevecht": 12537, "Abdullah": 578, "verhitte": 21042, "Baskenland": 1081, "aangewend": 7929, "Mohammed": 4934, "behoed": 8944, "##brood": 24483, "mannetjes": 15355, "##iro": 26264, "hogere": 13348, "##logisch": 26933, "##ribas": 28138, "Keith": 3942, "bespottelijk": 9258, "tak": 19838, "##EC": 23283, "Ellis": 2420, "##ria": 28134, "pijpen": 17435, "##ytisc": 29827, "gestaakt": 12459, "fran": 11726, "Florida": 2676, "ge\u00efrriteerd": 12686, "onuitputtelijk": 16711, "vernuft": 21227, "##transplantatie": 29084, "neerzette": 16002, "##boodschap": 24416, "##kloven": 26546, "##\u00ebn": 29982, "klonk": 14373, "majesteit": 15311, "##eyrick": 25226, "varieer": 20744, "96": 517, "minder": 15638, "evolueer": 11415, "IJs": 3521, "than": 20047, "transparant": 20317, "rijden": 18308, "cro": 10436, "tablet": 19824, "kadaver": 14038, "landings": 14832, "nederlaag": 15978, "Hermes": 3329, "aflevering": 8287, "Zijn": 7798, "DSM": 2000, "ratten": 17997, "##feest": 25245, "Voetbal": 7417, "putten": 17902, "1899": 275, "vreesde": 22047, "##SO": 23650, "##gift": 25720, "toast": 20126, "##hamer": 25854, "THE": 6793, "Andrew": 793, "opgevat": 16879, "motregen": 15833, "##owicz": 27655, "##eth": 25194, "geleerd": 12152, "hoofdzakelijk": 13406, "Dauphin": 2049, "concessies": 10297, "Marieke": 4642, "Poul": 5718, "snikken": 19123, "harde": 13067, "##juffer": 26383, "##tour": 29067, "Has": 3215, "ijsberen": 13591, "Lust": 4499, "Singh": 6459, "gedekt": 11953, "gedachte": 11940, "mar": 15361, "onder": 16348, "##38": 23083, "tickets": 20077, "vredesmacht": 22037, "##rum": 28283, "##mina": 27140, "Euro": 2503, "vanavond": 20724, "bevoegdheden": 9401, "immigranten": 13623, "Almere": 731, "commun": 10248, "olifant": 16230, "vervulling": 21492, "aanmelden": 7958, "commotie": 10247, "debacle": 10540, "Kyoto": 4178, "blanke": 9629, "Ville": 7363, "eigenaardige": 11195, "Tub": 7086, "kolonisten": 14490, "##prins": 27905, "Twaalf": 7108, "##debuut": 24807, "slijtage": 19018, "PlayStation": 5656, "revolutie": 18280, "gedaan": 11937, "noordwesten": 16130, "inspirerend": 13772, "##CTU": 23251, "stoffen": 19579, "onveranderlijk": 16715, "opportu": 16944, "##combinatie": 24667, "Dam": 2029, "##dool": 24913, "##shot": 28471, "bedrieg": 8835, "##vuil": 29604, "SV": 6172, "##uiz": 29208, "spot": 19331, "Sierra": 6432, "Bourgondi\u00eb": 1396, "##gebroed": 25408, "kun": 14706, "subsidies": 19752, "Eco": 2331, "merk": 15546, "##zich": 29883, "##OC": 23538, "doorweekt": 10900, "##hagedis": 25840, "intu\u00eftie": 13858, "primitief": 17733, "parket": 17278, "rotonde": 18429, "##consulent": 24701, "eetlepel": 11165, "D": 31, "korrel": 14564, "vriendschap": 22062, "Eneco": 2441, "luidde": 15215, "##kar": 26432, "##duivel": 24980, "getroffen": 12507, "##gasten": 25374, "fikse": 11585, "Mandy": 4612, "w\u00e9l": 22624, "##stoornis": 28772, "Edgar": 2343, "makers": 15319, "kost": 14576, "##anse": 24002, "omzeil": 16294, "##55": 23109, "voortgang": 21966, "##vervoer": 29429, "Hitchcock": 3383, "toeristen": 20178, "verenigingen": 20975, "wrijving": 22616, "zuinig": 22890, "tocht": 20128, "##adze": 23856, "presentatrice": 17692, "invasie": 13864, "1888": 264, "leger": 14920, "Acht": 597, "M\u00f6lle": 5040, "##tron": 29116, "goedkope": 12789, "Micro": 4845, "Boeing": 1324, "Moreno": 4978, "##dina": 24861, "##stellen": 28722, "vernemen": 21214, "geniet": 12265, "typische": 20465, "kalk": 14049, "S\u00e9basti": 6790, "kubi": 14699, "##laag": 26671, "Westerbork": 7605, "Herben": 3317, "##62": 23117, "ge\u00efmproviseerd": 12673, "veiliger": 20807, "Malone": 4601, "drugshandel": 11013, "omvatte": 16289, "Kevin": 3979, "lezers": 15012, "Daarvan": 2011, "##knip": 26553, "voorwendsel": 21988, "Tokio": 6994, "genegeerd": 12248, "misdaad": 15672, "anato": 8469, "Sanne": 6228, "Minerva": 4885, "##automaten": 24122, "##tract": 29073, "Leden": 4266, "78": 494, "gerespecteerd": 12363, "strompel": 19698, "fenome": 11562, "Fass": 2583, "##filet": 25276, "A1": 521, "Corsica": 1929, "##gepakt": 25539, "wereldrecord": 22375, "225": 408, "hapte": 13064, "opbouwen": 16806, "balustrade": 8720, "beervlinder": 8870, "rechtsomkeer": 18052, "Bijna": 1249, "Brabantse": 1415, "uitmaakt": 20572, "Bourg": 1393, "ontvoer": 16678, "zet": 22737, "Long": 4441, "bacteri\u00ebn": 8689, "##meisjes": 27094, "Dolf": 2191, "Imperial": 3569, "Sjostako": 6470, "onbewoond": 16343, "counter": 10397, "vijftien": 21666, "voorgeschoteld": 21910, "fr": 11717, "##\u00ebrs": 29985, "##suiker": 28846, "##blessure": 24370, "##han": 25855, "##ieder": 26093, "Vandenbroucke": 7232, "meid": 15497, "gronden": 12925, "prettige": 17708, "##zitten": 29906, "Conservatorium": 1898, "kerstdag": 14205, "aantrof": 8007, "high": 13289, "illegale": 13606, "##AST": 23198, "beluisteren": 9078, "bewind": 9455, "huis": 13479, "negentien": 16011, "Smit": 6508, "Dinamo": 2146, "morgens": 15808, "drietal": 10973, "Maha": 4577, "##beslissing": 24276, "##meyer": 27123, "Troy": 7066, "Decker": 2063, "97": 518, "binnendringen": 9581, "aluminium": 8430, "haaien": 12981, "waaide": 22141, "gauw": 11836, "golf": 12795, "Oliv": 5304, "mix": 15703, "##issa": 26282, "##week": 29667, "##nner": 27329, "##uku": 29212, "want": 22231, "verspreid": 21361, "##ychida": 29814, "Morgen": 4981, "Wouter": 7708, "wonder": 22563, "Aandacht": 559, "jegen": 13942, "conclusie": 10302, "went": 22366, "##leving": 26810, "##bepaling": 24254, "##fosf": 25325, "##erre": 25168, "Welk": 7571, "##NC": 23510, "##cla": 24642, "Enschede": 2459, "##sdag": 28432, "##?": 87, "##processen": 27914, "getiteld": 12498, "gerommel": 12375, "jungle": 14000, "adjudant": 8185, "Hel": 3278, "Sat": 6246, "waard": 22153, "beloofde": 9072, "stuur": 19741, "ridder": 18299, "gistermorg": 12716, "##zw": 29944, "##materialis": 27062, "Forensisch": 2697, "1951": 329, "conf": 10312, "##street": 28800, "doelgericht": 10798, "wanhopig": 22225, "gemakkelijk": 12200, "leuker": 14978, "hare": 13075, "beperking": 9133, "verheugd": 21037, "##waterzuivering": 29656, "Company": 1875, "Excelsior": 2532, "Mik": 4863, "Baldwin": 1041, "bezorgde": 9509, "dreunend": 10962, "##bakker": 24161, "effectief": 11180, "##varen": 29308, "zult": 22899, "panel": 17234, "Lourdes": 4461, "hack": 12996, "##rel": 28088, "Mexico": 4825, "kijk": 14242, "promoveerde": 17821, "Economie": 2335, "Alle": 722, "Mitsubish": 4907, "Old": 5301, "huisvesting": 13493, "staat": 19377, "##BERG": 23215, "Eeuw": 2366, "##genre": 25536, "gastland": 11828, "helikopters": 13171, "Moeilijk": 4923, "Alphen": 736, "frame": 11725, "##ED": 23285, "Economic": 2334, "##want": 29642, "##commercial": 24673, "terugkeerde": 20017, "getto": 12511, "##\u00ec": 30013, "verbijster": 20867, "alweer": 8432, "bedacht": 8793, "##strategie\u00ebn": 28794, "Rubi": 6115, "waakzaam": 22144, "gewest": 12596, "##verzekeraar": 29436, "Matti": 4708, "1959": 337, "mus": 15855, "##koor": 26590, "slik": 19019, "driekwart": 10971, "predikant": 17679, "alternatieven": 8428, "dinosauri\u00ebr": 10727, "##PE": 23578, "maker": 15318, "Soe": 6530, "##uichot": 29191, "##vorst": 29575, "actief": 8155, "##kristal": 26631, "Boer": 1329, "##IJ": 23413, "##woud": 29799, "##RT": 23626, "genummerd": 12282, "Natuur": 5097, "Oecophor": 5281, "leveren": 15007, "schriftelijk": 18776, "krijg": 14642, "##bewerking": 24317, "##oppen": 27549, "##oxi": 27660, "##woed": 29767, "emotioneel": 11278, "Valk": 7217, "haal": 12985, "echtgenote": 11112, "mistig": 15697, "##rekeningsvatbaar": 28086, "##stelling": 28724, "##watch": 29654, "nationaliteit": 15952, "smette": 19086, "##druppel": 24968, "Echt": 2328, "zachte": 22643, "taai": 19813, "boter": 9816, "Dakota": 2023, "beschouw": 9208, "##concentratie": 24687, "My": 5034, "duivel": 11051, "jaloezie": 13925, "Schepper": 6282, "overkwam": 17125, "academic": 8077, "boel": 9729, "##reldgezondheids": 28092, "Kunsthal": 4164, "kwartaal": 14746, "uitbarsting": 20472, "60": 469, "koestert": 14468, "ramp": 17970, "Dragon": 2238, "##ochtans": 27372, "bespeuren": 9255, "Publicatie": 5788, "##ers": 25169, "drankje": 10950, "Fritz": 2763, "beslist": 9235, "bereikten": 9151, "onderhandeling": 16378, "militaire": 15623, "afbeeldingen": 8215, "kreunde": 14636, "arbeidsplaats": 8536, "kenden": 14174, "stagiair": 19399, "bondgenootschap": 9762, "bezorgd": 9508, "chantage": 10114, "##tif": 29000, "##ahl": 23891, "overzicht": 17194, "##blog": 24385, "Klanten": 4020, "Arian": 889, "##tuur": 29154, "Texel": 6895, "##bour": 24440, "tamelijk": 19852, "hypo": 13544, "##college": 24663, "Rau": 5866, "Koos": 4095, "##OON": 23558, "##voor": 29555, "Oef": 5282, "hak": 13002, "##gebeten": 25389, "Kur": 4166, "##aks": 23915, "##matige": 27064, "lijkschouwer": 15082, "heimelijk": 13148, "##roller": 28231, "onderhavig": 16379, "Gerben": 2898, "hinderlijk": 13297, "biljart": 9571, "can": 10056, "monnik": 15773, "bolwerk": 9750, "Barneveld": 1072, "nare": 15942, "gestalte": 12460, "##nieuwsgierigheid": 27318, "aangevallen": 7923, "spelling": 19263, "woud": 22605, "##adulf": 23850, "ranglijst": 17978, "##komstenbelasting": 26582, "klassement": 14304, "duur": 11073, "verse": 21331, "##iale": 26038, "##inkomsten": 26226, "Wak": 7510, "Afrikaans": 642, "##vast": 29312, "toestel": 20188, "other": 17049, "##icum": 26069, "communistisch": 10257, "vluchtelingen": 21768, "Grand": 3039, "Silezi\u00eb": 6440, "stemde": 19488, "##eli": 25074, "forceren": 11679, "hoogleraren": 13411, "uitbreken": 20484, "vangrail": 20730, "arrestatie": 8570, "verandering": 20841, "##racon": 27989, "Levi": 4330, "##uweel": 29274, "weg": 22307, "theater": 20050, "##los": 26962, "Erica": 2476, "##neus": 27299, "Raw": 5870, "gehuisvest": 12079, "welzijn": 22351, "composities": 10282, "sluitingstijd": 19053, "Probleem": 5753, "Moor": 4971, "verdrietig": 20946, "##221": 23048, "handicap": 13042, "formula": 11689, "eigen": 11192, "1874": 253, "neerbuigend": 15988, "stijging": 19545, "Woerden": 7680, "believ": 9062, "Travi": 7043, "vergroeid": 21020, "##blauw": 24363, "Slobodan": 6491, "##nova": 27348, "verried": 21287, "leefde": 14888, "1922": 300, "sloppenwijk": 19039, "gematigde": 12207, "Vis": 7378, "verkleinen": 21095, "##tentoonstelling": 28947, "##stuurde": 28837, "Klo": 4038, "Algemeen": 709, "geslaagd": 12427, "kampioen": 14069, "versnelde": 21352, "zong": 22832, "Key": 3980, "gotisch": 12814, "fu": 11754, "statistisch": 19446, "Salomon": 6205, "vrees": 22046, "zonk": 22833, "##komst": 26581, "##kraam": 26614, "referentie": 18096, "Ayl": 988, "##rdin": 28036, "Samuel": 6218, "Sean": 6338, "schoen": 18715, "##geschenk": 25580, "Rhodan": 5961, "##mun": 27229, "zullen": 22898, "aanwinst": 8034, "spannend": 19211, "##lijsten": 26867, "doktor": 10818, "ruime": 18463, "gehalveerd": 12047, "hint": 13303, "Petra": 5583, "##haak": 25829, "##loeter": 26926, "Taal": 6802, "##iana": 26040, "##idium": 26086, "Creek": 1951, "oprecht": 16949, "mankeer": 15349, "monarch": 15764, "mo": 15705, "blues": 9701, "oostkust": 16803, "streep": 19667, "wonnen": 22573, "##kantoor": 26424, "genegenheid": 12249, "Mall": 4597, "##bedrijf": 24204, "##alsema": 23945, "##ZO": 23752, "bewoner": 9467, "TT": 6798, "politieagent": 17576, "populairder": 17610, "helden": 13159, "Noord": 5229, "Jakob": 3685, "beoogde": 9122, "plechtig": 17512, "sterfelijk": 19503, "Protocol": 5769, "Vul": 7479, "1933": 311, "spande": 19208, "##keer": 26445, "Bruinsma": 1500, "Paulus": 5527, "teruggestuurd": 20011, "terloops": 19982, "beloven": 9075, "##1862": 23023, "##raap": 27983, "##directrice": 24872, "Spencer": 6587, "m\u00f3et": 15883, "beschouwd": 9209, "Juda": 3824, "helling": 13174, "ongelovig": 16484, "gezicht": 12636, "Kot": 4116, "levendig": 14989, "schroeven": 18790, "struikelde": 19717, "Kentucky": 3962, "##aglia": 23888, "##materiaal": 27060, "Tijd": 6950, "kreunend": 14637, "Hermeli": 3328, "Ambrosi": 754, "aanvaard": 8008, "##chen": 24584, "gala": 11799, "koesteren": 14467, "adviseerde": 8205, "Ott": 5411, "toevoeging": 20206, "Marlie": 4664, "##lyn": 26988, "Titan": 6973, "##iano": 26043, "Russell": 6137, "woonplaats": 22580, "sympathisant": 19801, "##negen": 27281, "Palestijnen": 5466, "##gesch": 25577, "Scott": 6334, "kalksteen": 14051, "stopgezet": 19609, "quiz": 17914, "Chi": 1741, "hamburger": 13021, "intensiteit": 13814, "stuip": 19730, "##ave": 24127, "Mach": 4551, "VA": 7173, "Garp": 2816, "uitgedaagd": 20511, "vermoed": 21195, "Fons": 2688, "##BW": 23229, "##format": 25319, "Summer": 6746, "onaantrekkelijk": 16306, "##staal": 28671, "gezoem": 12645, "perfecte": 17375, "oorzaak": 16795, "sat": 18553, "gedomineerd": 11977, "##ci\u00f3n": 24633, "Toen": 6990, "Hannover": 3192, "Klaassen": 4019, "##vrouwen": 29602, "aanbieders": 7866, "##ri\u00eble": 28201, "recent": 18026, "##kering": 26460, "Stalin": 6628, "##gno": 25746, "##&": 67, "proloog": 17815, "Melsele": 4782, "flamboyant": 11627, "##eerden": 25024, "Hu": 3480, "Hamme": 3178, "academie": 8078, "Spring": 6609, "patriarch": 17332, "Regel": 5900, "##87": 23141, "cameraman": 10050, "houtskool": 13466, "Kip": 4008, "tarieven": 19866, "##ire": 26261, "kwijtraakt": 14766, "stations": 19441, "mensen": 15534, "hongerig": 13376, "stralend": 19650, "rekent": 18170, "Jenn": 3727, "##tiv": 29028, "##verwerking": 29432, "licht": 15025, "alias": 8390, "grabbel": 12832, "##uleerd": 29219, "fulltime": 11757, "kostte": 14584, "##heilig": 25901, "maandelijks": 15262, "vermoedde": 21196, "Hub": 3481, "haren": 13076, "bekeerd": 8969, "afgebeeld": 8229, "ontroering": 16644, "Bahama": 1033, "fototoestel": 11710, "##ianus": 26044, "puilde": 17887, "##1859": 23020, "roddel": 18361, "##doek": 24892, "Murphy": 5020, "notulen": 16150, "Dwars": 2300, "2020": 401, "Monument": 4966, "Bloed": 1299, "Stap": 6635, "##gestampt": 25611, "bidden": 9535, "##800": 23135, "vergelding": 20996, "Georges": 2889, "##taart": 28870, "trio": 20362, "Cloud": 1824, "raken": 17959, "hol": 13353, "verkrijgbaar": 21114, "##tum": 29143, "structuree": 19711, "bericht": 9160, "vastzat": 20768, "##verdrag": 29358, "aanbieding": 7867, "Jazz": 3715, "volkeren": 21842, "afgunst": 8269, "Koninklijke": 4086, "selecte": 18857, "Toekomst": 6989, "Aalter": 557, "Javier": 3713, "lenen": 14948, "##von": 29552, "Harley": 3203, "kandidatenlijst": 14079, "Roemenen": 6036, "intrigerend": 13852, "Lag": 4202, "But": 1549, "omkoping": 16265, "schilders": 18700, "##vullen": 29606, "##gevoelens": 25651, "Eliza": 2411, "##5": 80, "duikers": 11044, "oorverdovend": 16794, "Ria": 5965, "Pittsburgh": 5642, "felicite": 11558, "##tang": 28890, "verlaten": 21126, "##maaltijd": 26999, "##atta": 24106, "##14": 22995, "aangewezen": 7930, "AP": 546, "vormen": 22010, "pianist": 17414, "Douwe": 2228, "##rov": 28258, "##oglu": 27402, "##szins": 28867, "verhuren": 21059, "Great": 3049, "ster": 19499, "Clark": 1801, "##ngelooflijk": 27305, "1981": 359, "##54": 23108, "Walter": 7523, "##binden": 24346, "jood": 13977, "stilgelegd": 19553, "timing": 20111, "##bloei": 24381, "benijd": 9107, "landen": 14825, "ongelijk": 16477, "##gemeente": 25512, "brevi": 9889, "##izer": 26331, "klaarblijkelijk": 14279, "US": 7127, "##wierp": 29729, "straaljager": 19631, "Movie": 5001, "##horen": 25987, "G": 34, "##ceremonie": 24564, "danser": 10523, "##fel": 25249, "Ligt": 4367, "kolen": 14484, "standaard": 19416, "koningshuis": 14516, "fantastische": 11514, "ergerde": 11333, "Occitani": 5273, "porselein": 17619, "BR": 1009, "Zoom": 7816, "opleiden": 16908, "wapperde": 22239, "meters": 15564, "Mull": 5011, "vrijdagmiddag": 22069, "zwembad": 22944, "werkwoord": 22408, "Remo": 5929, "Victoriaans": 7350, "##sters": 28736, "##tippen": 29022, "Vanmorgen": 7235, "kartel": 14126, "##laten": 26723, "Dui": 2271, "aanvallers": 8016, "onopvallend": 16549, "Velen": 7266, "roman": 18390, "Stefanie": 6652, "##lim": 26872, "Em": 2425, "##balk": 24164, "beheerd": 8934, "Florian": 2675, "Wapen": 7530, "##installatie": 26236, "Dieren": 2128, "##maat": 27004, "##vrees": 29587, "constateerde": 10335, "Luciano": 4478, "presentator": 17691, "grappen": 12849, "sonde": 19181, "rossig": 18427, "1889": 265, "Armand": 900, "Lef": 4280, "Arthur": 917, "geschat": 12392, "##schiet": 28365, "achttiende": 8146, "Buy": 1552, "deelde": 10558, "kletsen": 14341, "persoonlijke": 17401, "atoom": 8621, "screen": 18830, "territorium": 19996, "crack": 10411, "maaltijd": 15255, "bezetter": 9486, "History": 3381, "bushalte": 10016, "onstuimig": 16571, "illusie": 13608, "afzijdig": 8357, "myst": 15873, "volgen": 21832, "##loch": 26921, "pluimvee": 17547, "Ecolo": 2332, "geschud": 12418, "Bac": 1024, "Tibetaans": 6938, "gekweekt": 12130, "stuit": 19731, "##machi": 27008, "losmak": 15191, "nieuwslezer": 16071, "kanton": 14094, "onzeker": 16761, "geschilderd": 12403, "staan": 19373, "publiceerde": 17880, "##bert": 24269, "dwaling": 11089, "Merksem": 4805, "States": 6640, "neuri\u00ebn": 16041, "##gevlogen": 25647, "##vri": 29590, "##hief": 25933, "Spier": 6593, "##schap": 28338, "About": 584, "aardappelen": 8043, "##leden": 26738, "Parti": 5503, "lastiger": 14869, "kardinaal": 14120, "vliegveld": 21742, "motoren": 15828, "steeg": 19456, "breidde": 9880, "Felice": 2602, "##AA": 23155, "##rep": 28107, "sinaasappel": 18934, "neus": 16043, "zeventiende": 22747, "nieuwkomer": 16067, "##ckel": 24637, "ondervraagd": 16428, "Tanj": 6824, "school": 18730, "betoverend": 9334, "betreur": 9345, "parlementaire": 17281, "##stall": 28688, "Landelijk": 4220, "telefooncel": 19938, "raad": 17917, "oerwoud": 16198, "omvang": 16285, "##wachter": 29627, "##gelegen": 25491, "vitaliteit": 21709, "bloot": 9693, "##aar": 23780, "J": 37, "##its": 26310, "enclave": 11282, "Benfica": 1170, "uitgaan": 20501, "Straf": 6706, "verkoudheid": 21107, "Babylon": 1023, "spoor": 19315, "71": 485, "bakboord": 8699, "##sluiting": 28539, "merkwaardig": 15552, "Logisch": 4427, "lichaams": 15023, "Duister": 2277, "onverantwoord": 16716, "##za": 29828, "langzame": 14854, "Dro": 2253, "##bewegingen": 24315, "bewonderen": 9465, "Boeren": 1330, "handelaar": 13029, "Mertens": 4809, "detailhandel": 10636, "dijk": 10715, "grap": 12847, "niet": 16058, "niks": 16080, "trant": 20320, "telepathisch": 19945, "vervuld": 21489, "CDA": 1566, "twaalfde": 20432, "vermaak": 21171, "##mus": 27235, "##III": 23412, "##iva": 26322, "Helder": 3281, "##TS": 23685, "Mel": 4770, "bedoelt": 8823, "vervroegd": 21485, "##drempel": 24943, "##kreten": 26628, "lager": 14806, "##braden": 24454, "##IER": 23405, "Solo": 6540, "##bei": 24231, "Zouden": 7822, "Cijfer": 1782, "bedoel": 8819, "Klim": 4034, "One": 5337, "getrouwd": 12510, "treinverkeer": 20341, "Prue": 5776, "vlooien": 21762, "##gewogen": 25677, "DJ": 1995, "##ceptie": 24562, "Matt": 4702, "realiteit": 18019, "##lok": 26934, "Ont": 5346, "m": 30035, "verbluffend": 20883, "##delige": 24817, "Hemi": 3296, "##prijzen": 27901, "##theorie": 28976, "meegenomen": 15465, "##pora": 27859, "kokos": 14482, "actie": 8154, "##an": 23967, "Foto": 2708, "Basten": 1085, "##KP": 23451, "##kantoren": 26425, "bijgewoond": 9555, "##74": 23128, "Buiten": 1522, "Surre": 6756, "##teridae": 28952, "donderslag": 10842, "verweren": 21524, "##betalen": 24296, "prut": 17859, "Sem": 6357, "archi": 8544, "wens": 22360, "Maggie": 4573, "Linux": 4396, "##la": 26670, "##teit": 28923, "geestig": 12012, "##lein": 26766, "rooster": 18425, "bediende": 8815, "Highway": 3361, "Hoeveel": 3396, "dronk": 11003, "knutsel": 14447, "Langzaam": 4228, "##beambte": 24196, "##ies": 26111, "kil": 14250, "Sliedrecht": 6488, "Meester": 4755, "##VB": 23713, "aangaan": 7885, "geduwd": 11999, "verwonderd": 21557, "Vu": 7476, "constante": 10333, "Renat": 5932, "##reservaat": 28111, "gelijkspel": 12175, "nalatenschap": 15931, "beoordeling": 9126, "Oezbekistan": 5288, "concern": 10293, "parlementslid": 17283, "sensatie": 18865, "##cken": 24638, "##tevens": 28965, "verschuil": 21327, "zetel": 22738, "hielen": 13275, "probeer": 17753, "##aut": 24118, "Drog": 2254, "opmerkelijk": 16923, "behandelen": 8928, "ingevoerd": 13720, "schuin": 18808, "beelden": 8858, "##roezemoe": 28225, "Wis": 7667, "serieuze": 18877, "##gge": 25705, "##ack": 23821, "Edel": 2342, "##vouwen": 29578, "klippen": 14366, "miljonair": 15632, "push": 17900, "dorpje": 10913, "##vechter": 29320, "Eurostat": 2512, "verwerven": 21530, "##vre": 29584, "verdachten": 20908, "Strijd": 6716, "kater": 14142, "achterbank": 8104, "stoornis": 19604, "verhoogde": 21047, "LPF": 4186, "par": 17250, "atoombom": 8622, "verwilderd": 21547, "vaag": 20674, "race": 17937, "platform": 17506, "tram": 20305, "Meisjes": 4768, "Ost": 5410, "schub": 18794, "Putten": 5798, "Clerck": 1813, "##symbool": 28860, "krimp": 14653, "huishoudens": 13487, "na\u00efef": 15973, "##dicht": 24843, "ontwerpen": 16690, "anoniem": 8493, "op": 16804, "gesleept": 12431, "##stoffen": 28765, "Couperus": 1939, "z\u00e9lf": 22969, "Molukken": 4943, "sentiment": 18866, "Dendermonde": 2084, "Sara": 6239, "goddelijk": 12773, "lachwekkend": 14794, "Hendrick": 3299, "deftig": 10581, "govern": 12821, "studeer": 19719, "Antoine": 837, "lid": 15037, "symbolisch": 19792, "gevaarlijk": 12521, "invoer": 13877, "##mund": 27230, "##G": 94, "##klappen": 26513, "##hall": 25848, "Paige": 5454, "crematie": 10420, "aanspreken": 7988, "paard": 17202, "##detector": 24836, "liepen": 15060, "##oven": 27631, "##ff": 25257, "federatie": 11541, "##voet": 29536, "negeren": 16016, "huize": 13501, "schraapte": 18763, "rotzooi": 18436, "staven": 19450, "##leur": 26801, "geestes": 12011, "vermoedelijk": 21197, "snap": 19102, "Florent": 2673, "vermoeid": 21199, "ideologisch": 13577, "Paula": 5524, "Ethiopi\u00eb": 2494, "Police": 5684, "adviezen": 8203, "lullig": 15237, "striem": 19681, "##door": 24914, "Oostenrijk": 5365, "sober": 19138, "##huizen": 26020, "club": 10195, "laboratorium": 14785, "mooie": 15789, "specifiek": 19229, "Veertig": 7255, "doop": 10870, "begeef": 8881, "intelligent": 13807, "##kruip": 26641, "mailbox": 15307, "Reserve": 5941, "krijgers": 14645, "kroon": 14673, "traditionele": 20285, "berekening": 9155, "pocket": 17557, "Viking": 7358, "##EI": 23297, "gladde": 12723, "genomen": 12273, "##ontschuldigend": 27500, "vrijetijds": 22071, "##sgraad": 28461, "Brad": 1417, "schatting": 18614, "gehaast": 12044, "argwa": 8556, "bui": 9958, "Man": 4606, "duiven": 11053, "verkiezings": 21084, "Koreaanse": 4104, "andere": 8472, "ideaal": 13565, "jeep": 13941, "toelichting": 20161, "voorafgaand": 21882, "hamer": 13022, "Subti": 6734, "##pensioen": 27735, "grondwet": 12934, "##kastje": 26439, "even": 11403, "bedolven": 8824, "schutting": 18820, "Ticket": 6939, "spelletjes": 19262, "bevoegdheid": 9402, "bijlage": 9557, "afgezant": 8264, "heur": 13266, "misvatting": 15698, "hekken": 13152, "Megawat": 4760, "schijnt": 18685, "fosfor": 11700, "verklaard": 21086, "C": 30, "poly": 17588, "Buffalo": 1517, "Janssens": 3701, "ook": 16779, "Federer": 2595, "constateer": 10334, "uitlating": 20568, "lijkt": 15083, "gelinkt": 12178, "tsunami": 20401, "##rose": 28249, "aangepakt": 7905, "Bekende": 1140, "chief": 10134, "##economie": 25008, "##bestuur": 24291, "batterij": 8775, "AVRO": 550, "Ang\u00e9lique": 809, "vrienden": 22056, "##gewoonte": 25679, "Verschrikkelijk": 7326, "##mocraten": 27169, "Dierckx": 2127, "Flu": 2680, "bemiddeling": 9084, "##OCK": 23539, "bestaan": 9265, "dam": 10510, "Brei": 1443, "Leo": 4305, "Uni": 7147, "troep": 20368, "ijskast": 13595, "voorwaarts": 21987, "gemene": 12218, "##ddy": 24803, "handtas": 13049, "matrozen": 15414, "toenadering": 20163, "Evangeli": 2518, "bevat": 9375, "doorgevoerd": 10888, "luchthaven": 15205, "Rosmalen": 6090, "##blijvers": 24376, "##bescherming": 24272, "grootscheepse": 12945, "achterna": 8123, "Winst": 7662, "Chloe": 1755, "##america": 23957, "opleveren": 16914, "zweet": 22942, "Peper": 5554, "Soest": 6533, "bank": 8732, "##dagboek": 24781, "Perry": 5565, "concert": 10294, "##vergadering": 29364, "Abe": 579, "##475": 23097, "toen": 20162, "nest": 16028, "Bremer": 1445, "Robeco": 6016, "##werkingsverband": 29701, "VVV": 7198, "Fir": 2647, "omgeving": 16252, "verdubbelen": 20953, "kapel": 14102, "Wiener": 7629, "pub": 17874, "woedende": 22543, "stoffelijk": 19578, "##materialen": 27061, "Duc": 2268, "institutionele": 13787, "serveren": 18881, "Stre": 6712, "VWS": 7200, "Vrij": 7466, "bibber": 9529, "##OOD": 23557, "trommel": 20377, "Berkel": 1189, "##nek": 27282, "ori\u00ebnteren": 17041, "##steenvlieg": 28715, "arbeids": 8533, "Bastenaken": 1086, "##vlakken": 29490, "gevoerd": 12560, "letterlijk": 14971, "keversoort": 14226, "opknapbeurt": 16902, "Pak": 5456, "evolutie": 11417, "stond": 19596, "ontzag": 16704, "voluit": 21865, "Aston": 935, "gelijktijdig": 12176, "##wand": 29638, "178": 226, "##rano": 28018, "##wein": 29680, "aandachtig": 7872, "Thomson": 6920, "##port": 27860, "Halloween": 3170, "alom": 8420, "vingerafdruk": 21680, "##aad": 23756, "verwijdering": 21540, "rok": 18380, "schikte": 18690, "onophoudelijk": 16548, "feiten": 11554, "Rouge": 6101, "##elenbos": 25071, "##geofferd": 25538, "verliezen": 21153, "werkgroep": 22392, "##ISS": 23433, "##1833": 23007, "contact": 10349, "onopgemerkt": 16547, "letten": 14968, "wikkelde": 22481, "##bessen": 24282, "##stuk": 28830, "##temperatuur": 28940, "##gestapt": 25612, "Young": 7739, "Mercedes": 4796, "b": 53, "Br": 1410, "und": 20648, "Ai": 665, "##GH": 23363, "omgekomen": 16249, "reus": 18272, "gevaren": 12534, "##bouwer": 24445, "gebeurtenissen": 11876, "##rennen": 28103, "Tilburgse": 6956, "prijsstijging": 17720, "afkeer": 8274, "Reuters": 5945, "manschappen": 15357, "Sofia": 6534, "begeven": 8889, "vijf": 21658, "durft": 11068, "##42": 23090, "Keer": 3939, "##aantallen": 23775, "benauwd": 9101, "kleedde": 14320, "##poets": 27838, "##duits": 24979, "##ich": 26055, "Angelina": 803, "##bewoner": 24320, "gastvrijheid": 11831, "realiseer": 18014, "be\u00ebindigd": 9524, "tegemoetkoming": 19899, "##hy": 26032, "sul": 19771, "##UWV": 23710, "Trust": 7071, "gepland": 12313, "Beat": 1105, "opereren": 16844, "##NIS": 23517, "##hals": 25850, "beslissen": 9232, "Snijd": 6519, "beklimme": 8993, "symptomen": 19803, "##collectie": 24662, "bruid": 9936, "ambachtelijk": 8439, "wree": 22610, "Simon": 6447, "opgespoord": 16874, "##KA": 23440, "##MZ": 23504, "##machines": 27010, "geplunderd": 12316, "volleybal": 21853, "Tenzij": 6868, "##ema": 25099, "Claudi": 1804, "##stig": 28743, "Mal": 4587, "##gerecht": 25557, "basisplaats": 8763, "dvd": 11084, "##wi": 29722, "##eiligheidsdienst": 25047, "##fries": 25341, "muts": 15864, "vertrekken": 21437, "##raketten": 28007, "intimideren": 13848, "marktwerking": 15384, "##zaad": 29829, "##rood": 28240, "esthe": 11373, "Sylvain": 6777, "pc": 17342, "vliegdek": 21735, "Reiziger": 5921, "##tuig": 29139, "Reij": 5914, "sluipen": 19047, "##HI": 23383, "##blus": 24390, "borstkanker": 9805, "karakteristiek": 14117, "toevoegen": 20205, "##ve": 29317, "##werving": 29707, "##need": 27276, "langeafstands": 14843, "51": 458, "bij": 9546, "Tha": 6897, "160": 215, "##pje": 27789, "klik": 14353, "bedrog": 8847, "immuniteit": 13625, "rat": 17993, "##ors": 27582, "milieu": 15621, "vermoord": 21207, "intimiteit": 13849, "verlichtte": 21147, "Yuri": 7743, "sou": 19192, "speeltijd": 19247, "bestraft": 9287, "##speler": 28603, "mobiel": 15706, "voltooid": 21861, "individuele": 13669, "relschoppers": 18193, "Jammer": 3690, "##ania": 23990, "Krist": 4135, "feest": 11543, "neefje": 15984, "verzinsel": 21590, "##gur": 25819, "hielp": 13276, "vervreemd": 21484, "zwol": 22966, "##horse": 25989, "again": 8360, "formaliteit": 11683, "##signaal": 28477, "afgedrukt": 8233, "archipel": 8547, "bizar": 9611, "##gezet": 25691, "onbruikbaar": 16346, "stadhuis": 19390, "##belde": 24245, "Alison": 716, "kijkcijfers": 14243, "Finn": 2644, "alfabet": 8385, "doolhof": 10869, "hurken": 13522, "Ursula": 7164, "profetie": 17793, "Rav": 5867, "stapje": 19427, "appartementen": 8522, "conducteur": 10311, "##halve": 25851, "##imus": 26190, "##wijze": 29741, "moge": 15745, "##EEUW": 23291, "Donder": 2203, "grapje": 12848, "misdrijven": 15678, "zelden": 22701, "schamper": 18598, "zonsopgang": 22846, "Benedict": 1167, "veroorzaakte": 21245, "##261": 23066, "Wonder": 7691, "afgebroken": 8230, "##ieel": 26094, "Q": 30023, "##\u00fb": 30021, "sha": 18891, "hebt": 13107, "##F": 93, "afschuwelijke": 8309, "wrijven": 22615, "pri": 17713, "Mori": 4982, "Casper": 1658, "breder": 9874, "zweefde": 22938, "Thro": 6927, "technische": 19890, "Fabric": 2560, "Armeni\u00eb": 903, "angstvallig": 8483, "Haplo": 3195, "vet": 21617, "terugtrekking": 20025, "##\u00f3r": 29992, "stomp": 19593, "splitst": 19300, "cola": 10212, "knikte": 14419, "animatiefilm": 8485, "ge\u00efn": 12674, "44": 446, "##verbruik": 29349, "werkwijze": 22407, "##nemer": 27285, "cabaretier": 10035, "slagen": 18974, "1500": 211, "##toeslag": 29041, "Schelde": 6276, "bestuurder": 9301, "Rusland": 6136, "graven": 12861, "marxis": 15390, "academische": 8080, "##leeftijd": 26744, "Camp": 1605, "Zw": 7837, "erom": 11349, "lekkernij": 14942, "Electronic": 2398, "produkt": 17781, "hennep": 13188, "trut": 20399, "sproet": 19354, "##hra": 26007, "##kreeg": 26625, "huisjes": 13490, "cirri": 10169, "mededeling": 15431, "Chinees": 1749, "schoolplein": 18733, "##webspinne": 29661, "verdrongen": 20949, "##jager": 26348, "eco": 11115, "##ENE": 23312, "##besteding": 24286, "schreeuwt": 18774, "wateroppervlak": 22256, "pennen": 17360, "Roos": 6078, "##guin": 25814, "Lob": 4419, "furieu": 11777, "Place": 5645, "Bedoel": 1118, "replica": 18220, "drogen": 10997, "Jurgen": 3848, "##schrik": 28411, "##droeve": 24957, "ontvanger": 16672, "cl": 10180, "##print": 27906, "##spatten": 28589, "##yce": 29811, "##nchen": 27265, "mobiele": 15707, "syn": 19804, "##rubriek": 28269, "voornemen": 21933, "belangstellend": 9024, "NGC": 5050, "publicatie": 17877, "Golf": 3001, "##\u00f3w": 29994, "Team": 6835, "maniak": 15341, "##single": 28484, "correspondentie": 10388, "##App": 23206, "Pike": 5625, "gekleed": 12101, "estafette": 11372, "talent": 19844, "Abdel": 575, "Katwijk": 3929, "Marseille": 4671, "bolide": 9746, "Amazon": 751, "wielrennen": 22453, "##EL": 23300, "verontrustend": 21235, "Agost": 656, "Arg": 883, "felicitatie": 11557, "lang": 14839, "##kerke": 26462, "meesterwerk": 15490, "##mengsel": 27103, "beduidend": 8851, "Grieken": 3062, "diplomaten": 10734, "spil": 19280, "Vecht": 7244, "forensisch": 11680, "aartsbisdom": 8053, "return": 18268, "verhoging": 21044, "lineair": 15100, "medestander": 15439, "benieuwd": 9106, "verwachting": 21500, "nationale": 15949, "##overschot": 27638, "Boussoufa": 1398, "Robb": 6012, "League": 4262, "complex": 10270, "Cataloni\u00eb": 1670, "Nelson": 5127, "liquidatie": 15117, "Hengelo": 3304, "gehavend": 12055, "verkreeg": 21112, "##ibbe": 26046, "##ruzie": 28293, "willekeur": 22488, "##fra": 25330, "wortels": 22603, "ijzige": 13603, "omhelsd": 16257, "Religie": 5924, "##EP": 23316, "Zack": 7753, "slip": 19027, "argumenten": 8555, "wanhoop": 22224, "lu": 15202, "##ENT": 23314, "##RIS": 23616, "ellendig": 11266, "##mis": 27148, "##TC": 23668, "essentieel": 11369, "ju": 13987, "##begeleider": 24217, "uitgever": 20549, "rammel": 17968, "##argument": 24039, "ingewikkelde": 13725, "verbod": 20885, "##trix": 29109, "Luikse": 4487, "Hingis": 3374, "Clare": 1799, "heet": 13132, "##amon": 23963, "koersen": 14464, "Logan": 4426, "train": 20292, "##osci": 27590, "##yle": 29816, "onderdelen": 16361, "verdiept": 20934, "legitimatie": 14925, "##etten": 25202, "bliksemsnel": 9656, "nog": 16098, "stage": 19398, "Reilly": 5915, "Alcohol": 693, "##groepen": 25800, "h\u00e8": 13552, "kortstondig": 14572, "leeftijd": 14891, "##zoet": 29916, "##com": 24666, "misvormd": 15700, "menselijk": 15532, "Oxy": 5435, "Staat": 6618, "Nie": 5169, "Argent": 884, "KU": 3864, "koud": 14588, "Dall": 2026, "ongekend": 16475, "Restaurant": 5943, "que": 17912, "##lius": 26899, "111": 183, "geopereerd": 12291, "Weet": 7562, "ophef": 16893, "Alliantie": 728, "verblind": 20881, "##tag": 28872, "Buddy": 1515, "Jackson": 3674, "geruchten": 12380, "Doornik": 2214, "oceaan": 16186, "steekproef": 19461, "mond": 15766, "toegankelijk": 20137, "Eurocommissaris": 2504, "##netje": 27292, "1912": 290, "cowboy": 10405, "##arcasme": 24030, "politieke": 17582, "Lochristi": 4421, "##regisseur": 28071, "Mit": 4904, "##DI": 23267, "San": 6219, "Indy": 3588, "coureur": 10402, "organiseren": 17033, "##hun": 26024, "1987": 365, "Kremlin": 4128, "geldschieter": 12145, "gewijzigd": 12602, "opgericht": 16867, "opschieten": 16961, "verscherpt": 21308, "aanvoer": 8022, "zaak": 22637, "Tante": 6825, "Th\u00e9": 6933, "versie": 21332, "bemiddel": 9082, "##i\u00ebnnale": 26337, "##wick": 29725, "klagen": 14287, "##aag": 23757, "##ogenblikken": 27401, "Senaat": 6360, "dashboard": 10531, "ontvang": 16670, "ingericht": 13712, "talrijk": 19849, "werken": 22387, "Reeve": 5897, "##arrington": 24056, "poker": 17567, "Sm": 6501, "Laag": 4188, "Party": 5506, "leidt": 14936, "Baar": 1017, "Verbaasd": 7280, "Scherp": 6283, "cijfer": 10157, "effecten": 11178, "##\u00e9\u00e9r": 29979, "palp": 17229, "charmant": 10119, "Rally": 5842, "enig": 11290, "drukken": 11019, "##bril": 24474, "##wee\u00ebn": 29674, "Orde": 5388, "##CA": 23232, "geloofde": 12183, "Maleisisch": 4592, "Ess": 2485, "##gedreven": 25425, "Falco": 2567, "Bot": 1385, "beveelt": 9378, "elfen": 11255, "leeg": 14892, "signaleer": 18922, "verwarrend": 21513, "dwergen": 11099, "gebouwd": 11897, "vibr": 21629, "##ruf": 28271, "##krant": 26622, "Product": 5757, "Valeri": 7215, "##LTO": 23481, "klare": 14299, "onberispelijk": 16332, "1995": 373, "misstand": 15694, "degradatie": 10584, "1838": 238, "les": 14960, "ontrafel": 16641, "opgeborgen": 16849, "hagedissen": 13000, "overtreder": 17166, "##stom": 28769, "##aeus": 23861, "##komt": 26583, "Beers": 1126, "vellen": 20820, "verachtelijk": 20834, "concurreren": 10307, "##forfait": 25316, "laatstgenoemde": 14781, "##adem": 23838, "bied": 9537, "##stoten": 28779, "##essa": 25183, "Art": 915, "erkent": 11341, "ophalen": 16892, "##vink": 29475, "foutje": 11715, "Argentijn": 885, "roots": 18426, "##sche": 28345, "##body": 24395, "##ennegentig": 25121, "Ethan": 2492, "Homme": 3425, "Congres": 1887, "boycot": 9847, "##potige": 27873, "Twente": 7111, "##evenement": 25214, "finale": 11605, "##schalk": 28335, "Seattle": 6340, "tact": 19828, "bekende": 8972, "componenten": 10277, "##waai": 29614, "Salzburg": 6210, "toneelstukken": 20226, "Bank": 1057, "popster": 17608, "Beg": 1129, "pool": 17597, "cassatie": 10077, "zwier": 22955, "vakkundig": 20707, "doelwit": 10809, "jongeling": 13965, "luguber": 15212, "paraat": 17252, "spul": 19361, "Rechter": 5888, "Y": 50, "vochtige": 21779, "eenoogkreeftjes": 11136, "arrondissement": 8578, "zegt": 22692, "##heu": 25928, "124": 193, "Aal": 553, "Ripley": 6003, "##gers": 25572, "pseudo": 17862, "##ring": 28180, "##waarts": 29625, "beroerte": 9175, "liter": 15121, "Ernst": 2481, "##1010": 22989, "cynisme": 10460, "onderhevig": 16380, "##banden": 24170, "doodsoorzaak": 10860, "##frons": 25343, "##tong": 29056, "strip": 19692, "##cker": 24639, "voeden": 21782, "toebehoor": 20131, "##EGEM": 23294, "Brusselse": 1505, "##krabbel": 26616, "Nina": 5205, "Overal": 5425, "mening": 15524, "Wilders": 7638, "bis": 9603, "Zeg": 7775, "trappenhuis": 20325, "##wassen": 29651, "ontdekking": 16587, "##eigen": 25042, "st": 19367, "##brouck": 24485, "straling": 19652, "##tellingen": 28937, "##til": 29008, "topmanager": 20243, "##ianen": 26041, "##politie": 27847, "##team": 28903, "tuurde": 20429, "kerken": 14194, "##nota": 27345, "##stip": 28757, "country": 10398, "##pest": 27749, "##familie": 25236, "slechte": 18995, "##rekken": 28087, "December": 2062, "Brun": 1501, "Af": 632, "maandenlang": 15264, "106": 177, "##heren": 25918, "##02": 22981, "rondlopen": 18406, "naadlo": 15886, "reserves": 18235, "##breken": 24464, "beland": 9015, "##gaat": 25357, "beschadigd": 9188, "documentatie": 10783, "musici": 15860, "Loc": 4420, "doceer": 10773, "klaagde": 14276, "##llah": 26904, "EN": 2314, "spionnen": 19288, "pardon": 17266, "aardse": 8051, "opge": 16846, "##by": 24519, "wissel": 22525, "##gebroken": 25409, "##rentree": 28106, "godsdienstige": 12778, "##vriezen": 29595, "IT": 3536, "Gedaan": 2833, "##day": 24799, "Captain": 1625, "##baar": 24148, "adem": 8176, "verwissel": 21548, "ontsnapte": 16654, "Gestapo": 2915, "groter": 12955, "voordeur": 21904, "##daq": 24795, "Hoekstra": 3394, "Gevolg": 2920, "##itsma": 26312, "koekjes": 14454, "##ibo": 26050, "spijtig": 19279, "##raadslid": 27979, "##geteld": 25627, "##PRO": 23596, "Gibson": 2942, "Literatuur": 4406, "bezuinigingen": 9515, "##ANT": 23187, "neergezet": 15993, "##avond": 24133, "Amstel": 770, "Sven": 6764, "##kabinet": 26398, "zonnig": 22843, "volksver": 21849, "Kan": 3893, "Navo": 5102, "kW": 14019, "liberale": 15019, "Schitterend": 6294, "Soci\u00e9t\u00e9": 6529, "vergrijzing": 21019, "logo": 15147, "##RK": 23617, "belemmering": 9056, "##apparaten": 24020, "##idani": 26073, "succes": 19757, "prikkeldraad": 17725, "uitkwam": 20567, "Ori\u00ebntaals": 5396, "Birma": 1269, "bek": 8968, "verkracht": 21109, "instrumenten": 13795, "##knuppel": 26558, "##smeed": 28543, "draafde": 10931, "teloor": 19956, "##socialistische": 28566, "glanzende": 12728, "hechten": 13109, "onthaald": 16601, "##echtold": 25004, "voorzitter": 21998, "gewaarborgd": 12575, "##kampioen": 26410, "sar": 18551, "Deborah": 2061, "katten": 14148, "Scholten": 6302, "Schotse": 6308, "##cco": 24548, "Schip": 6290, "denkt": 10613, "Bergen": 1182, "daarbij": 10470, "acceptabel": 8083, "gedroeg": 11990, "wenteltrap": 22367, "professionele": 17790, "Maas": 4539, "##IOC": 23427, "Khalid": 3984, "Rooms": 6077, "##strategie": 28793, "##44": 23093, "afwachten": 8336, "afwisseling": 8352, "verkleed": 21093, "##maan": 27000, "schoonheid": 18738, "gravin": 12862, "##icula": 26068, "kaas": 14031, "dwaas": 11087, "Rombouts": 6058, "arg": 8553, "ondiepe": 16449, "Society": 6528, "minuten": 15664, "##behalve": 24224, "##vrienden": 29594, "##kijker": 26484, "vrachtauto": 22027, "opnieuw": 16932, "##ith": 26302, "##examen": 25219, "bedreigde": 8830, "##vel": 29329, "Patricia": 5517, "gezinnen": 12642, "Meppel": 4793, "##traject": 29079, "klompen": 14371, "##klinken": 26538, "##reb": 28040, "##aaien": 23760, "vergrijp": 21018, "##affaire": 23865, "bruidegom": 9937, "Agenten": 652, "geschied": 12397, "##uiven": 29207, "versnelling": 21354, "Garros": 2818, "life": 15068, "vloo": 21761, "Nobel": 5215, "##scheld": 28348, "Beuningen": 1226, "##wespen": 29708, "onderkomen": 16387, "plakken": 17484, "sokken": 19162, "##over": 27632, "nep": 16023, "##lum": 26978, "schoten": 18757, "sleep": 19000, "##ost": 27599, "##brieven": 24472, "##vlinders": 29508, "lief": 15045, "Amnesty": 766, "vergeeld": 20994, "afwachtend": 8337, "klassen": 14305, "appels": 8523, "Ama": 747, "##ough": 27620, "Jord": 3798, "stevige": 19527, "Acker": 601, "Portret": 5707, "##gewassen": 25664, "1954": 332, "luistert": 15231, "Index": 3573, "bellen": 9063, "Lopez": 4446, "##brak": 24455, "gegeten": 12032, "Economisch": 2336, "Eagles": 2320, "Kuyper": 4170, "##strasse": 28792, "Stone": 6695, "##M": 100, "##ilio": 26172, "##vos": 29576, "1946": 324, "Sum": 6744, "Vreemdelingen": 7461, "bochten": 9707, "flatgebouw": 11632, "toegangspoort": 20135, "schrede": 18768, "Organisatie": 5393, "fluistert": 11654, "##reuzel": 28122, "culturele": 10447, "gebeden": 11866, "terwijl": 20031, "afgeleid": 8241, "##takel": 28879, "##gewicht": 25672, "ras": 17991, "73": 487, "Planet": 5647, "koersdaling": 14462, "##klik": 26534, "1955": 333, "##therapeut": 28978, "kamers": 14064, "Sahara": 6193, "giet": 12694, "internationale": 13835, "gemeenteraad": 12216, "BRUSSEL": 1010, "daalde": 10465, "Mari\u00eb": 4655, "##contract": 24707, "memoires": 15512, "140": 205, "##vlam": 29492, "verwelkomd": 21520, "clip": 10190, "sprokkel": 19355, "##erpstra": 25167, "##\u201d": 151, "Dance": 2036, "##;": 86, "Sel": 6355, "overmacht": 17141, "helder": 13160, "folk": 11665, "samengaan": 18524, "##inkomen": 26225, "knagen": 14394, "opdringerig": 16813, "##lick": 26830, "hybride": 13539, "Jiang": 3747, "bezinning": 9496, "denken": 10612, "##bel": 24240, "##stromen": 28812, "robuust": 18358, "buitenaardse": 9968, "vredig": 22039, "##roof": 28241, "handpalm": 13046, "Duitsland": 2283, "Juventus": 3853, "ondernemen": 16395, "sparen": 19214, "wit": 22534, "Provinciale": 5773, "meesters": 15489, "gebaarde": 11860, "commerce": 10241, "##iens": 26104, "buitenkant": 9974, "bouwen": 9829, "##assi": 24075, "krap": 14621, "Moeskroen": 4927, "innig": 13755, "onhoorbaar": 16526, "geanalyseerd": 11849, "smid": 19088, "##1834": 23008, "brok": 9912, "knippen": 14422, "##vallen": 29300, "##verlichting": 29389, "krullen": 14697, "Con": 1878, "East": 2323, "##erink": 25159, "krom": 14664, "militie": 15625, "Sound": 6559, "plassen": 17499, "Breda": 1440, "Proust": 5770, "bevreemd": 9415, "houdbaar": 13459, "emeritus": 11272, "##winnaar": 29755, "Juli": 3829, "Annemarie": 824, "ticket": 20076, "erop": 11351, "poot": 17602, "IBM": 3514, "Miss": 4900, "mails": 15308, "onhoudbaar": 16527, "geschor": 12409, "verbrand": 20896, "buurvrouw": 10029, "verplaatst": 21259, "schroot": 18793, "##bereid": 24258, "medemens": 15436, "Cash": 1656, "Grenzen": 3057, "stal": 19403, "briljante": 9898, "Kameroen": 3888, "proefde": 17783, "Sterk": 6668, "kwel": 14755, "Manuel": 4619, "verliefd": 21148, "gestorven": 12477, "vruchteloo": 22108, "##vez": 29446, "##twintig": 29157, "laars": 14776, "Palearctisch": 5462, "Sar": 6238, "Mecklenburg": 4743, "Jens": 3729, "omarmd": 16238, "zorgde": 22858, "onbeholpen": 16320, "kreupel": 14638, "minimumloon": 15652, "##fur": 25349, "##kazerne": 26443, "##uli": 29220, "hiervan": 13288, "basisschool": 8765, "nijdig": 16078, "homme": 13362, "onderste": 16411, "Blind": 1296, "intellectueel": 13805, "Geef": 2836, "onwettig": 16756, "1956": 334, "Violet": 7373, "##56": 23110, "geschiedschrijv": 12399, "mosselkreeftjes": 15817, "vooral": 21884, "Hamburg": 3176, "##erle": 25161, "##verkoper": 29382, "Doe": 2181, "Breuk": 1452, "captain": 10065, "##END": 23311, "voegde": 21788, "antwoordde": 8506, "Sydney": 6775, "ECB": 2307, "Yu": 7741, "##field": 25269, "sponsor": 19308, "##UL": 23699, "ogen": 16219, "Kruis": 4152, "lol": 15153, "spiritue": 19292, "fijne": 11583, "aandeel": 7873, "Pastoor": 5511, "won": 22561, "##cip": 24626, "##vingen": 29473, "##agenten": 23882, "amandel": 8433, "##DA": 23256, "schending": 18642, "onfortuinlijk": 16460, "roffel": 18379, "doodskist": 10858, "glimlachend": 12742, "kauwde": 14149, "tweederde": 20437, "piep": 17421, "klinkende": 14363, "ontslag": 16649, "hoorn": 13432, "agenten": 8363, "look": 15168, "bekritiseerd": 9004, "melk": 15508, "levens": 14991, "##federatie": 25244, "##spelers": 28604, "Patrick": 5518, "wekte": 22338, "##ving": 29472, "uitstekend": 20603, "verdeeld": 20918, "Betty": 1223, "smak": 19061, "##risico": 28190, "##delen": 24815, "Oost": 5360, "excursie": 11425, "Zutphen": 7836, "##brander": 24458, "moeiza": 15735, "landskampioen": 14837, "lenig": 14950, "Even": 2523, "Luc": 4471, "buurlanden": 10024, "schep": 18646, "vruchten": 22109, "##1842": 23009, "##ynck": 29819, "rijksmonumenten": 18318, "verfrommeld": 20983, "##at": 24081, "zure": 22900, "ISBN": 3534, "##coup": 24717, "kip": 14268, "klom": 14370, "gekek": 12096, "##schoof": 28386, "##ocephalus": 27368, "injectie": 13743, "voorbeeld": 21889, "Foster": 2707, "Linda": 4387, "schalen": 18595, "helse": 13181, "invoeren": 13878, "##spe": 28590, "natuurkundige": 15961, "Tho": 6916, "bevelen": 9385, "Rui": 6123, "verg": 20984, "vuren": 22124, "##bre": 24459, "##ooney": 27524, "##wasser": 29652, "onoverkomelijk": 16550, "geheugen": 12066, "##berichten": 24266, "##h": 120, "beminnelijk": 9086, "vacu": 20691, "elegant": 11238, "##EEFT": 23288, "##exploitant": 25222, "luider": 15217, "benodigd": 9108, "Marco": 4629, "Wa": 7491, "uitvoert": 20624, "critici": 10435, "verzekeraar": 21577, "Stol": 6692, "effect": 11177, "present": 17689, "London": 4440, "Brouwer": 1490, "Stro": 6718, "Drake": 2239, "Maandag": 4536, "kerkelijke": 14193, "Pipp": 5636, "snijden": 19121, "san": 18542, "##OV": 23570, "##gestraft": 25621, "onderdrukt": 16364, "ministers": 15656, "grijs": 12886, "neusgat": 16044, "##win": 29750, "berust": 9183, "waardig": 22162, "##sten": 28731, "##osoma": 27596, "Jorien": 3804, "##kwekerij": 26664, "indringer": 13672, "regering": 18127, "bewoond": 9471, "erbarmelijk": 11319, "##nkbare": 27328, "2007": 388, "ongevaarlijk": 16504, "opzichten": 17010, "komische": 14501, "Agu": 658, "##isch": 26270, "##schriften": 28404, "tralies": 20304, "Dichter": 2119, "Hilar": 3364, "airbag": 8369, "Emilie": 2429, "bond": 9759, "traag": 20272, "##spectieven": 28594, "EUROPESE": 2319, "bewaking": 9430, "wildernis": 22487, "kalender": 14046, "schitteren": 18710, "Adidas": 615, "log": 15137, "kleren": 14339, "uitvoering": 20623, "ontlopen": 16623, "##parlement": 27697, "autonomie": 8653, "exclusieve": 11424, "##vari": 29309, "verklaarde": 21087, "Voeg": 7413, "##ya": 29808, "##314": 23075, "nano": 15939, "Athene": 940, "Dow": 2230, "Ren": 5930, "annex": 8488, "kunnen": 14707, "##kanker": 26419, "magnetron": 15304, "##orzaak": 27586, "Cemetery": 1692, "##beek": 24208, "catwalk": 10085, "aflossing": 8292, "uitgestippeld": 20543, "losbarst": 15184, "##werkers": 29699, "##ister": 26292, "politiekorps": 17583, "gerechtshof": 12345, "Lincoln": 4385, "jonge": 13963, "lees": 14906, "##anto": 24010, "proces": 17766, "##cey": 24569, "klacht": 14284, "straten": 19660, "##abilis": 23793, "##vaartuig": 29289, "agressie": 8365, "##eilanden": 25046, "Yankee": 7722, "##ufo": 29182, "Barclay": 1068, "\"": 6, "claxon": 10186, "More": 4977, "Comedy": 1859, "vari\u00ebrend": 20746, "rechtvaardig": 18058, "Malin": 4595, "##rada": 27991, "##cornis": 24713, "Grijze": 3070, "ontmoeten": 16629, "Haute": 3223, "kamertje": 14065, "Finland": 2643, "post": 17634, "traangas": 20274, "Democratisch": 2082, "Iwan": 3660, "##ambtenaar": 23954, "##law": 26727, "schubben": 18795, "aangeven": 7924, "##ma": 26993, "Manchester": 4609, "gelijkwaardig": 12177, "samenhang": 18529, "dobbelstenen": 10771, "##kamer": 26406, "Ross": 6091, "afschuw": 8307, "dossiers": 10920, "typen": 20461, "roya": 18442, "Schrift": 6314, "baard": 8679, "##baard": 24149, "verzamelt": 21573, "dop": 10907, "zelf": 22704, "Leonardo": 4308, "betrekkelijk": 9342, "rijke": 18313, "uitwisselen": 20629, "contant": 10353, "bollen": 9748, "goedkeur": 12784, "leunen": 14981, "zeshonderd": 22732, "hertog": 13250, "##troomversnelling": 29117, "ranke": 17980, "omschrijving": 16275, "##kaartje": 26395, "aftreden": 8329, "Cha": 1708, "sekte": 18855, "geknoei": 12111, "##lichtingendienst": 26829, "casino": 10076, "gedij": 11968, "##schild": 28372, "##eur": 25206, "##roux": 28257, "Bouterse": 1399, "Sko": 6474, "mislukt": 15686, "Ordina": 5390, "poogde": 17595, "opvoeding": 16995, "postuum": 17639, "goedkoopst": 12788, "kassa": 14131, "fuseren": 11780, "##pels": 27729, "rekenen": 18167, "tienpotigen": 20084, "stuk": 19734, "##liegt": 26842, "bestoken": 9283, "staart": 19376, "##iden": 26076, "Talent": 6813, "Pat": 5512, "gebombardeerd": 11888, "rechtsaf": 18049, "praat": 17657, "fi": 11568, "Schipper": 6292, "##regeling": 28065, "Gui": 3101, "onderuit": 16423, "dramatisch": 10946, "##rbeidsongeschikt": 28035, "pater": 17328, "##streden": 28797, "##tra": 29071, "Ineens": 3589, "Sera": 6369, "Wanne": 7528, "Porto": 5706, "##cha": 24571, "bekwame": 9008, "restaurants": 18251, "geconstrueerd": 11930, "speelronde": 19243, "Dill": 2143, "kruk": 14693, "##houdt": 26000, "amateurvoetbal": 8436, "trofee": 20372, "crimineel": 10427, "##MS": 23498, "##bok": 24406, "##n": 126, "Dead": 2059, "dunkt": 11060, "##41": 23087, "Kid": 3991, "Thatcher": 6901, "woont": 22582, "##blaadje": 24356, "##genen": 25525, "overbelast": 17074, "Corinn": 1920, "gep": 12297, "##engevolge": 25118, "##fort": 25324, "##gels": 25502, "Kaz": 3934, "##boe": 24396, "ziekte": 22762, "Mathieu": 4699, "karakteristieke": 14118, "##geschroefd": 25589, "onvoorstelbaar": 16742, "manifestatie": 15345, "Twijfel": 7112, "##acht": 23813, "##vent": 29336, "##klem": 26526, "##trouw": 29121, "##\u00f6": 146, "Alex": 701, "##motten": 27214, "Jackie": 3673, "sluiting": 19052, "Baskisch": 1083, "technologisch": 19894, "Positie": 5712, "regelmatig": 18111, "duld": 11057, "Brandon": 1426, "zuiden": 22879, "Jozef": 3819, "##ction": 24741, "##grafie": 25773, "##minste": 27145, "grijpen": 12884, "##roer": 28224, "Mara": 4623, "##kas": 26435, "patat": 17326, "vatte": 20772, "##huur": 26029, "##lings": 26883, "Ronald": 6066, "##ijzen": 26162, "rovers": 18441, "konings": 14515, "ongelukkige": 16487, "##sseldorf": 28659, "stroomde": 19705, "trainings": 20299, "Eed": 2354, "snak": 19100, "gastvrij": 11830, "IRA": 3532, "Warren": 7537, "verhouding": 21051, "beeldhouw": 8859, "1974": 352, "Hot": 3467, "##blauwe": 24364, "kunstenaars": 14711, "World": 7703, "Robinson": 6019, "hoedje": 13328, "Helmut": 3291, "##kleurige": 26533, "pensioenfonds": 17365, "thuisland": 20072, "##stede": 28707, "##sav": 28309, "Dil": 2141, "Norbert": 5239, "gefocust": 12022, "vriendschappe": 22063, "Rob": 6011, "werkloos": 22395, "monter": 15783, "cal": 10044, "Wellens": 7575, "diefstal": 10671, "Nazareth": 5103, "##cord": 24712, "##ash": 24069, "geduldig": 11996, "remake": 18195, "##PV": 23600, "##thes": 28980, "Raak": 5822, "##buurt": 24518, "spreken": 19345, "prachtig": 17662, "Arnhemse": 909, "gekreun": 12123, "cre\u00eberde": 10423, "##werf": 29695, "struikel": 19716, "##erusten": 25173, "Delta": 2078, "Cercle": 1704, "onafscheidelijk": 16312, "##FA": 23337, "##tribunaal": 29106, "Hugh": 3484, "D66": 1987, "##kruimel": 26640, "##bag": 24157, "Doorgaan": 2213, "gekund": 12128, "Ballet": 1048, "##ugt": 29188, "dragen": 10943, "burgerrechten": 10012, "cc": 10087, "gooide": 12805, "rechts": 18048, "ingelijst": 13708, "vorm": 22008, "woonruimte": 22581, "Eline": 2407, "Sant": 6229, "budgettair": 9955, "lonkt": 15161, "##gebonden": 25398, "\u00ec": 30060, "##ernis": 25164, "Match": 4694, "Kem": 3948, "huil": 13474, "begroette": 8914, "creditcard": 10419, "##dochter": 24888, "##festival": 25256, "##he": 25883, "ALLE": 537, "raadsman": 17925, "##lion": 26888, "Stan": 6630, "Veerle": 7252, "geschikte": 12401, "SS": 6168, "verklapt": 21088, "Zit": 7802, "Richmond": 5974, "gemonteerd": 12234, "##baan": 24147, "gezegend": 12629, "verscheiden": 21305, "##gebeuren": 25390, "websites": 22267, "Nikke": 5197, "bezaaid": 9478, "gereduceerd": 12349, "running": 18486, "zuidoosten": 22882, "tenen": 19965, "##avec": 24128, "##tatie": 28899, "Braun": 1431, "Pieper": 5613, "Clijsters": 1818, "Hoogeveen": 3447, "geholpen": 12068, "vijfenveertig": 21662, "vestiging": 21615, "##TE": 23669, "helpt": 13180, "Indonesisch": 3584, "##waren": 29648, "constant": 10332, "m\u00f3\u00e9": 15884, "##HL": 23385, "ontging": 16597, "##omzet": 27455, "Versaille": 7322, "introductie": 13857, "straal": 19629, "##betrouwbare": 24299, "service": 18883, "1988": 366, "beheersen": 8936, "medewerkster": 15443, "voorspelt": 21951, "Catal": 1668, "Jouw": 3817, "Country": 1938, "Schaduw": 6267, "Hooggerechtshof": 3448, "FNV": 2551, "zwanen": 22928, "brute": 9948, "cello": 10092, "lette": 14967, "magistrat": 15300, "Mathilde": 4701, "vervanger": 21460, "onschatba": 16566, "strook": 19702, "Baptist": 1059, "hoog": 13407, "plus": 17554, "##jaag": 26341, "Koude": 4118, "Vlamingen": 7396, "Eu": 2496, "uitspraken": 20596, "ongelukkig": 16486, "gede": 11944, "gestrekt": 12482, "wil": 22482, "##sticht": 28739, "##ries": 28158, "Wild": 7636, "stank": 19422, "draak": 10940, "fiscu": 11620, "##anga": 23985, "Il": 3560, "Ath": 939, "##kor": 26597, "geschetst": 12395, "Faust": 2589, "aangeboden": 7887, "opper": 16936, "NUTS": 5062, "##operatie": 27539, "prof": 17786, "handbal": 13025, "plegen": 17515, "2014": 395, "Statistiek": 6642, "bijzondere": 9567, "kwam": 14744, "waaronder": 22178, "groeten": 12918, "overboord": 17078, "##AAR": 23160, "##tricida": 29108, "Festival": 2623, "Puc": 5790, "Tower": 7028, "handhaaf": 13039, "108": 179, "rooskleurig": 18424, "slechter": 18996, "velen": 20819, "##odor": 27380, "ket": 14207, "onbestemd": 16336, "##schenkt": 28353, "geklonken": 12106, "proppe": 17830, "getallen": 12490, "Ven": 7268, "##isca": 26269, "vermoeden": 21198, "verval": 21456, "spreuk": 19347, "##div": 24881, "mega": 15495, "Stork": 6698, "##enveertig": 25131, "tong": 20228, "##enko": 25120, "pruimen": 17857, "lunch": 15238, "##blad": 24359, "Bologna": 1342, "kriebel": 14641, "plooien": 17541, "Torre": 7017, "dappere": 10528, "kantoren": 14099, "e": 30027, "beleving": 9059, "Vandaag": 7226, "verloo": 21158, "##struc": 28818, "overheidsdienst": 17118, "effe": 11176, "opgepikt": 16866, "down": 10924, "bonte": 9772, "fluweel": 11657, "Holst": 3420, "telegraaf": 19943, "##gereisd": 25562, "inzet": 13888, "dikte": 10719, "Blu": 1309, "##add": 23834, "##bsoluut": 24492, "Turks": 7100, "plant": 17493, "kleuter": 14348, "##213": 23043, "##y": 137, "Jef": 3719, "Wiske": 7669, "Club": 1825, "Schaats": 6266, "beschoten": 9207, "onnavolgba": 16540, "tracht": 20276, "versieren": 21335, "Hm": 3385, "##PO": 23592, "##toevoer": 29046, "Sankt": 6227, "begeleidde": 8885, "kans": 14085, "prima": 17729, "##beest": 24213, "Trio": 7054, "c": 30026, "Twin": 7113, "##treffer": 29093, "besef": 9225, "##daar": 24776, "organiseer": 17031, "Schouw": 6310, "betreft": 9341, "##fle": 25295, "zooals": 22848, "uitstoot": 20607, "sne": 19106, "Wy": 7713, "versch": 21299, "druppel": 11026, "##recensent": 28042, "galerij": 11801, "##otheek": 27605, "tiebreak": 20078, "oplost": 16921, "Sa": 6173, "maatschappij": 15273, "kassei": 14132, "sloep": 19030, "voorpagina": 21938, "Bowl": 1405, "##BP": 23222, "##vakbond": 29296, "Later": 4242, "##ana": 23968, "grotten": 12957, "Rin": 6000, "##waait": 29616, "innovatie": 13756, "Elena": 2400, "eindig": 11217, "##rip": 28187, "planeten": 17487, "Mabel": 4546, "ventilator": 20829, "##wal": 29634, "utopi": 20669, "ontwijken": 16694, "North": 5245, "##\u00f3ra": 29993, "Ple": 5659, "cur": 10449, "##gif": 25719, "##pa": 27666, "componisten": 10280, "##x": 136, "schrale": 18764, "##misdrijf": 27151, "weelderig": 22287, "klachten": 14285, "##dyn": 24995, "Hack": 3151, "Urk": 7163, "1923": 301, "Red": 5893, "kussens": 14725, "Gru": 3090, "Kaiser": 3878, "leiding": 14934, "verdubbeld": 20952, "echtgenoot": 11111, "beschermt": 9198, "heksen": 13155, "pati\u00ebnten": 17331, "##cast": 24540, "1931": 309, "##wolf": 29770, "verzoend": 21594, "1908": 286, "strijden": 19683, "slijm": 19015, "verschillen": 21317, "##zegging": 29861, "rub": 18447, "##ceps": 24560, "music": 15858, "vmbo": 21774, "1944": 322, "winnares": 22510, "bevestigde": 9391, "stunt": 19739, "Irma": 3628, "reclassering": 18064, "##opbrengst": 27535, "fataal": 11527, "##stone": 28771, "scheiden": 18629, "tropische": 20387, "trauma": 20327, "##rich": 28142, "landschap": 14835, "commercieel": 10243, "knorrig": 14440, "telefoon": 19937, "Marvel": 4681, "havo": 13100, "##infrastructuur": 26207, "onderdrukte": 16365, "Mulder": 5010, "Deutschland": 2104, "oase": 16169, "ruimen": 18464, "rake": 17958, "##hou": 25992, "##rationele": 28031, "vlek": 21728, "Week": 7557, "Notodont": 5248, "wending": 22355, "draagvlak": 10935, "Ky": 4176, "takken": 19841, "gemaskerde": 12205, "kraai": 14595, "stromen": 19695, "zuurstof": 22906, "Atlas": 948, "Sk": 6471, "methoden": 15568, "verbetering": 20864, "voorstelling": 21959, "vragend": 22032, "UPC": 7126, "##8": 83, "nam": 15932, "sanering": 18547, "blog": 9680, "trouwe": 20392, "puzzel": 17904, "Handel": 3184, "ontbinden": 16576, "extern": 11464, "ondernemer": 16396, "Droog": 2256, "Kuurne": 4169, "SER": 6163, "icoon": 13563, "##wees": 29672, "Hab": 3148, "##oed": 27383, "##BG": 23216, "realisatie": 18013, "Sib": 6421, "Tem": 6860, "##SB": 23631, "Pf": 5589, "substantie": 19754, "##genoot": 25531, "##vertrouwen": 29427, "Jakarta": 3683, "##ady": 23855, "bulldozer": 9994, "Sheila": 6405, "Tiger": 6949, "Jar": 3706, "kliniek": 14359, "Veneti\u00eb": 7271, "locomotieven": 15133, "##luik": 26973, "tijdens": 20092, "Arkon": 897, "Baan": 1016, "Voorafgaand": 7441, "gromde": 12923, "250": 414, "Stefano": 6653, "Vlaamse": 7389, "containers": 10352, "gematigd": 12206, "droevig": 10995, "##jaarsdag": 26344, "boeg": 9714, "Duin": 2273, "##ronk": 28239, "##prijs": 27900, "##pers": 27742, "bovenverdieping": 9845, "Krim": 4133, "verdoofd": 20938, "juwelier": 14017, "15": 209, "Janeiro": 3693, "privacy": 17746, "Hemel": 3295, "D\u00e9": 2306, "Julian": 3831, "continu": 10359, "renner": 18206, "samenzwering": 18540, "##voordeel": 29556, "erf": 11323, "##NR": 23527, "lesbisch": 14961, "voorop": 21935, "tegels": 19897, "randje": 17976, "wimpel": 22494, "##ici": 26058, "geflankeerd": 12020, "herkenbaar": 13222, "Angelo": 804, "vroedvrouw": 22086, "steentje": 19466, "Afgevaardigden": 635, "gezonde": 12647, "Trouwen": 7065, "verschuiving": 21329, "nooit": 16119, "##ida": 26071, "##spor": 28622, "vogel": 21816, "Commissie": 1867, "schone": 18727, "##zel": 29865, "Tommy": 7001, "oom": 16780, "Peeters": 5538, "##\u00f6n": 29998, "Gelet": 2853, "gedempt": 11955, "herhaalt": 13210, "franchise": 11728, "opgezet": 16887, "veldrijden": 20815, "denk": 10609, "Ref": 5898, "instinctie": 13784, "##histori": 25945, "##tica": 28990, "Maria": 4638, "##Visie": 23737, "##eter": 25192, "##but": 24517, "schaamte": 18574, "Frans": 2731, "Sittard": 6464, "Terri": 6876, "Steed": 6646, "onbetwist": 16339, "Uitstekend": 7138, "B\u00e9": 1557, "ingewikkeld": 13724, "onderscheiding": 16405, "##slippers": 28528, "##lach": 26681, "##lander": 26704, "oorsprong": 16790, "##58": 23112, "onsterfelijk": 16570, "clich\u00e9": 10188, "Koeweit": 4066, "Achter": 598, "beroving": 9180, "##eheran": 25040, "prikkel": 17724, "##kapel": 26427, "toegelaten": 20141, "Sloveni\u00eb": 6494, "relaties": 18177, "##chel": 24581, "##ryll": 28295, "kruistocht": 14689, "h\u00e9\u00e9": 13556, "Partners": 5505, "Gli": 2977, "gebruikers": 11912, "wijsheid": 22471, "##berry": 24268, "##graadmeter": 25766, "##home": 25968, "onregelmatig": 16559, "brug": 9933, "Casablanca": 1653, "uitblink": 20476, "democratie": 10600, "fris": 11741, "integratie": 13801, "Daan": 2002, "gehad": 12045, "socialism": 19143, "Himalaya": 3370, "zeiden": 22695, "##joe": 26369, "##lem": 26770, "##nippertje": 27323, "##X": 30001, "barri\u00e8re": 8752, "Kasom": 3913, "##pleegt": 27815, "Orchestra": 5387, "bescherming": 9197, "Plasterk": 5650, "adel": 8173, "Sabena": 6177, "##01": 22980, "##chtig": 24606, "evenwicht": 11412, "##erkenning": 25160, "salontafel": 18521, "schrijven": 18782, "artikel": 8583, "hypothese": 13549, "##sbergen": 28313, "wetten": 22436, "Ruby": 6116, "##klooster": 26542, "d": 54, "beaamde": 8779, "bespreke": 9261, "Prijs": 5738, "##UN": 23701, "##uze": 29281, "If": 3557, "##anji": 23993, "formule": 11690, "Tal": 6811, "Breng": 1447, "Lam": 4208, "biertje": 9543, "woedde": 22540, "##handig": 25860, "Karl": 3909, "schril": 18787, "vernieling": 21216, "rep": 18214, "Fort": 2702, "mm": 15704, "##vaarder": 29285, "Robbie": 6015, "##DP": 23273, "iemand": 13586, "##PF": 23583, "##lou": 26964, "gevolg": 12562, "Pul": 5792, "rups": 18487, "merg": 15545, "verstrekken": 21396, "##Z": 111, "openging": 16829, "##ghe": 25711, "##kwetter": 26667, "doorzoeken": 10904, "Havana": 3224, "##aci": 23820, "astrono": 8612, "Weert": 7560, "terugkomen": 20021, "ooievaar": 16777, "hoofdstuk": 13403, "weleer": 22341, "eigenaardig": 11194, "verzoenen": 21595, "zomermaand": 22818, "Allah": 720, "Ten": 6865, "bemiddelaar": 9083, "zakenman": 22656, "conflicten": 10315, "bespaard": 9249, "eindeloos": 11215, "verzorgen": 21602, "Sepp": 6366, "Spreek": 6608, "smokkel": 19093, "##tre": 29088, "##vuren": 29608, "Mozart": 5003, "##ienne": 26103, "##UP": 23702, "soortgelijk": 19188, "wielersport": 22452, "##\u00e9s": 29975, "Jan": 3691, "\u00f2": 30065, "Roll": 6052, "elders": 11233, "Caroline": 1644, "chagrijnig": 10108, "Abdul": 577, "herhaalde": 13208, "vechten": 20777, "huilde": 13475, "penis": 17359, "lastige": 14868, "heiligen": 13147, "liedje": 15043, "Warrior": 7538, "##spraak": 28627, "hogescholen": 13349, "Bata": 1088, "##verbinding": 29343, "##RI": 23611, "Graham": 3035, "109": 180, "oefenduel": 16193, "##nor": 27341, "##raz": 28033, "##volop": 29550, "##WIJK": 23744, "bezegeld": 9480, "vier": 21640, "verbanning": 20852, "##231": 23053, "##groen": 25797, "##voel": 29529, "onvolkomenhe": 16738, "##dische": 24873, "##inner": 26229, "sets": 18887, "trompettist": 20379, "Vries": 7465, "zender": 22719, "##cyrt": 24767, "Union": 7150, "Paul": 5523, "Koophandel": 4093, "Kinshasa": 4007, "Peugeot": 5587, "incasser": 13654, "mos": 15811, "##document": 24890, "##wapen": 29643, "Rumsfeld": 6130, "trekpleister": 20346, "Atto": 953, "31": 426, "feesten": 11548, "##koppige": 26596, "##\u2013": 147, "plofte": 17538, "Abram": 586, "nummer": 16160, "Krant": 4126, "wisten": 22533, "persbureau": 17387, "aflopen": 8291, "gegeven": 12033, "Karim": 3907, "ingrijpend": 13731, "boeken": 9720, "platenlabel": 17505, "schamel": 18596, "cv": 10453, "Academisch": 591, "Gerets": 2903, "verspild": 21358, "beteken": 9318, "gelukzalig": 12196, "rustiger": 18494, "kunststof": 14718, "##cie": 24615, "France": 2716, "Pietro": 5621, "speurtocht": 19270, "##palen": 27683, "Haan": 3140, "domme": 10834, "gynaecolo": 12977, "natuurbescherm": 15958, "##RC": 23604, "##hem": 25913, "escalatie": 11364, "Kapelle": 3900, "waardering": 22159, "NAM": 5042, "brandstichting": 9864, "Harper": 3207, "##zette": 29877, "achterzijde": 8140, "zinken": 22785, "flard": 11630, "levensduur": 14993, "brandende": 9861, "##gelopen": 25500, "Kuip": 4157, "etnisch": 11387, "ondergrond": 16372, "##teelt": 28913, "Chrysom": 1775, "Tsjechisch": 7078, "Gra": 3028, "onderdeel": 16360, "aux": 8660, "sterrenstelsel": 19514, "parkeer": 17272, "peiling": 17351, "##ndy": 27273, "blokkade": 9683, "onenigheid": 16458, "embleem": 11270, "##stemming": 28730, "ver": 20832, "willekeurig": 22489, "must": 15862, "Boudewijn": 1389, "Beverl": 1230, "##vliegtuigen": 29503, "nuchter": 16157, "staken": 19401, "vogeltje": 21819, "november": 16154, "##basiliek": 24182, "Hob": 3388, "speciaal": 19221, "Greenpeace": 3051, "ongehinderd": 16472, "##held": 25906, "lieverd": 15067, "##beroepsonderwijs": 24267, "echt": 11108, "z\u00f3\u00f3": 22971, "schedel": 18616, "I": 36, "links": 15108, "##ontainer": 27495, "##machine": 27009, "obscur": 16179, "Ank": 815, "experimentele": 11439, "##bericht": 24265, "vleugels": 21733, "Hahaha": 3159, "Kashmir": 3912, "Leen": 4273, "##reclame": 28050, "Loon": 4443, "geleden": 12148, "Cord": 1919, "hervatte": 13255, "Oceaan": 5274, "ondiep": 16448, "transactie": 20310, "##uitkijkspiegel": 29203, "kopje": 14545, "zoekmachine": 22803, "dun": 11059, "asperge": 8600, "Idi": 3547, "##leven": 26803, "klok": 14367, "script": 18831, "tunnel": 20415, "autosnelweg": 8658, "orkaan": 17042, "blootgesteld": 9695, "speelse": 19244, "therapie": 20063, "ambassadeur": 8441, "strafrecht": 19642, "langverwacht": 14851, "##one": 27470, "##kir": 26496, "##quot": 27975, "##stad": 28680, "uitbrak": 20480, "Auto": 971, "drone": 11001, "burgemeesters": 10007, "hart": 13081, "alle": 8395, "gillend": 12708, "##aux": 24125, "##gerukt": 25575, "stelde": 19475, "streepje": 19668, "Maximiliaan": 4719, "aanbiedingen": 7868, "Citadel": 1789, "bos": 9807, "onduidelijk": 16454, "zombie": 22816, "##HM": 23386, "##producer": 27916, "Floor": 2669, "Bedrijf": 1119, "Wilhelm": 7640, "eiwitt": 11231, "Hom": 3423, "behoefte": 8948, "koploper": 14547, "##pennis": 27734, "verwoesting": 21554, "Now": 5256, "##noten": 27346, "sil": 18928, "juiste": 13996, "Vera": 7278, "Bruxelles": 1506, "mysterie": 15874, "##media": 27083, "gemeen": 12208, "hoofdinspecteur": 13386, "uitdager": 20487, "Lap": 4231, "h\u00f3": 13557, "atleten": 8618, "vampier": 20721, "##vag": 29293, "tegenvaller": 19915, "GEMEENSCHAPPE": 2782, "sinister": 18938, "kruipt": 14684, "gejaagd": 12089, "##\u00e8s": 29967, "So": 6522, "Scha": 6263, "Lux": 4503, "aanhouding": 7941, "alternatief": 8426, "huwelijksrei": 13537, "##NI": 23516, "halen": 13006, "##aanduiding": 23771, "festival": 11566, "stol": 19589, "shows": 18908, "Bart": 1076, "haakte": 12984, "##kondigen": 26585, "Lilli": 4376, "##elaren": 25064, "Aes": 631, "##takken": 28880, "##partijen": 27701, "nabestaanden": 15896, "Aan": 558, "Utrechtse": 7168, "overlijd": 17139, "Sullivan": 6742, "postuur": 17640, "Ashle": 925, "##ziek": 29886, "Safi": 6189, "universeel": 20655, "Harrison": 3210, "verstond": 21388, "##itu": 26316, "verzekerd": 21579, "##computer": 24685, "Jamb": 3687, "Anis": 812, "fameu": 11499, "paragraaf": 17257, "##kropen": 26637, "WIL": 7485, "toename": 20164, "verschoven": 21321, "##mes": 27113, "##bron": 24481, "noch": 16087, "Bedenk": 1117, "Moussa": 5000, "Sep": 6365, "##LD": 23463, "##mble": 27072, "client": 10189, "zonnestelsel": 22840, "Japanner": 3703, "Hulp": 3491, "song": 19182, "##wijs": 29740, "nieuwkomers": 16068, "##p\u00e9": 27961, "Tsjoebai": 7083, "voerde": 21797, "Till": 6957, "satirisch": 18557, "##ondanks": 27458, "afgespeeld": 8252, "Revolutie": 5948, "##culturele": 24751, "Mail": 4581, "intellect": 13804, "Animal": 811, "Edwin": 2352, "##worp": 29794, "grasland": 12854, "##ctu": 24745, "klinkt": 14364, "verscheen": 21303, "##tex": 28967, "verrukt": 21297, "##bourne": 24442, "##eghem": 25039, "minacht": 15636, "Fortis": 2703, "##ay": 24138, "kiel": 14232, "##\u00eble": 29981, "wip": 22520, "bakken": 8701, "##r": 130, "Rudy": 6120, "gemeentebestuur": 12212, "reclame": 18061, "benen": 9105, "##zend": 29871, "##tina": 29013, "Democraten": 2080, "ongewijzigd": 16513, "doodstil": 10861, "lagere": 14807, "residentie": 18238, "stilstand": 19558, "middags": 15585, "##pul": 27954, "Emile": 2428, "Hugo": 3485, "York": 7733, "Jump": 3838, "starten": 19436, "Nada": 5070, "kruin": 14682, "tomaat": 20220, "##die": 24845, "bloeiend": 9674, "zielig": 22768, "##projecten": 27930, "BO": 1008, "Steg": 6654, "namelijk": 15935, "Kli": 4032, "laagste": 14773, "##oppervlakte": 27552, "Rosemar": 6086, "doekje": 10793, "ab": 8061, "kunst": 14708, "blouse": 9698, "kandidaat": 14077, "middelen": 15591, "arrange": 8567, "trager": 20288, "dagje": 10501, "bovenste": 9844, "##anus": 24013, "NOS": 5056, "trans": 20309, "Pereir": 5559, "Donner": 2209, "profijt": 17795, "##down": 24924, "Regio": 5909, "pikant": 17438, "subsidi\u00ebr": 19753, "verwekt": 21519, "##VO": 23727, "##panne": 27688, "Hamp": 3180, "future": 11782, "gesprekspartner": 12457, "geweldige": 12590, "Liz": 4415, "dromerig": 11000, "##zuchtige": 29934, "##post": 27869, "##gedurfd": 25429, "##petto": 27752, "##drang": 24938, "proto": 17842, "Maxima": 4718, "##dertig": 24832, "verdeling": 20921, "##stola": 28768, "Kenn": 3955, "kopi\u00ebr": 14544, "Mond": 4948, "procedure": 17762, "Tou": 7024, "##besef": 24275, "##pra": 27882, "Zorg": 7818, "grondslag": 12930, "biljoen": 9572, "Joris": 3805, "##DC": 23258, "##OR": 23562, "uitgave": 20505, "daargind": 10474, "##jeugd": 26364, "bewaar": 9425, "isolatie": 13906, "##ZW": 23753, "heeft": 13117, "vergeven": 21006, "##onder": 27459, "Balkan": 1044, "Rousseau": 6103, "Unizo": 7158, "##IST": 23434, "Dus": 2294, "rally": 17962, "niveau": 16083, "##sion": 28489, "dieven": 10706, "eekhoorn": 11129, "schaar": 18578, "##vle": 29493, "ongerust": 16498, "nier": 16057, "totdat": 20258, "satijn": 18555, "administratief": 8188, "aanleg": 7954, "geprezen": 12322, "Fruit": 2768, "trend": 20348, "Beide": 1133, "meedoe": 15457, "##voerster": 29534, "##veel": 29322, "Pal": 5459, "economisch": 11121, "ondergeschikt": 16369, "oppakken": 16934, "afgehandeld": 8234, "permanent": 17382, "##ux": 29277, "##ELIJK": 23304, "##met": 27114, "Mij": 4860, "##ambtenaren": 23955, "##poel": 27837, "koek": 14452, "doorstaan": 10898, "Wenne": 7582, "vlieg": 21734, "grafiek": 12839, "##cil": 24618, "res": 18231, "##cilinder": 24620, "wollen": 22559, "grond": 12924, "voren": 22004, "scenario": 18565, "##berg": 24260, "##opoulos": 27548, "##CO": 23244, "afbeelding": 8214, "apartheid": 8510, "medium": 15453, "Glen": 2975, "node": 16089, "Bolle": 1341, "bedoeling": 8822, "Ji": 3746, "beledigend": 9035, "keramiek": 14189, "slaagde": 18962, "ontvoering": 16681, "beveiligd": 9379, "plan": 17485, "bindend": 9577, "Alitalia": 717, "aanstelling": 7993, "voicemail": 21821, "##lachen": 26682, "##mber": 27070, "Astrid": 936, "heen": 13120, "kade": 14039, "##lino": 26886, "Wet": 7609, "hoofdplaats": 13394, "meute": 15575, "ontstemd": 16665, "verstandhouding": 21371, "neerschiet": 15997, "Laatste": 4193, "Lufthansa": 4484, "Verdomme": 7287, "##sah": 28300, "Lang": 4225, "lift": 15070, "houding": 13461, "Span": 6569, "smaragd": 19067, "Geweld": 2922, "inzicht": 13891, "##musicus": 27238, "##telkens": 28933, "hemel": 13183, "boodschapper": 9779, "##pec": 27719, "Avi": 979, "##taal": 28868, "Brod": 1478, "keuken": 14212, "Verhagen": 7297, "imitatie": 13616, "archeologe": 8541, "schelle": 18636, "geuit": 12517, "overgebleven": 17098, "voorspelde": 21948, "Ukkel": 7139, "brommer": 9919, "Murdoch": 5019, "China": 1748, "##ELS": 23306, "actuele": 8170, "keek": 14153, "evenveel": 11410, "moe": 15723, "stoppel": 19611, "Lommel": 4435, "Pamel": 5475, "Maxwell": 4720, "##b": 114, "Network": 5142, "limousine": 15098, "subsidie": 19751, "afgerond": 8247, "geland": 12138, "Ryanair": 6153, "Buckingham": 1513, "##oka": 27418, "##gewandeld": 25663, "Sancho": 6221, "##slaaf": 28508, "reglement": 18147, "zichzelf": 22753, "trein": 20338, "##IG": 23410, "##ray": 28032, "turf": 20419, "longkanker": 15159, "malaise": 15324, "onweersbui": 16749, "Boel": 1328, "tevergeefs": 20039, "Maxim": 4717, "wintersport": 22519, "##odes": 27376, "Denkt": 2088, "ruimtevaart": 18472, "broeders": 9902, "gekaapt": 12093, "##gerechtigde": 25558, "Big": 1243, "Joachim": 3755, "afluister": 8293, "schoondochter": 18736, "balans": 8708, "tegen": 19900, "werkplek": 22401, "Herbert": 3318, "ineenge": 13678, "600": 470, "Spaanse": 6566, "sukkel": 19770, "buitengewone": 9972, "onwillig": 16758, "kroniek": 14668, "ambiance": 8442, "verloving": 21169, "chrono": 10153, "Born": 1370, "##1849": 23013, "Nations": 5094, "Zwevegem": 7851, "1850": 245, "advocaat": 8209, "mobiliteit": 15710, "streven": 19680, "##droog": 24961, "##overwinning": 27644, "verhuizing": 21056, "Imag": 3565, "Atl\u00e9tic": 951, "opgemerkt": 16863, "Cate": 1671, "naargeestig": 15893, "##BURG": 23227, "apostel": 8514, "04": 161, "achterlaten": 8119, "synagoge": 19805, "Giro": 2964, "uilen": 20470, "verdwenen": 20962, "##verantwoordelijk": 29339, "duw": 11080, "##zwaai": 29945, "sigaren": 18917, "versturen": 21402, "##gerekend": 25563, "uitslagen": 20590, "generaties": 12255, "Leeftijd": 4272, "##ELLE": 23305, "motivatie": 15824, "lachend": 14789, "##vertegenwoordigd": 29425, "anker": 8487, "reggae": 18132, "##noopt": 27339, "Doc": 2173, "##SI": 23641, "Ryan": 6152, "file": 11587, "grootmacht": 12939, "niemand": 16056, "##dam": 24788, "bed": 8791, "toebedeeld": 20130, "##still": 28754, "radiator": 17946, "Fijn": 2631, "##hon": 25969, "zwerm": 22948, "afgekondigd": 8236, "Roma": 6055, "Adam": 610, "Jochem": 3759, "snuit": 19133, "aqua": 8528, "hermetisch": 13230, "blonk": 9691, "Tarzan": 6829, "negentienjarig": 16013, "tirannie": 20119, "DC": 1990, "Sim": 6445, "Trainer": 7038, "##gus": 25820, "Zaal": 7750, "concludeer": 10299, "##legde": 26752, "scherpzinnig": 18663, "JC": 3663, "Moto": 4993, "Toy": 7030, "levensbeschouw": 14992, "##bases": 24181, "##gen": 25519, "##gle": 25732, "##comp": 24679, "zieken": 22758, "Henrik": 3310, "formulering": 11693, "uitgegroeid": 20515, "Sc": 6257, "Clemens": 1809, "zoogdier": 22851, "Hoboken": 3389, "##recherche": 28043, "volbracht": 21823, "##vers": 29409, "jarenlang": 13933, "Wallace": 7518, "##mig": 27134, "integrale": 13800, "house": 13462, "Elf": 2402, "Armeens": 902, "grammatica": 12841, "rookwolk": 18420, "versta": 21366, "Luister": 4489, "Orlando": 5398, "Trevi": 7047, "afwas": 8339, "natie": 15946, "terug": 20002, "##goeroe": 25751, "##mur": 27232, "sofa": 19156, "##tractie": 29074, "##kens": 26456, "Regional": 5910, "rad": 17942, "treinstation": 20340, "##Element": 23336, "h\u00e9": 13553, "importeur": 13637, "Emb": 2427, "tafel": 19831, "##streng": 28803, "##ito": 26308, "mag": 15292, "kunstwerk": 14719, "##certificaat": 24566, "Mobutu": 4915, "Waterloo": 7546, "choreogra": 10144, "##ndre": 27272, "bedrijfsvoering": 8842, "hedendaags": 13115, "##woorden": 29785, "##load": 26916, "dekken": 10589, "applaus": 8524, "knipte": 14425, "kenteken": 14187, "overeind": 17093, "sms": 19096, "Libane": 4339, "gemist": 12226, "##ermann": 25162, "Drents": 2246, "Schepen": 6281, "##norm": 27342, "##rans": 28019, "##voeding": 29524, "onbeduidend": 16316, "Helle": 3288, "Ill": 3561, "##kom": 26576, "bedrijf": 8837, "Stuart": 6721, "roofdier": 18414, "##strand": 28791, "Lee": 4267, "##snipper": 28559, "##krediet": 26623, "##mode": 27171, "Hammond": 3179, "Aznar": 994, "Sally": 6204, "surveillance": 19786, "##spoelen": 28617, "Kroatisch": 4141, "kaal": 14022, "Tan": 6820, "overnachten": 17143, "sociologie": 19148, "lied": 15041, "krachtig": 14608, "toeristisch": 20179, "##slepen": 28523, "##r\u00f6": 28299, "##KER": 23444, "Cour": 1940, "gebergte": 11869, "Janni": 3697, "caf\u00e9": 10042, "scherm": 18654, "Flip": 2667, "Urban": 7162, "genoodzaakt": 12275, "kijkers": 14247, "Bayer": 1098, "Hoop": 3454, "##speelt": 28598, "Indisch": 3579, "gerekend": 12357, "Frederik": 2745, "voordoen": 21905, "atelier": 8614, "mijlen": 15609, "Belangrijk": 1145, "vijand": 21653, "##eringen": 25158, "Jeff": 3720, "2001": 382, "na\u00efv": 15975, "Bom": 1343, "tussentijd": 20427, "##logeerd": 26930, "##UI": 23696, "Anouk": 827, "woordvoerder": 22589, "Pen": 5544, "middel": 15586, "Rechts": 5889, "gaten": 11835, "afgaan": 8226, "gedetineerde": 11963, "##zki": 29909, "kastelen": 14137, "Station": 6641, "respect": 18242, "verdeel": 20917, "##2200": 23047, "krijgt": 14649, "Macht": 4554, "jou": 13980, "Juan": 3822, "volhoud": 21839, "##factuur": 25235, "##gezette": 25692, "##hoe": 25950, "##leger": 26754, "minst": 15660, "##adh": 23842, "groepen": 12911, "Kemp": 3949, "aanpassen": 7970, "onverzettelijk": 16735, "##culturen": 24752, "Samen": 6213, "instorting": 13790, "alarm": 8379, "Janneke": 3696, "Nev": 5146, "kondigt": 14509, "onbereikbaar": 16331, "House": 3472, "Joyce": 3818, "Laura": 4246, "lossen": 15193, "Bianc": 1238, "schadelijke": 18587, "administratie": 8187, "Ay": 987, "##boer": 24401, "stervende": 19519, "scheelde": 18619, "Enkhuize": 2457, "eist": 11227, "ribben": 18290, "Kristin": 4136, "Whitlock": 7620, "wantrouwen": 22232, "daarbuiten": 10472, "##ontzeggen": 27510, "commentaar": 10238, "automatisch": 8646, "Spear": 6576, "Ted": 6840, "verzekeraars": 21578, "sneed": 19108, "##ara": 24024, "##principe": 27904, "Shin": 6411, "bult": 9995, "##tijden": 29004, "multi": 15845, "Cecilia": 1683, "regent": 18122, "historische": 13312, "##a\u00ef": 24145, "bijeenkomst": 9552, "fantasie\u00ebn": 11512, "verminder": 21186, "##geven": 25643, "roeien": 18366, "##schappelijk": 28339, "rituelen": 18346, "vrachtwagens": 22030, "##partij": 27700, "vegetatie": 20803, "gebaar": 11859, "Studie": 6723, "vertelde": 21415, "wijk": 22465, "EEN": 2309, "overduidelijk": 17086, "Mei": 4762, "optimale": 16982, "Hy": 3505, "##gehaald": 25447, "dwang": 11090, "Armstrong": 904, "##lina": 26876, "Kou": 4117, "Cox": 1944, "##schop": 28390, "Concre": 1882, "afgelost": 8244, "Tilly": 6958, "Expeditie": 2534, "Cramb": 1947, "dreigende": 10957, "tropisch": 20386, "eiste": 11228, "weegschaal": 22280, "overnames": 17147, "##fri": 25338, "buurtschap": 10028, "Neu": 5143, "##haas": 25835, "Totaal": 7021, "Dagblad": 2016, "staande": 19374, "##borst": 24431, "##tegen": 28916, "40": 440, "Giet": 2946, "kids": 14230, "##adi": 23843, "##meister": 27095, "Michelangelo": 4837, "reguliere": 18149, "##ertje": 25170, "##RU": 23627, "invallen": 13861, "gekomen": 12114, "verrichtte": 21286, "##shop": 28470, "ontbinding": 16577, "weids": 22322, "Bell": 1160, "irritant": 13899, "eiken": 11206, "Clement": 1810, "Petrus": 5586, "##\u00efn": 29986, "##beker": 24235, "Te": 6834, "##lof": 26927, "verzette": 21586, "grote": 12953, "State": 6638, "verzetten": 21587, "bestemd": 9279, "ont": 16572, "##quil": 27971, "geprivatiseerd": 12324, "omgedraaid": 16246, "Biggles": 1244, "bereken": 9152, "fluisteren": 11652, "slaag": 18961, "rijtuig": 18324, "Constantijn": 1901, "fraude": 11731, "machthebber": 15282, "Sob": 6523, "route": 18437, "2005": 386, "Loper": 4445, "ernstig": 11347, "##aliteit": 23935, "vissen": 21699, "onderlip": 16391, "##enbach": 25109, "berichten": 9161, "Polak": 5680, "handelsmerk": 13036, "Nummer": 5259, "songwriter": 19184, "##ture": 29149, "achthonderd": 8141, "##priester": 27899, "gewezen": 12598, "Masters": 4692, "bitter": 9608, "conservatorium": 10329, "##AT": 23199, "##diploma": 24869, "##gedoken": 25421, "vlam": 21720, "supporters": 19782, "Games": 2806, "Holly": 3415, "peddel": 17347, "krul": 14695, "Fokker": 2685, "fantastisch": 11513, "verlossing": 21167, "19de": 378, "Pauw": 5529, "mentaliteit": 15539, "Zidane": 7791, "verbeeld": 20856, "getuigenis": 12516, "gebruikelijk": 11908, "herbergier": 13193, "Salon": 6206, "kwijtgeraakt": 14765, "baseren": 8760, "steeds": 19455, "vuurwerk": 22133, "Slot": 6492, "##derbij": 24825, "##stak": 28686, "##brugge": 24489, "goud": 12815, "stonden": 19597, "smeden": 19070, "##NG": 23514, "##arm": 24047, "trom": 20376, "verwijzen": 21544, "##nie": 27312, "Earth": 2322, "jo": 13953, "##gezakt": 25685, "Lummen": 4496, "rockband": 18360, "Gesprek": 2914, "doelpunten": 10804, "langetermijn": 14846, "##namiddag": 27260, "kapittel": 14108, "psychiater": 17864, "Hongarije": 3437, "vreemdelingen": 22045, "White": 7619, "##aise": 23900, "dierlijke": 10701, "springen": 19349, "strik": 19689, "rechtvleugelig": 18060, "capit": 10063, "rechter": 18040, "olifanten": 16231, "Schaarbeek": 6265, "##distributeur": 24877, "bevrijding": 9421, "Roh": 6046, "Vlug": 7409, "opeens": 16815, "##hua": 26012, "Burgemeester": 1537, "assistent": 8605, "prijzen": 17721, "##CS": 23248, "##FT": 23351, "minnaar": 15657, "huurders": 13529, "Hofman": 3400, "Ballast": 1047, "toegestaan": 20144, "stam": 19406, "wrede": 22609, "verhuisde": 21054, "vlecht": 21723, "Penn": 5547, "definitieve": 10579, "1961": 339, "hbo": 13102, "herrie": 13240, "ondergaan": 16367, "nigro": 16076, "tuberculose": 20402, "##ateur": 24087, "drong": 11002, "knoopte": 14434, "progressieve": 17810, "traint": 20301, "transfer": 20312, "benut": 9114, "Calais": 1587, "politiechef": 17580, "ouderen": 17056, "ondersoorten": 16408, "verkoo": 21100, "scoort": 18825, "##zomer": 29919, "vuurgevecht": 22128, "##twijfeld": 29156, "##sloeg": 28529, "aangereden": 7909, "appreci": 8525, "##weven": 29719, "kortweg": 14573, "Mario": 4651, "Weekend": 7558, "reputatie": 18230, "Neptunus": 5133, "Roemeense": 6035, "##SH": 23640, "minderwaardig": 15642, "namiddag": 15938, "verraad": 21270, "smoel": 19090, "overvloed": 17178, "waarschuwing": 22185, "verwittig": 21550, "alibi": 8391, "lege": 14917, "gewelddadige": 12588, "Mora": 4976, "bevrijden": 9420, "Wilfried": 7639, "Friezen": 2760, "flavi": 11636, "promo": 17818, "##gehangen": 25452, "##knars": 26549, "##udi": 29176, "artistieke": 8587, "daad": 10462, "##straler": 28789, "Boonen": 1362, "Eisen": 2389, "nors": 16137, "prees": 17682, "hoofd": 13382, "moestuin": 15742, "Alan": 683, "Continental": 1907, "Moe": 4921, "gehoor": 12070, "Hoste": 3466, "acute": 8171, "vakcentrale": 20703, "Rap": 5860, "##xi": 29805, "Instinct": 3598, "geaccepteerd": 11841, "##vangst": 29305, "vilt": 21673, "Welnee": 7576, "##MU": 23501, "eerbeto": 11151, "##geprezen": 25550, "hype": 13542, "##kolom": 26574, "##comit\u00e9": 24668, "gepast": 12304, "Feest": 2597, "bloes": 9679, "##jagen": 26347, "##stin": 28755, "##trappen": 29087, "noemt": 16097, "##hallen": 25849, "Kort": 4106, "Nicole": 5168, "##tand": 28888, "##tius": 29027, "aanvrager": 8026, "##EST": 23325, "Banks": 1058, "Kasparov": 3915, "gevierd": 12547, "Danny": 2040, "leder": 14885, "conversatie": 10378, "Mobiel": 4912, "riolering": 18333, "dorst": 10917, "Pot": 5715, "betrapt": 9338, "##rage": 27997, "Alfons": 707, "##moes": 27181, "speaker": 19218, "##afdrukken": 23864, "overdekt": 17081, "atletiek": 8619, "kookboek": 14523, "ontmoedigen": 16627, "triatlon": 20353, "veelbetekenend": 20785, "##tering": 28954, "olieverf": 16229, "Justin": 3850, "fit": 11621, "verrijkt": 21289, "##vergunning": 29368, "meester": 15487, "Bos": 1376, "jonger": 13970, "veilinghui": 20811, "Pon": 5694, "Nederlander": 5110, "fronsend": 11747, "##hart": 25874, "beroemd": 9166, "Sak": 6197, "info": 13684, "Mina": 4882, "Onderzoek": 5334, "vrijstaand": 22080, "##aars": 23785, "boerderijen": 9733, "entourage": 11303, "schrijfster": 18778, "Bois": 1336, "Empire": 2438, "Division": 2165, "DE": 1992, "gesubsidieerd": 12487, "onverwachte": 16732, "##fluit": 25303, "voorhoofd": 21915, "bondgenoten": 9763, "eigenaar": 11193, "##commando": 24671, "loopgraven": 15175, "verzameling": 21572, "##KING": 23446, "##duur": 24990, "beduidde": 8850, "marechaussee": 15366, "##waar": 29619, "Stu": 6720, "beoefen": 9120, "Right": 5986, "##33": 23078, "onrust": 16561, "vlucht": 21766, "flat": 11631, "##straete": 28784, "Sacr": 6183, "##econo": 25007, "epi": 11310, "##SC": 23632, "Elias": 2406, "gebieden": 11878, "kwetsbaarheid": 14760, "illustreren": 13613, "toespeling": 20183, "Ahold": 664, "##sjo": 28498, "Vondelpark": 7439, "Pitt": 5641, "Beneden": 1166, "adv": 8197, "reeds": 18090, "extra": 11466, "doordrenkt": 10880, "##cale": 24528, "Honor": 3439, "Coco": 1833, "ongunstig": 16521, "toelage": 20157, "##dubbel": 24970, "##II": 23411, "Stad": 6621, "Berg": 1181, "pasta": 17321, "sliert": 19014, "motorkap": 15831, "bevestig": 9389, "Fuchs": 2772, "stemmetje": 19491, "Dallas": 2027, "avonturen": 8667, "##zorgsmaatregel": 29928, "tomaten": 20221, "daarachter": 10469, "##igszin": 26146, "kapstok": 14114, "Oud": 5416, "##f": 118, "barstte": 8755, "glanzend": 12727, "##alisatie": 23929, "##unch": 29228, "##jas": 26357, "Cap": 1620, "##onderneming": 27464, "Fle": 2660, "Friesland": 2759, "Music": 5026, "Belgen": 1152, "gedateerd": 11943, "naast": 15895, "Poetin": 5675, "dichte": 10661, "beledigd": 9033, "ouderwetse": 17060, "roedel": 18364, "audi\u00ebntie": 8629, "wankel": 22227, "##derom": 24830, "Onderneming": 5329, "##schrijving": 28410, "aangenaam": 7903, "##PORT": 23593, "Verhe": 7298, "grasveld": 12855, "stuiten": 19732, "##rico": 28149, "##dienst": 24849, "benadrukken": 9097, "tombe": 20222, "Lelystad": 4296, "schonk": 18728, "gouverneur": 12820, "dwarrelde": 11093, "engelen": 11289, "Ging": 2956, "aanstaande": 7989, "kleuren": 14346, "roeping": 18372, "Jason": 3710, "arbeidsmarkt": 8535, "rechte": 18038, "##STER": 23660, "Tsjaad": 7076, "opengesperd": 16827, "komedie": 14494, "Beck": 1112, "schema": 18638, "bezighield": 9494, "bewusteloos": 9476, "Gosseyn": 3018, "quarantaine": 17910, "stroming": 19697, "##mast": 27055, "nader": 15915, "##oce": 27367, "mijn": 15612, "kleedkamer": 14321, "Dresden": 2247, "Jon": 3782, "Royal": 6110, "illustreer": 13612, "##cauda": 24544, "##uff": 29181, "Liszt": 4404, "Flori": 2674, "##hoop": 25982, "Erasmus": 2468, "brave": 9869, "Beveren": 1229, "geringe": 12369, "##ontstan": 27501, "##afval": 23874, "Ax": 985, "##SINT": 23642, "gewerkt": 12595, "coalitie": 10201, "landbouwgrond": 14820, "broeikasgassen": 9906, "Arm": 899, "hanteren": 13058, "ADO": 531, "onthoofd": 16603, "zichtbare": 22752, "massaver": 15396, "Japanners": 3704, "##berghe": 24264, "locatie": 15130, "smaakt": 19060, "opendoe": 16824, "##vlag": 29488, "cursisten": 10451, "Forest": 2698, "afstaan": 8321, "doe": 10790, "organiseerde": 17032, "feite": 11552, "Didier": 2122, "voormalig": 21928, "full": 11756, "##district": 24878, "ploeggenote": 17534, "waardevolle": 22161, "men": 15513, "##act": 23825, "uitgeverij": 20550, "Karen": 3906, "Flevoland": 2664, "rechters": 18045, "short": 18904, "jammerde": 13927, "##filosofie": 25280, "formeel": 11686, "gsm": 12962, "##platen": 27810, "aardewerk": 8047, "industri\u00eble": 13677, "luchtaanvallen": 15204, "##tim": 29010, "##zijde": 29897, "stortvloed": 19623, "neer": 15987, "met": 15557, "kwaliteits": 14743, "bruiloft": 9939, "geheimzinnige": 12063, "##bedrag": 24203, "Yamaha": 7719, "deel": 10557, "plaatsvervanger": 17474, "Bremen": 1444, "broed": 9900, "geslacht": 12429, "High": 3360, "vindingrijk": 21676, "zaken": 22654, "##ines": 26204, "Zorreguiet": 7819, "ouderwets": 17059, "##ets": 25198, "##DU": 23277, "portiek": 17624, "schot": 18755, "Riet": 5984, "Kara": 3903, "borduur": 9797, "people": 17368, "prognose": 17803, "harp": 13080, "##ophila": 27541, "1977": 355, "Imp": 3568, "stadhouder": 19389, "##uld": 29217, "Broeck": 1479, "##aanvraag": 23778, "##verein": 29360, "aangepaste": 7907, "neogotisch": 16022, "##83": 23137, "Slag": 6480, "Courant": 1941, "##instellingen": 26238, "V": 48, "termen": 19984, "##ovitsj": 27649, "Carey": 1633, "meubil": 15574, "bemanning": 9081, "verborg": 20890, "beul": 9360, "##erij": 25155, "fladderen": 11625, "Ricky": 5978, "Baby": 1022, "telefoongesprek": 19939, "goudmijn": 12818, "duidelijk": 11037, "##bonnen": 24414, "##ele": 25068, "richt": 18292, "##l\u00e8ne": 26990, "##koerier": 26566, "miljard": 15627, "vertraagd": 21432, "opvolgde": 16996, "##trekker": 29099, "Cli": 1816, "Eva": 2516, "bladroller": 9623, "##ants": 24011, "##rijke": 28169, "RUIMTE": 5817, "combinatie": 10226, "BSE": 1011, "dwaalde": 11086, "stoffige": 19581, "##kamp": 26408, "IJmuiden": 3520, "meldde": 15504, "##evergeefs": 25216, "Kasper": 3916, "registreerde": 18145, "Voorzichtig": 7448, "##straling": 28790, "##lob": 26917, "Jeugd": 3744, "Satan": 6247, "dansen": 10522, "rem": 18194, "##\u201e": 152, "actiefilm": 8156, "films": 11596, "##makelij": 27024, "##chan": 24573, "Touch": 7025, "ganzen": 11812, "Caval": 1679, "verstikt": 21385, "##roc": 28214, "Deventer": 2105, "Amsterdammer": 773, "ongestoord": 16502, "millennium": 15633, "Beethoven": 1128, "##optreden": 27557, "kring": 14654, "schiet": 18676, "##OET": 23545, "Texas": 6894, "zoon": 22853, "strompelde": 19699, "Milo": 4879, "halfrond": 13011, "##orum": 27584, "##mobil": 27168, "buitenlander": 9976, "##jarig": 26355, "onbeantwoord": 16314, "##Nobel": 23535, "Hauspie": 3221, "informeerde": 13690, "##richting": 28145, "vreemde": 22043, "Zonne": 7814, "rekrute": 18172, "##alia": 23927, "basisonderwijs": 8762, "chauffeur": 10124, "##zzo": 29960, "Victoria": 7349, "adopter": 8192, "klaarwakker": 14283, "Josie": 3811, "Rai": 5837, "##o": 127, "langzamerhand": 14856, "stroomt": 19707, "doelgroep": 10799, "Italianen": 3653, "Boon": 1361, "afspeelde": 8314, "##abi": 23792, "##transport": 29085, "Pepijn": 5555, "wieg": 22447, "##drijving": 24952, "##jar": 26353, "Mustafa": 5029, "Mc": 4724, "wrevel": 22613, "pakjes": 17217, "onmisbaar": 16536, "Gert": 2911, "##ran": 28012, "benadrukte": 9099, "Commission": 1868, "Drive": 2252, "Huygens": 3503, "Life": 4363, "enige": 11291, "##bezitters": 24326, "##vak": 29294, "diva": 10763, "mode": 15715, "werkgevers": 22391, "japon": 13931, "Publiek": 5789, "vergader": 20987, "Eigen": 2378, "verteller": 21417, "toestand": 20187, "Oegand": 5283, "Hunter": 3497, "kruiwagen": 14692, "micro": 15579, "Ice": 3544, "organisaties": 17027, "stoffig": 19580, "##point": 27841, "gepraa": 12319, "##tain": 28876, "onderzoeken": 16440, "klussen": 14387, "##meester": 27089, "Lycaen": 4508, "omloop": 16267, "kortzichtig": 14574, "##ingsplaats": 26216, "##gereden": 25560, "lastig": 14867, "##kies": 26477, "##eiroet": 25051, "meervoud": 15478, "##woord": 29784, "Genootschap": 2878, "ontwor": 16702, "##art": 24059, "##mael": 27014, "cinema": 10162, "##geheugen": 25455, "##\u00e8re": 29966, "Op": 5371, "##dreven": 24945, "aangifte": 7933, "Patijn": 5514, "hoofddoek": 13383, "kelk": 14169, "voormalige": 21929, "Tsi": 7073, "Rompuy": 6064, "Institut": 3599, "Gina": 2955, "Columbia": 1854, "achteruitgang": 8133, "Jerem": 3730, "##idea": 26075, "delict": 10596, "migranten": 15605, "Berlin": 1195, "##bevel": 24308, "IJ": 3519, "Alec": 695, "expo": 11456, "incidenten": 13657, "##203": 23039, "keer": 14157, "Hierop": 3359, "##ziet": 29894, "Merel": 4799, "weergave": 22292, "zoemen": 22806, "\u00d4": 30048, "feestje": 11549, "##blijft": 24374, "1983": 361, "##long": 26941, "##DE": 23260, "verhoogd": 21046, "corporatie": 10382, "Frei": 2750, "Contador": 1906, "levert": 15009, "vaderland": 20693, "Hymenopt": 3508, "cent": 10097, "onbekommerd": 16323, "##latus": 26725, "##dadig": 24779, "peil": 17350, "##weefsel": 29665, "Eerlijk": 2362, "gebonden": 11889, "sluit": 19050, "##HEM": 23381, "nieuws": 16069, "aantrekken": 8006, "meestal": 15484, "Eigenlijk": 2380, "Cott": 1934, "1868": 250, "Cassi": 1660, "omtrek": 16284, "oplossing": 16919, "Reyn": 5953, "fortuin": 11698, "duren": 11065, "pakket": 17219, "theorie": 20060, "cabine": 10036, "Vakbond": 7210, "verruilde": 21294, "firma": 11616, "laf": 14800, "Geheel": 2842, "notitie": 16148, "indrukwekkende": 13675, "Koek": 4056, "##gemeten": 25514, "Sebasti": 6341, "servies": 18884, "##sveld": 28851, "Ku": 4154, "warmer": 22247, "##sson": 28666, "kreun": 14635, "##AS": 23196, "hevig": 13270, "##assa": 24072, "##kritiek": 26632, "Hmm": 3386, "Arjan": 895, "dubbel": 11029, "Huy": 3502, "regelde": 18106, "##scha": 28321, "##schepen": 28354, "personenwagen": 17398, "populair": 17609, "Gelder": 2847, "dominant": 10828, "##ckx": 24641, "##leraar": 26782, "Roer": 6039, "beestje": 8873, "##schuld": 28418, "##naalden": 27248, "Gerw": 2912, "##gedacht": 25414, "straffen": 19641, "##expert": 25221, "cre\u00eber": 10422, "kranten": 14620, "##l\u00f6": 26992, "somme": 19177, "vijfde": 21659, "scheiding": 18630, "Saksisch": 6199, "serie": 18873, "verwarming": 21511, "##kwaliteit": 26659, "03": 160, "precies": 17676, "klep": 14338, "Code": 1835, "debuutalbum": 10547, "tout": 20264, "##republiek": 28109, "Klik": 4033, "miljoenen": 15631, "Conventie": 1909, "processor": 17769, "##financiering": 25284, "##glu": 25742, "afgezwakt": 8266, "Regering": 5903, "verlichten": 21145, "##ouder": 27617, "##kijken": 26482, "Scar": 6260, "harmonie": 13078, "teruggeven": 20013, "uitge": 20507, "Sunday": 6748, "knecht": 14403, "proef": 17782, "Eijk": 2381, "Guido": 3102, "koker": 14481, "lampje": 14814, "disco": 10746, "##VE": 23716, "strak": 19646, "klein": 14326, "Dupont": 2292, "bedenk": 8806, "bewerkt": 9449, "beweeglijk": 9437, "hoesten": 13337, "medeplichtig": 15438, "##stegen": 28717, "Bulgaars": 1525, "gedacht": 11939, "vorderde": 22002, "##tta": 29131, "##possible": 27868, "##kreet": 26627, "inboorlingen": 13646, "verkoold": 21101, "spuwde": 19366, "Vic": 7346, "lucht": 15203, "##winst": 29758, "Slowakije": 6496, "website": 22266, "##EER": 23290, "gespannen": 12444, "toevertrouw": 20200, "Sig": 6434, "wonderlijk": 22567, "Mun": 5014, "##overzicht": 27646, "Hout": 3474, "Elly": 2421, "##generatie": 25526, "##geschoten": 25586, "##joeg": 26370, "##kje": 26498, "presteren": 17701, "vannacht": 20734, "1964": 342, "aanbesteding": 7863, "schroom": 18792, "Robert": 6017, "gitaar": 12717, "Carla": 1637, "ontgoocheling": 16599, "kennis": 14182, "barbecue": 8743, "##gala": 25360, "diversiteit": 10766, "stukje": 19735, "Bj\u00f6rn": 1276, "adellijke": 8175, "afwijking": 8348, "overheen": 17112, "gemis": 12225, "snowboard": 19131, "moeiteloos": 15734, "dealer": 10539, "Ketel": 3973, "fruit": 11751, "vergezeld": 21008, "##IFA": 23409, "aanklacht": 7943, "verloochen": 21159, "Ortho": 5402, "##aandoening": 23770, "##MP": 23497, "Lindsay": 4390, "chronisch": 10151, "Nova": 5253, "##suitdrukking": 28847, "jagen": 13921, "bewerkstellig": 9448, "Willie": 7648, "##fit": 25288, "Bosmans": 1378, "vertrouw": 21442, "##leg": 26751, "groene": 12907, "trek": 20343, "gevormd": 12567, "slokje": 19034, "fictie": 11569, "smeken": 19077, "Princip": 5742, "achtervolger": 8136, "reactie": 18006, "##illy": 26184, "aanleiding": 7955, "##TR": 23683, "Komt": 4078, "leken": 14938, "knip": 14420, "kurk": 14722, "##rou": 28254, "Rie": 5982, "##jeng": 26362, "Mendonck": 4787, "##mannetje": 27040, "##poeder": 27835, "vloeiend": 21752, "spreid": 19342, "vooralsnog": 21886, "veelvoud": 20787, "Chavez": 1730, "##nietigingswapen": 27315, "##reep": 28061, "veronderstel": 21228, "Das": 2047, "bestuderen": 9296, "ochtend": 16188, "sergeant": 18872, "nichtje": 16053, "##88": 23143, "dijen": 10714, "situaties": 18946, "##cell": 24551, "##groei": 25796, "##cum": 24755, "overleven": 17135, "##lading": 26686, "betrekken": 9343, "kregen": 14631, "Weinig": 7567, "##planeet": 27801, "fascistisch": 11524, "tabak": 19821, "tit": 20120, "##scanner": 28314, "you": 22631, "zette": 22740, "u": 30043, "Koster": 4115, "Ran": 5851, "invalshoek": 13863, "volk": 21840, "Heren": 3320, "vaardig": 20679, "knuppel": 14446, "##vyn": 29611, "Riv": 6006, "sabelsprinkha": 18510, "goedkeurend": 12785, "##aja": 23902, "Neg": 5122, "keizerin": 14164, "korpschef": 14563, "voedsel": 21786, "Tsa": 7072, "Abonnee": 583, "Association": 933, "graffiti": 12838, "Schre": 6313, "horizontaal": 13445, "##arts": 24064, "`": 52, "Three": 6926, "ettelijke": 11388, "pensionering": 17367, "verlaging": 21119, "Damien": 2031, "##geslapen": 25594, "Dol": 2190, "regeringen": 18128, "Griff": 3067, "nature": 15956, "##inus": 26247, "Ardenne": 878, "reclamebureau": 18062, "werven": 22416, "##haalde": 25831, "Culture": 1971, "Operatie": 5378, "Enterprise": 2461, "480": 452, "Hiermee": 3357, "Jura": 3847, "Problem": 5754, "Rand": 5852, "##vid": 29452, "##pur": 27957, "progressie": 17809, "##okia": 27421, "##werker": 29698, "straalde": 19630, "##EM": 23308, "onbe": 16313, "Gur": 3114, "brede": 9873, "had": 12998, "##knoop": 26556, "##CL": 23241, "Sign": 6435, "beet": 8874, "afsplitsing": 8317, "Electrabel": 2396, "Inge": 3593, "vierkante": 21648, "Anti": 833, "protesten": 17840, "##NM": 23520, "##regering": 28068, "sollicitant": 19170, "##tube": 29137, "Manager": 4608, "scheur": 18667, "uitkering": 20561, "blij": 9643, "apathi": 8511, "beeldhouwer": 8860, "##luy": 26984, "##bui": 24495, "##imo": 26189, "pakte": 17222, "veroverde": 21251, "##daling": 24787, "droge": 10996, "Echter": 2329, "Lyon": 4515, "athe\u00efs": 8615, "bromde": 9917, "sam": 18522, "##zat": 29854, "Vervolgens": 7333, "co\u00f6rdineren": 10409, "sterkst": 19509, "bevriezen": 9418, "##medaille": 27078, "onbekend": 16321, "##zeil": 29863, "graag": 12828, "##atar": 24083, "Grappig": 3042, "spionage": 19287, "konvooi": 14520, "volstrekt": 21858, "gade": 11794, "bedenkelijk": 8807, "hersenen": 13243, "Hon": 3427, "onvriendelijk": 16746, "verlengde": 21139, "vrouwelijk": 22099, "Hockey": 3390, "exotisch": 11434, "oorlog": 16786, "##gang": 25366, "spoorwegstation": 19320, "Lan": 4214, "bondscoach": 9764, "uitgestrekte": 20546, "seriemoordenaar": 18874, "charter": 10121, "bossen": 9811, "weifel": 22323, "geveld": 12542, "##verreden": 29407, "##gehalte": 25450, "mechanische": 15425, "##idia": 26083, "geleidelijk": 12160, "overgenomen": 17102, "##anni": 23997, "verwerken": 21525, "Staf": 6626, "terras": 19987, "##gescheurd": 25582, "Turner": 7102, "##asco": 24068, "bekendmaking": 8975, "Jesus": 3742, "passages": 17307, "onze": 16760, "vurige": 22126, "##CB": 23233, "##voorraad": 29557, "aangebracht": 7888, "Sluit": 6499, "mensch": 15529, "omgedoopt": 16245, "beschaafd": 9185, "paren": 17268, "##system": 28865, "moza\u00efek": 15836, "Bali": 1042, "Gaulle": 2827, "##anna": 23995, "##pogon": 27840, "##volume": 29551, "luisteraars": 15228, "##lot": 26963, "Twee": 7109, "Sedert": 6349, "kleiner": 14329, "Francien": 2719, "schoorsteen": 18744, "blunder": 9703, "social": 19141, "Beatrice": 1107, "begeleiden": 8886, "##erige": 25154, "Salv": 6208, "##ifax": 26120, "Su": 6732, "penningmeester": 17361, "##raat": 27984, "keert": 14159, "Guatemala": 3095, "recht": 18036, "apparatuur": 8520, "zwaaien": 22908, "tweederangs": 20436, "Malt": 4602, "bevel": 9384, "Jaap": 3667, "verraden": 21271, "##fout": 25329, "Mallorca": 4598, "afwezig": 8346, "schil": 18691, "##roepen": 28223, "##aat": 23787, "##gebrek": 25407, "##400": 23086, "Vendex": 7269, "Lange": 4226, "Green": 3050, "geplei": 12315, "inclu": 13658, "sokkel": 19161, "##grendel": 25786, "##concert": 24691, "##paard": 27670, "##taxi": 28901, "herdenkings": 13198, "bondskanselier": 9765, "Crawford": 1949, "zege": 22685, "Gibraltar": 2941, "overheersen": 17113, "Entertainment": 2462, "geloven": 12187, "katoen": 14147, "aanzetten": 8036, "hippie": 13307, "krab": 14601, "Soul": 6558, "Vaarwe": 7204, "Cultuur": 1973, "zakelijk": 22652, "Galapagos": 2797, "##81": 23136, "somber": 19175, "##gedicht": 25419, "na": 15885, "##kaarten": 26394, "##ONG": 23554, "##ist": 26288, "Saoedi": 6234, "Fre": 2740, "inburgering": 13652, "bachelor": 8686, "Meer": 4753, "coalitiepartner": 10202, "muur": 15865, "Hof": 3398, "onderzee\u00ebr": 16437, "gebleken": 11880, "##schotel": 28394, "leuke": 14977, "artiesten": 8582, "enveloppe": 11307, "getint": 12496, "meewarig": 15492, "##lef": 26750, "bolle": 9747, "aanhangsel": 7938, "##kroon": 26636, "Steen": 6648, "Bad": 1027, "##cin": 24621, "##patrouille": 27716, "aandeelhouder": 7874, "##programma": 27928, "mirakel": 15668, "bladen": 9620, "Slee": 6486, "diameter": 10657, "verschuldigd": 21330, "##2000": 23036, "knap": 14399, "##sio": 28488, "Thu": 6928, "schichtig": 18672, "groepswedstrijd": 12916, "Gri": 3060, "##beklag": 24238, "animatie": 8484, "yoghurt": 22630, "##behandeling": 24225, "##standaard": 28694, "boekhouding": 9725, "Canarisch": 1615, "behoeften": 8949, "Gorinchem": 3017, "geregeld": 12354, "GroenLinks": 3075, "ritzege": 18347, "up": 20661, "##jockey": 26368, "##SM": 23647, "Sandra": 6225, "##arrow": 24057, "Babel": 1021, "##schreven": 28402, "Lydia": 4510, "verdure": 20958, "onschuld": 16567, "verkrachting": 21110, "afsluit": 8311, "##game": 25364, "drinkwater": 10990, "hellend": 13173, "sai": 18514, "deskundige": 10630, "bebloed": 8786, "buitenstaander": 9982, "opwinding": 17005, "zendtijd": 22723, "stimuleer": 19563, "Mexicaanse": 4823, "##volk": 29548, "karretje": 14125, "stormde": 19618, "Rijk": 5989, "Spe": 6575, "hokje": 13352, "Cell": 1689, "Heel": 3253, "##far": 25239, "zwem": 22943, "Orl\u00e9ans": 5400, "1936": 314, "loslaten": 15188, "Aarde": 565, "Lum": 4495, "neutraal": 16046, "commissaris": 10245, "Ris": 6004, "Verbruggen": 7282, "Fran": 2715, "##chirurg": 24593, "Trijnt": 7053, "Bob": 1314, "drievoudig": 10974, "fantasie": 11511, "verstopt": 21391, "See": 6350, "interieur": 13827, "Mat": 4693, "power": 17651, "##blaas": 24358, "##elen": 25070, "##nsverduistering": 27354, "buitenwereld": 9984, "##portaal": 27861, "tarief": 19865, "Bruce": 1494, "boot": 9791, "Luy": 4506, "##SS": 23653, "hotel": 13454, "Europa": 2506, "bloedvaten": 9670, "onverbiddelijk": 16717, "verslond": 21350, "##jasje": 26358, "geweten": 12597, "##muis": 27226, "kiem": 14233, "inspiratiebron": 13769, "Minder": 4884, "bruut": 9951, "zintuigen": 22789, "##ikken": 26166, "stemmen": 19489, "Gijs": 2948, "uitging": 20557, "##riep": 28157, "##snuif": 28563, "opvang": 16990, "##zuiver": 29940, "diarree": 10658, "##read": 28039, "Hir": 3375, "retor": 18263, "verroeren": 21292, "##lus": 26980, "resolutie": 18240, "Titani": 6974, "kreeg": 14629, "Fan": 2573, "Einstein": 2388, "jong": 13962, "Kim": 4000, "##class": 24644, "1881": 259, "Kla": 4016, "kenbaar": 14172, "Pap": 5482, "meegewerkt": 15466, "Admiral": 617, "reality": 18020, "vijftigduizend": 21669, "verkeers": 21071, "##identiteitskaart": 26079, "Affair": 634, "##ula": 29214, "bordje": 9796, "euforie": 11389, "Castel": 1662, "Fenerbah": 2609, "erfpacht": 11329, "Bertrand": 1208, "magazine": 15294, "stimulering": 19565, "Cro": 1957, "Schumacher": 6323, "##wijzing": 29745, "##INGEN": 23424, "br": 9849, "##dagen": 24782, "Eeckhout": 2353, "lezen": 15010, "ouwe": 17067, "vaatziekten": 20685, "##JE": 23439, "hieronder": 13284, "loom": 15169, "Vander": 7233, "##massa": 27054, "##zegel": 29859, "omhelz": 16259, "summier": 19773, "Enkele": 2456, "##vlees": 29494, "##weet": 29673, "lesgeven": 14962, "stevig": 19526, "Effect": 2368, "erotische": 11353, "capaciteit": 10062, "kreten": 14634, "Hotspur": 3469, "Sabine": 6179, "kwalijk": 14740, "mammoet": 15332, "verkeerd": 21069, "Vivi": 7386, "praktische": 17671, "overnachting": 17144, "aristocra": 8558, "vredesmissie": 22038, "Krom": 4145, "aids": 8368, "##bow": 24447, "##ader": 23840, "##elijke": 25077, "##SCH": 23633, "##zwem": 29952, "loop": 15173, "##iekenhuizen": 26098, "racist": 17940, "ruis": 18473, "Krijt": 4132, "##pakt": 27680, "geven": 12543, "stuurde": 19743, "Dexia": 2107, "Primer": 5740, "Dessel": 2100, "aardige": 8050, "Aa": 552, "feil": 11550, "Pur": 5794, "transport": 20319, "##moeilijk": 27180, "mal": 15323, "export": 11458, "##RL": 23618, "Universe": 7153, "##FS": 23350, "##hoest": 25954, "dieselmotor": 10705, "News": 5152, "ongehoord": 16473, "##top": 29058, "##HR": 23392, "mens": 15528, "Cooper": 1912, "voortvarend": 21974, "Chiro": 1754, "Hoogland": 3449, "##dell": 24819, "pseudoniem": 17863, "ontroerd": 16642, "afliep": 8289, "##woordenwisseling": 29786, "doel": 10794, "weerspiegeld": 22299, "##stadt": 28682, "Stilte": 6686, "Tw": 7107, "donker": 10843, "Kristof": 4137, "excuses": 11427, "NBC": 5046, "wijzen": 22475, "##opera": 27538, "Cul": 1970, "##culaire": 24750, "krijgsmacht": 14648, "Lancelot": 4217, "Ronaldo": 6067, "dichter": 10662, "knor": 14439, "Human": 3494, "##structuur": 28820, "Gevaert": 2918, "proefschrift": 17784, "gedetineerden": 11964, "betrof": 9347, "ge\u00ebrgerd": 12663, "kerkgebouw": 14195, "Nere": 5134, "schadeclaim": 18585, "stroomafwaarts": 19704, "wendde": 22353, "verstoring": 21393, "Wing": 7659, "plot": 17542, "1910": 288, "Gebruik": 2832, "complexe": 10271, "ogenschijnlijk": 16222, "Australi\u00ebr": 970, "weinige": 22331, "concurrentie": 10306, "vergeten": 21005, "1906": 284, "##eniveau": 25119, "dreigde": 10953, "##fa": 25228, "##kie": 26476, "gemanipuleerd": 12202, "achterliggend": 8121, "##kunst": 26652, "##mogensbeheerder": 27187, "Eph": 2464, "herkomst": 13227, "Band": 1053, "##illend": 26178, "Schouten": 6309, "##pend": 27732, "pole": 17569, "Marijn": 4644, "kluizenaar": 14384, "politicolo": 17573, "halfbroer": 13008, "werknemers": 22399, "##medewerker": 27080, "folter": 11667, "Voedsel": 7412, "Ruimtelijke": 6126, "overnam": 17145, "normen": 16136, "800": 497, "1878": 256, "achterhale": 8114, "##ophilu": 27542, "Pomp": 5693, "bedrijfs": 8838, "radiostation": 17954, "uur": 20670, "Vlijmen": 7403, "baas": 8681, "Kosovo": 4113, "onschuldige": 16569, "onderworpen": 16435, "##gepraa": 25549, "Sebastiaan": 6342, "Dog": 2188, "veelzeggend": 20789, "Wulf": 7712, "Galatasaray": 2798, "Teven": 6891, "Vodafone": 7411, "hek": 13150, "omgebouwd": 16244, "stamelde": 19408, "zekerheid": 22700, "##any": 24014, "##kov": 26607, "X": 30024, "##wij": 29731, "beschaamd": 9187, "vogels": 21818, "##veren": 29361, "uitgevoerd": 20552, "uitgeroeid": 20533, "zou": 22867, "Kapel": 3899, "shi": 18896, "Merlijn": 4807, "gelegerd": 12158, "honkbal": 13380, "##graad": 25765, "tanden": 19855, "Inspecteur": 3596, "Black": 1279, "##jun": 26388, "inspireer": 13770, "Social": 6525, "uitkijk": 20563, "tentoongesteld": 19975, "minderjarige": 15641, "punt": 17893, "##laken": 26694, "##ondernemer": 27463, "##artikelen": 24063, "telefonie": 19935, "mannelijke": 15352, "toppers": 20246, "aangesloten": 7914, "CPB": 1574, "verheug": 21036, "poll": 17586, "flink": 11644, "##belang": 24241, "##club": 24650, "##lanceren": 26701, "huisje": 13489, "daarvoor": 10487, "Ladies": 4200, "flexibiliteit": 11642, "##ucci": 29168, "mijnwerkers": 15614, "uitzonderlijke": 20643, "opgenomen": 16864, "driehoekig": 10968, "Anderen": 784, "bomen": 9755, "barokke": 8748, "Zwan": 7841, "werklozen": 22397, "hoogopgeleide": 13412, "gister": 12713, "dank": 10518, "ornament": 17044, "Safe": 6188, "##wel": 29683, "Jack": 3672, "Orleans": 5399, "dreigt": 10959, "##duurste": 24992, "eigendom": 11199, "##visch": 29479, "V8": 7172, "Gunnar": 3112, "organisator": 17028, "##cc": 24545, "bevallen": 9371, "Californische": 1590, "uitblinker": 20477, "Thialf": 6912, "drijvende": 10983, "waanzin": 22146, "Ch": 1707, "linkse": 15111, "blootstelling": 9696, "kunstmatige": 14716, "##instelling": 26237, "gemakkelijker": 12201, "karton": 14127, "Financial": 2640, "Ivan": 3656, "opbrengst": 16808, "uitgerust": 20535, "aanraken": 7973, "wees": 22304, "flitste": 11649, "##omer": 27444, "##ulus": 29223, "impasse": 13629, "##schade": 28327, "##snoer": 28561, "##nationalistische": 27263, "##vakantie": 29295, "focus": 11660, "slinger": 19025, "besteed": 9270, "strijken": 19688, "vloeien": 21751, "glimlachje": 12743, "bouwvergunning": 9832, "provincie": 17848, "Oor": 5357, "Wereldwijd": 7589, "Schelle": 6277, "La": 4187, "Parma": 5500, "verpakking": 21254, "##pijp": 27772, "Keyser": 3981, "##wezen": 29720, "Enfin": 2444, "##cu": 24747, "##crisis": 24730, "107": 178, "driepunter": 10972, "##els": 25095, "biecht": 9536, "##besproken": 24281, "Victor": 7348, "maak": 15251, "##punt": 27955, "##tioneel": 29019, "##lers": 26785, "Boxtel": 1407, "vee": 20780, "Doel": 2182, "##ug": 29184, "vuilniszak": 22114, "Partij": 5504, "meeslepen": 15480, "zoodat": 22849, "Bussum": 1548, "Spirit": 6598, "Swart": 6768, "geneeshe": 12244, "staatsbezoek": 19379, "change": 10112, "##box": 24448, "##zwijm": 29955, "enthousiast": 11302, "zomaar": 22815, "oranje": 17017, "sponsors": 19309, "##ace": 23808, "verbouwereerd": 20893, "Nicc": 5159, "vastberaden": 20752, "##roep": 28222, "Omega": 5318, "spiraal": 19289, "##trap": 29086, "##wer": 29692, "##muggen": 27225, "sopraan": 19189, "##IEK": 23403, "##augur": 24115, "banden": 8725, "Agr": 657, "uitgaans": 20502, "kleer": 14323, "gevestigde": 12546, "bezoek": 9501, "##HP": 23391, "VRT": 7191, "ge\u00ebindigd": 12658, "Schu": 6319, "Philipp": 5597, "affaire": 8223, "ronde": 18400, "##graaf": 25767, "Expo": 2538, "aftrap": 8328, "lucifer": 15210, "Irani\u00ebr": 3625, "PKK": 5439, "bedekt": 8802, "Comit\u00e9": 1860, "The": 6902, "betwist": 9356, "##finale": 25283, "zachter": 22644, "aanmoediging": 7962, "##gua": 25810, "##huishouding": 26017, "##rdy": 28037, "Zwitser": 7856, "heelal": 13119, "toestaan": 20186, "pretentie": 17705, "Ke": 3936, "Lissabon": 4403, "botten": 9823, "538": 461, "##iste": 26290, "##taan": 28869, "##vit": 29485, "##voering": 29533, "Casino": 1657, "persbericht": 17386, "Hein": 3272, "angstaanjagend": 8480, "##weerstaan": 29671, "##kogel": 26569, "##ius": 26321, "diepe": 10687, "Haz": 3233, "prop": 17827, "##boord": 24422, "roepen": 18371, "tekortkoming": 19927, "Daphne": 2042, "mogelijk": 15746, "vrij": 22065, "Saudisch": 6251, "ingang": 13697, "Boys": 1409, "echtscheiding": 11114, "lijn": 15085, "torpedo": 20254, "basketbal": 8767, "Moszk": 4992, "##vlies": 29504, "##supplement": 28849, "aller": 8404, "ondertitel": 16420, "socialisten": 19145, "bedrijfstak": 8841, "i": 30031, "79": 495, "##verstrekker": 29421, "variabele": 20741, "##steller": 28723, "Cees": 1684, "tournee": 20262, "geteld": 12493, "verfilming": 20979, "Power": 5721, "gootsteen": 12809, "overgang": 17095, "Hope": 3458, "VVD": 7197, "gepest": 12307, "2019": 400, "brievenbus": 9894, "gedaagd": 11935, "slimme": 19023, "Strij": 6715, "##buizen": 24500, "levendige": 14990, "1958": 336, "George": 2888, "sin": 18933, "##been": 24211, "fractie": 11720, "romantisch": 18394, "##jes": 26363, "muilezel": 15841, "\u00ab": 58, "##business": 24515, "armoedig": 8564, "Fur": 2779, "verbranding": 20898, "Barnard": 1070, "tref": 20334, "82": 500, "118": 188, "magische": 15299, "bonus": 9773, "##mura": 27233, "DOOR": 1999, "trapje": 20322, "FILM": 2549, "VN": 7184, "##leu": 26796, "##achtereenvolgend": 23815, "##sprocedure": 28642, "raakt": 17928, "inhoudelijke": 13737, "soja": 19160, "Howard": 3479, "gestoken": 12472, "##istiek": 26294, "reparatie": 18215, "##gaf": 25358, "gebrekkige": 11904, "gering": 12368, "ingetrokken": 13719, "Lazio": 4259, "tabloid": 19825, "gekozen": 12119, "Compagnie": 1874, "##ARA": 23191, "gedoe": 11975, "biefstuk": 9540, "##fascist": 25240, "Biblio": 1239, "Vergeet": 7294, "Eet": 2365, "##inckx": 26197, "Arsenal": 914, "zonne": 22835, "##mming": 27164, "Gino": 2959, "toppen": 20244, "tumor": 20412, "opvolgen": 16997, "\u00da": 30049, "abonnement": 8066, "Opvallend": 5382, "asielzoeker": 8594, "Kasteel": 3917, "creatief": 10416, "hink": 13302, "toetste": 20197, "##anjer": 23992, "##liberalism": 26820, "Slaap": 6478, "1903": 281, "Wend": 7580, "Tai": 6807, "geschreeuw": 12414, "##mix": 27157, "##mmer": 27162, "##z\u00e9": 29962, "Rum": 6129, "Terug": 6879, "na\u00efeve": 15974, "thuiskomen": 20070, "##71": 23127, "##leidster": 26764, "##vic": 29450, "##Bladzijde": 23231, "filmmaker": 11593, "Noem": 5219, "wegdek": 22308, "tegelijkertijd": 19896, "baantje": 8678, "Daems": 2014, "zijkant": 22776, "##partment": 27703, "Verder": 7284, "##hebben": 25887, "gebit": 11879, "vielen": 21639, "Ib": 3540, "Sanchez": 6220, "langzamer": 14855, "##layne": 26730, "jaszak": 13938, "##RE": 23606, "besmet": 9243, "Laten": 4241, "Shi": 6409, "overleg": 17133, "opleiding": 16909, "##park": 27696, "Minne": 4889, "elementaire": 11251, "verstikkend": 21384, "Spijker": 6594, "##b\u00e9": 24520, "ontoereikend": 16634, "##ira": 26260, "##pan": 27685, "##technisch": 28910, "##ksel": 26643, "No": 5213, "Laurent": 4251, "beginners": 8892, "##okken": 27422, "hedendaagse": 13116, "romantische": 18395, "verfomfaaid": 20980, "Gott": 3020, "##begeerte": 24216, "Kau": 3930, "bre": 9871, "indrukwekkend": 13674, "reizen": 18161, "##tiek": 28996, "darm": 10529, "##sverkiezingen": 28852, "Zomerspele": 7810, "Moer": 4924, "Vin": 7366, "##keuze": 26473, "##amo": 23962, "touw": 20265, "##shire": 28468, "Pacific": 5450, "werkgelegenheid": 22389, "##gebrand": 25406, "opgedeeld": 16851, "passen": 17313, "##issance": 26283, "Franz": 2737, "Stuur": 6729, "##paal": 27668, "Google": 3007, "##gedachtenis": 25415, "##middelen": 27130, "interviews": 13844, "analog": 8464, "##or": 27560, "Metropolitan": 4817, "geheel": 12057, "horizon": 13444, "##bewijs": 24318, "##cera": 24563, "spelletje": 19261, "Her": 3313, "##international": 26246, "Endemol": 2440, "AFP": 535, "krakers": 14613, "emotie": 11276, "fraaie": 11719, "invulling": 13880, "KFC": 3858, "recepten": 18030, "Dijksma": 2134, "arresteren": 8573, "schurken": 18818, "Kaart": 3869, "Ethiopisch": 2493, "zangeres": 22667, "hunner": 13519, "##euse": 25208, "##gekocht": 25475, "jongedame": 13964, "##ffel": 25259, "mummie": 15850, "##cle": 24647, "Fay": 2590, "verspeeld": 21356, "ander": 8471, "##RD": 23605, "##kerk": 26461, "VOOR": 7188, "tucht": 20403, "L\u00e9on": 4517, "##hoewel": 25956, "executie": 11430, "agressieve": 8367, "be\u00efnvloeden": 9527, "##ering": 25157, "samenhangend": 18530, "geboden": 11884, "po\u00ebtisch": 17653, "fossiel": 11701, "CNN": 1569, "##nder": 27268, "##knecht": 26550, "kei": 14161, "lead": 14882, "achterdochtig": 8108, "##ait": 23901, "##vest": 29442, "Louvi\u00e8re": 4462, "minuut": 15666, "gewonnen": 12610, "zeventienjarige": 22748, "crucial": 10439, "Dijk": 2133, "aanbieden": 7865, "pracht": 17661, "Persoonlijk": 5570, "profit": 17798, "marketing": 15379, "microscopisch": 15582, "eilanden": 11209, "##puzzel": 27960, "Tang": 6822, "Tamil": 6819, "Joeri": 3767, "##pp": 27875, "Kook": 4090, "ministerraad": 15655, "overwogen": 17191, "western": 22422, "##hil": 25938, "gedrag": 11985, "##DO": 23272, "Aar": 563, "zondagavond": 22823, "Sch": 6262, "collega": 10218, "Health": 3239, "gestraft": 12478, "##dok": 24900, "kraak": 14596, "1943": 321, "##alniet": 23941, "park": 17271, "rebellen": 18022, "wassen": 22251, "uitnodigend": 20577, "h": 30030, "verkiezen": 21081, "##TI": 23675, "balkon": 8712, "Colombia": 1849, "Serge": 6371, "fon": 11668, "bemand": 9080, "Welkom": 7573, "kastanjebruin": 14135, "##ientje": 26106, "Pan": 5476, "##productie": 27919, "##litz": 26898, "buffer": 9957, "menukaart": 15542, "Gillis": 2954, "opzettelijk": 17007, "toegesta": 20143, "voorbij": 21897, "overleggen": 17134, "fax": 11537, "Heaven": 3243, "versterkte": 21380, "##hartverscheurend": 25876, "Macedonisch": 4549, "relativeer": 18180, "voorspeld": 21947, "Catharina": 1673, "rijbaan": 18305, "volkomen": 21843, "Tull": 7091, "gebaa": 11858, "h\u00e9m": 13554, "skate": 18954, "##gehad": 25448, "gelovig": 12188, "##L": 99, "Glimlachend": 2978, "##dig": 24855, "##andi": 23976, "magneet": 15302, "weefsel": 22279, "##ardi": 24035, "Sw": 6765, "##ucky": 29173, "Jennifer": 3728, "##toezicht": 29047, "hetero": 13262, "##bellen": 24249, "Kirk": 4011, "Ah": 659, "Daarna": 2005, "Fernando": 2615, "sommige": 19178, "Che": 1731, "centralis": 10103, "ademen": 8179, "geopenbaard": 12289, "Dave": 2050, "verwoest": 21552, "##bouw": 24444, "rottend": 18434, "Klaar": 4017, "tulband": 20410, "Zaterdag": 7766, "Landkreis": 4223, "gevestigd": 12545, "##analyse": 23970, "##dos": 24921, "aantoonbaar": 8000, "Yan": 7720, "Zeker": 7778, "afzet": 8353, "manche": 15337, "stadion": 19391, "jongens": 13969, "plundering": 17553, "spiegel": 19271, "zelfgemaakt": 22707, "verlossen": 21166, "scheep": 18621, "consumeren": 10347, "Naties": 5090, "continent": 10356, "##overwogen": 27645, "major": 15314, "fans": 11509, "inter": 13817, "plastic": 17500, "schokte": 18721, "verzelfstandig": 21583, "##stedenbouwkundig": 28709, "opponent": 16943, "Train": 7037, "Bates": 1090, "work": 22593, "fier": 11571, "Bang": 1054, "Amerikanen": 763, "paarden": 17203, "gedetailleerd": 11961, "rampzalig": 17972, "afronden": 8300, "Londerzeel": 4439, "elegante": 11239, "tandvlinders": 19857, "geldig": 12144, "##slecht": 28520, "doven": 10923, "beschuldig": 9217, "##produkten": 27920, "Rolling": 6053, "Dream": 2243, "##zone": 29922, "ge\u00ebvacueerd": 12664, "gelegen": 12156, "kwestie": 14758, "##hor": 25985, "##gek": 25460, "donderdag": 10839, "cafetaria": 10041, "Akademie": 676, "##ice": 26054, "daaropvolgend": 10481, "spinazie": 19282, "##ander": 23974, "##praten": 27886, "krekel": 14632, "##oorlog": 27529, "Hermans": 3327, "verspreiden": 21363, "stippel": 19569, "Alonso": 732, "onweerstaanbaar": 16751, "##elingen": 25081, "jurylid": 14011, "Haver": 3227, "huurmoordenaar": 13531, "Ves": 7339, "##campagne": 24532, "Ida": 3545, "landgenoten": 14828, "Mondriaan": 4950, "##ulata": 29215, "##ontwikkeling": 27509, "Sav": 6253, "Chantal": 1721, "psychopa": 17872, "##vlekken": 29496, "FP": 2553, "tweede": 20434, "##staart": 28676, "afstandsbedien": 8326, "Abb": 572, "slap": 18986, "dansten": 10525, "##sprinkhanen": 28639, "expansie": 11436, "waaier": 22142, "sinterklaas": 18939, "zwangere": 22930, "bloedbad": 9664, "Derde": 2092, "brul": 9942, "Read": 5876, "hoofdpijn": 13393, "##dus": 24988, "##bogen": 24405, "Fried": 2755, "genageld": 12240, "prachtige": 17663, "Limburger": 4381, "buurland": 10023, "plaatsvond": 17477, "##ffe": 25258, "toonbeeld": 20235, "Oma": 5315, "bovengenoemde": 9838, "Jane": 3692, "voorbijganger": 21899, "tiende": 20080, "Islam": 3637, "knik": 14414, "##dri": 24946, "##ingenieur": 26211, "groezelig": 12921, "koffer": 14471, "bende": 9102, "Cal": 1586, "blootgelegd": 9694, "terugvind": 20028, "versloeg": 21349, "##bezetting": 24324, "##sol": 28570, "aanvankelijk": 8018, "TNT": 6796, "marginale": 15369, "Toby": 6984, "##ceo": 24558, "zestig": 22736, "##Vredenburg": 23738, "Galile": 2801, "##trein": 29095, "hollen": 13358, "1898": 274, "medio": 15449, "shuttle": 18909, "ondervinden": 16426, "Oostenrijker": 5366, "beeldvorming": 8864, "##erde": 25142, "drank": 10949, "f": 30028, "Alva": 743, "schipbreuk": 18707, "##ggi": 25708, "##leren": 26783, "bruggen": 9934, "##70": 23125, "Fal": 2566, "Bagdad": 1031, "Keuken": 3976, "Onbekend": 5325, "huilen": 13476, "Ensemble": 2460, "##UB": 23690, "##oefening": 27385, "Voil": 7420, "openbaar": 16819, "groeit": 12905, "##fysica": 25352, "inspecteerde": 13764, "##gescheept": 25579, "Royce": 6111, "Pagin": 5453, "discrete": 10749, "##95": 23150, "Hutu": 3501, "registreren": 18146, "##betaald": 24295, "##ij": 26148, "Alexis": 705, "reageer": 18008, "karakter": 14116, "vervagen": 21455, "##cir": 24627, "maatschappelijk": 15272, "##hieven": 25936, "##uns": 29241, "##foto": 25327, "##hebber": 25888, "gebruind": 11917, "gesignaleerd": 12424, "##dokter": 24902, "morele": 15804, "goals": 12771, "juf": 13991, "Pyramid": 5803, "Spel": 6584, "gehuil": 12078, "verkiezingen": 21083, "##lands": 26706, "vulde": 22118, "1914": 292, "\u00e1": 30053, "hals": 13014, "##ometer": 27445, "cyan": 10454, "oudste": 17063, "Racing": 5829, "##24": 23057, "Augustinus": 959, "Montalb": 4961, "##klauw": 26519, "achterhoede": 8115, "Fredrik": 2746, "Hoeven": 3397, "Peru": 5572, "spellen": 19260, "aanrecht": 7976, "Lente": 4304, "hervond": 13256, "##leverancier": 26807, "jongetje": 13973, "Hussein": 3499, "dankbaarheid": 10520, "Fau": 2588, "bedrogen": 8848, "container": 10351, "##banen": 24171, "vereffen": 20968, "smeris": 19084, "territoriale": 19995, "##schroeven": 28413, "beschikking": 9203, "Aldus": 694, "H": 35, "Volker": 7427, "Rhy": 5962, "restje": 18255, "sloot": 19036, "##granaten": 25777, "goot": 12808, "opleidingen": 16910, "Set": 6384, "schuilt": 18806, "getracht": 12503, "toelaat": 20156, "bevriend": 9417, "##voogd": 29554, "1858": 247, "Mauri": 4713, "criterium": 10434, "##illa": 26175, "Fortuyn": 2705, "boosaardig": 9789, "essentie": 11368, "huurlingen": 13530, "vooraleer": 21885, "kraam": 14598, "pleitte": 17521, "Indianen": 3576, "gebruiker": 11911, "##ontduiking": 27496, "Ble": 1291, "Vor": 7450, "straatje": 19636, "omzetgroei": 16296, "1934": 312, "rustige": 18493, "schijf": 18679, "beursnotering": 9365, "omringend": 16270, "sigaret": 18918, "vertolk": 21424, "##dar": 24796, "##ON": 23552, "Lucien": 4479, "weerklonk": 22297, "##communicatie": 24678, "##sluis": 28536, "files": 11588, "9000": 511, "##R": 104, "Pijn": 5623, "corrupt": 10391, "##WC": 23740, "beweren": 9445, "##boten": 24437, "##schip": 28377, "betaald": 9310, "remise": 18197, "##ura": 29245, "antwoorden": 8507, "moesten": 15741, "vliegtuig": 21740, "Bay": 1097, "Goeie": 2992, "##spi": 28606, "belediging": 9036, "ineenstorting": 13680, "nederlagen": 15979, "veegde": 20782, "zestien": 22733, "prat": 17672, "Petrov": 5585, "Oslo": 5408, "##kip": 26495, "Yi": 7730, "Mala": 4588, "Claudia": 1805, "beweegreden": 9438, "tip": 20115, "Bel": 1143, "gepleegd": 12314, "pr\u00e9": 17860, "pauze": 17340, "brutaliteit": 9947, "wezens": 22440, "##mmers": 27163, "##UR": 23703, "verlenging": 21141, "spontane": 19311, "##gebleven": 25394, "##avu": 24134, "verbieden": 20865, "beende": 8867, "Roemeni\u00eb": 6037, "##bakken": 24160, "Road": 6010, "Well": 7574, "##PC": 23575, "Wel": 7570, "##\u00da": 30005, "##levensgevaarlijk": 26805, "achterop": 8126, "bewuste": 9475, "wandelpad": 22220, "Coppens": 1916, "Dat": 2048, "charisma": 10118, "##slachtoffers": 28514, "Perfect": 5561, "preventief": 17711, "vaker": 20704, "##IES": 23406, "##kken": 26502, "strijdkracht": 19685, "Traditione": 7036, "nul": 16159, "voor": 21877, "InBev": 3571, "duister": 11049, "make": 15315, "##betuiging": 24301, "geen": 12005, "##RG": 23610, "moeten": 15744, "##res": 28110, "handschoenen": 13047, "uitspraak": 20594, "Webster": 7556, "##lijm": 26863, "kruiden": 14679, "##troepen": 29111, "kompa": 14503, "Mao": 4620, "##synthese": 28863, "overstromingen": 17161, "##otter": 27611, "hits": 13315, "bezwijk": 9521, "1837": 237, "##anhopig": 23988, "##mand": 27035, "Tab": 6803, "Trek": 7045, "##ri": 28133, "assisen": 8603, "zat": 22669, "flakkerend": 11626, "Toon": 7009, "psychisch": 17866, "buitenechtelijk": 9971, "##nspireerd": 27351, "##uki": 29211, "Melanie": 4772, "ontda": 16584, "filosoof": 11602, "basale": 8757, "##feld": 25250, "sollicitatie": 19171, "Acc": 593, "tapijt": 19864, "900": 510, "R\u00e9": 6154, "noodzakelijke": 16118, "komst": 14504, "##RON": 23621, "gram": 12840, "##geremd": 25566, "verdelen": 20920, "vertoon": 21429, "rijkswacht": 18320, "Culturel": 1972, "##reportage": 28108, "muren": 15854, "##.": 73, "hechtenis": 13110, "Kooi": 4089, "opkomen": 16903, "meemaken": 15468, "vol": 21822, "Nederlandsche": 5113, "Borsato": 1374, "Roeland": 6032, "##mij": 27135, "##industrieterrein": 26203, "##rill": 28175, "RTV": 5816, "afwisselend": 8351, "koffie": 14475, "zakken": 22658, "omgerekend": 16250, "##meldt": 27099, "generaal": 12252, "Jin": 3753, "kauwgom": 14151, "parochiekerk": 17285, "Putte": 5797, "autobiografisch": 8643, "##wervel": 29706, "actualiteit": 8168, "programmeren": 17807, "Job": 3758, "##noot": 27340, "Rams": 5850, "##pauze": 27717, "mosterd": 15818, "tuin": 20406, "flessen": 11639, "treurig": 20351, "enigszin": 11292, "##um": 29224, "Woensdag": 7679, "##verhoging": 29371, "heraanleg": 13190, "botste": 9821, "Millennium": 4876, "cacao": 10038, "##ava": 24126, "Edmund": 2348, "Rep": 5935, "##tjens": 29031, "legendarisch": 14918, "achteraan": 8101, "bespeur": 9254, "##ruimte": 28277, "wagon": 22203, "##34": 23079, "Link": 4393, "luier": 15222, "probeert": 17755, "vervoer": 21472, "winkel": 22500, "Sten": 6661, "Pools": 5697, "verbeterd": 20861, "schudden": 18799, "gelijkaardig": 12168, "##doet": 24899, "##emon": 25106, "Sjoerd": 6469, "St": 6615, "Achmea": 596, "boten": 9815, "##ita": 26297, "bejaarde": 8964, "kwartet": 14747, "onderschept": 16407, "klusjes": 14386, "##mogelijkheid": 27184, "Pok\u00e9mon": 5678, "print": 17740, "Freddy": 2743, "Welt": 7578, "kam": 14057, "##duizelingwekkend": 24981, "correspondent": 10387, "##otto": 27613, "##probleem": 27909, "concessie": 10296, "lezer": 15011, "##kovic": 26608, "lijm": 15084, "Commissaris": 1866, "gehoorzame": 12074, "##bewust": 24322, "Roermond": 6040, "spoed": 19301, "tenzij": 19977, "##well": 29685, "omhoog": 16261, "stoelen": 19572, "##ulisch": 29221, "wekenlang": 22334, "Celest": 1687, "Vijf": 7355, "lappen": 14861, "waterval": 22261, "geschil": 12402, "vochtig": 21778, "##stijging": 28748, "Hove": 3477, "toont": 20237, "##clausule": 24645, "##run": 28284, "Individu": 3581, "decennialang": 10551, "zelfverzekerd": 22716, "kersvers": 14206, "##poliep": 27845, "##maakte": 26996, "komiek": 14499, "uitgekiend": 20519, "afzien": 8356, "diffu": 10708, "meningen": 15525, "##gna": 25743, "linnen": 15112, "tred": 20331, "Gemeenten": 2865, "braaf": 9851, "Hezbollah": 3350, "Bruin": 1499, "not": 16140, "optillen": 16980, "Bethlehem": 1220, "##cap": 24535, "du": 11028, "ge": 11840, "##iller": 26179, "##geboren": 25400, "Tand": 6821, "For": 2693, "bol": 9745, "Ein": 2384, "doordringen": 10881, "oogen": 16770, "recentelijk": 18028, "zoals": 22796, "##lat": 26722, "##lijden": 26858, "##rance": 28013, "spirituele": 19293, "val": 20709, "##pina": 27779, "bedienden": 8816, "normaal": 16133, "##beet": 24214, "Pendergast": 5545, "##taire": 28877, "aangepast": 7906, "deelden": 10559, "gevaar": 12520, "slager": 18975, "##OD": 23540, "Alweer": 744, "Kennelijk": 3957, "resten": 18253, "doorsnee": 10897, "mokken": 15753, "waarom": 22177, "##vordering": 29568, "1891": 267, "Hutch": 3500, "minimum": 15651, "Pia": 5607, "gecompliceerd": 11924, "##ica": 26052, "Liesbeth": 4360, "Felipe": 2604, "Hamilton": 3177, "neuro": 16042, "36": 434, "Hampson": 3181, "witwasse": 22537, "##boekje": 24399, "##loc": 26919, "discussi\u00ebren": 10755, "break": 9872, "publiceren": 17881, "Series": 6376, "monoloog": 15776, "vormt": 22013, "##spion": 28611, "##struiken": 28821, "scherts": 18664, "Postma": 5714, "langere": 14845, "er": 11315, "overgeplaatst": 17103, "Tsjetsjeens": 7080, "##wijzer": 29743, "electronic": 11236, "opgevolgd": 16883, "##doelpunt": 24894, "Serena": 6370, "Cob": 1830, "ivoren": 13911, "##rium": 28195, "misdadiger": 15675, "##OE": 23541, "##wetenschappen": 29714, "courant": 10401, "herkennen": 13225, "puntje": 17895, "ru\u00efnes": 18501, "kankerpati\u00ebnt": 14082, "politicus": 17574, "scheidsrechter": 18631, "Rick": 5977, "koor": 14532, "On": 5322, "hi": 13272, "adviseur": 8207, "ouders": 17058, "wetenschap": 22426, "dissident": 10757, "##fried": 25339, "##schaar": 28324, "bot": 9813, "Ark": 896, "technici": 19887, "##steen": 28714, "Bahrein": 1035, "opgebeld": 16847, "kwispel": 14768, "aantallen": 7996, "nieuwste": 16072, "Hoogenband": 3446, "Factor": 2562, "ijver": 13597, "gunst": 12971, "##bijdrage": 24339, "##apparaat": 24019, "Monique": 4955, "drukker": 11020, "1911": 289, "graaf": 12826, "##LIJK": 23470, "0": 15, "kelder": 14168, "romans": 18392, "gaswinning": 11833, "ijsberg": 13592, "negeer": 16007, "##moment": 27191, "opgeven": 16880, "\u00f3": 30066, "geschikt": 12400, "##fusie": 25350, "lichtbruin": 15027, "##diensten": 24850, "##positie": 27866, "wapenrusting": 22236, "absurd": 8074, "Alain": 682, "##chu": 24607, "hit": 13313, "##getekend": 25626, "##waaien": 29615, "anno": 8489, "##stijl": 28750, "who": 22443, "Mongools": 4953, "Vandenbergh": 7231, "ramde": 17965, "##flat": 25293, "##KM": 23448, "Groenland": 3078, "##portefeuille": 27862, "Marle": 4662, "armzalig": 8565, "formateur": 11684, "##\u00ab": 139, "Bartholome": 1077, "schoongemaakt": 18737, "Richter": 5975, "Rail": 5838, "bombardement": 9753, "parkeergarage": 17274, "Koeman": 4059, "afgestemd": 8253, "Canades": 1612, "##gericht": 25568, "betaalt": 9312, "##OVV": 23571, "zitting": 22794, "##klasser": 26517, "ondernam": 16394, "verbazend": 20854, "linie": 15102, "onterecht": 16592, "schizofre": 18714, "Reginald": 5908, "##doelstelling": 24895, "onzer": 16763, "touwtjes": 20267, "vertrouwde": 21444, "Oak": 5269, "Gore": 3016, "zorgverzekeraar": 22864, "omgekeerde": 16248, "artistiek": 8586, "EK": 2312, "Kes": 3971, "loopbaan": 15174, "Meeuwen": 4756, "virtueel": 21691, "tussentijds": 20428, "woog": 22574, "##ML": 23494, "kernwapens": 14201, "##sloot": 28532, "headlines": 13104, "Thorn": 6923, "Stout": 6701, "##second": 28435, "potlood": 17647, "Fla": 2655, "oud": 17050, "drum": 11024, "##wille": 29748, "cartoon": 10073, "Kop": 4097, "##criticus": 24731, "doden": 10788, "verheven": 21038, "kille": 14251, "Isabel": 3634, "tal": 19842, "Parker": 5497, "hing": 13301, "middelpunt": 15594, "##OUD": 23567, "trucje": 20395, "uitgelegd": 20523, "Haastig": 3147, "meedogenloze": 15459, "Medvedev": 4751, "karren": 14124, "##rell": 28093, "reporter": 18223, "duikt": 11045, "kandidaten": 14078, "##diner": 24863, "Zoveel": 7823, "##i\u00ebn": 26336, "Vliet": 7402, "hooi": 13422, "noteerde": 16144, "bijna": 9558, "schepencollege": 18648, "Hop": 3457, "afscheids": 8305, "vervolgens": 21480, "Wonen": 7692, "hetzelfde": 13263, "##work": 29790, "Beijer": 1136, "##hoek": 25953, "reizigers": 18163, "wapenbezit": 22235, "promotie": 17820, "zeehonden": 22676, "uurtje": 20671, "enzovoort": 11308, "leegte": 14894, "brochure": 9899, "##schoenen": 28379, "##rine": 28179, "heilig": 13144, "1941": 319, "gepakt": 12299, "Mijnheer": 4862, "verveling": 21468, "##randeren": 28015, "Constantinopel": 1902, "Oxfam": 5433, "Roep": 6038, "gemeld": 12217, "strekking": 19671, "##recht": 28044, "beloning": 9069, "helikopter": 13170, "materialen": 15407, "Cardi": 1630, "Jay": 3714, "lichtjes": 15033, "ongrijpbaar": 16520, "##toon": 29057, "MAR": 4520, "steunpunt": 19523, "gestaag": 12458, "hier": 13277, "zieke": 22756, "sculptuur": 18833, "groeiend": 12904, "Roeselare": 6041, "vijfentwintig": 21661, "##lokalen": 26936, "BEL": 1001, "Gemeente": 2863, "prototype": 17844, "Guer": 3099, "Je": 3716, "Vall": 7219, "Rowan": 6107, "ziekenhuis": 22760, "initiatiefnemer": 13742, "klaarlichte": 14281, "doorbreken": 10876, "run": 18482, "AC": 528, "Donovan": 2210, "klank": 14291, "disc": 10744, "spongi": 19306, "harte": 13083, "##sleep": 28522, "##slikken": 28527, "geblokkeerd": 11883, "zomervakantie": 22819, "##mie": 27133, "##OUW": 23569, "gitarist": 12719, "antibiotica": 8499, "##wy": 29802, "##maak": 26994, "Molenaar": 4939, "imperium": 13631, "ongenad": 16492, "##trainer": 29077, "Adolf": 618, "Ju": 3821, "doorbraak": 10873, "verwachtte": 21503, "alvast": 8431, "##agent": 23881, "Thur": 6931, "mate": 15404, "afgebakend": 8228, "verminderen": 21189, "##97": 23152, "Draai": 2234, "stilte": 19559, "##ettafel": 25200, "luide": 15216, "Luxemburgse": 4505, "##duurd": 24991, "Gelechi": 2851, "##zeggen": 29860, "inktvis": 13748, "verwezen": 21533, "liefdadigheid": 15046, "ogenblikkelijk": 16221, "Ni": 5156, "voer": 21796, "##238": 23056, "langer": 14844, "moeilijkheden": 15732, "##azi": 24142, "Fiat": 2626, "reisde": 18159, "##groet": 25801, "hefboom": 13134, "hertogdom": 13251, "geregeerd": 12353, "waarvoor": 22190, "bivakke": 9610, "duidelijker": 11039, "Columbus": 1855, "Eric": 2475, "##pas": 27706, "paardenstaart": 17204, "pati\u00ebnt": 17330, "Lars": 4235, "beroep": 9169, "168": 219, "Bloom": 1307, "d\u00e9": 11106, "##gegeven": 25441, "Paradise": 5489, "##sport": 28624, "Stichting": 6682, "##thi": 28981, "Mueller": 5007, "##zoom": 29925, "overigen": 17122, "Cornwall": 1926, "Hoogst": 3451, "Elizabeth": 2412, "##cto": 24743, "USD": 7129, "##\u00e2": 30010, "verwijzing": 21545, "##verkeersleiding": 29375, "archeologie": 8542, "nutteloos": 16162, "lijsten": 15089, "vergoeding": 21017, "Arena": 881, "Sloveens": 6493, "achtereen": 8109, "##spreken": 28634, "gareel": 11821, "##not": 27344, "archief": 8545, "##itische": 26307, "##ver": 29337, "immigratie": 13624, "verrassen": 21274, "##i\u00e8re": 26333, "standbeeld": 19417, "14": 204, "VOLGEN": 7187, "geef": 12002, "onderhouden": 16383, "Berlijn": 1193, "##leider": 26761, "bron": 9920, "schoonzus": 18743, "verongelukt": 21233, "gendarme": 12241, "begroeting": 8913, "Steve": 6676, "##chneumon": 24596, "Pra": 5724, "Danton": 2041, "##maker": 27026, "rea": 18005, "kraampje": 14599, "lens": 14952, "Spice": 6589, "Vlaanderen": 7390, "Tor": 7012, "Rijn": 5994, "lidmaatschap": 15038, "vreugde": 22051, "Ang": 799, "Isabella": 3635, "Wald": 7513, "rapper": 17985, "##pha": 27755, "##succes": 28845, "##vijzel": 29464, "Nepal": 5132, "nouveau": 16152, "Bern": 1197, "Geometr": 2886, "schorpioen": 18751, "fakkel": 11496, "##persoon": 27745, "black": 9618, "##est": 25189, "overheid": 17116, "##gevonden": 25655, "##TA": 23665, "afwendde": 8342, "smoking": 19092, "##q": 129, "link": 15103, "boeven": 9738, "troepenmacht": 20370, "vragenlijst": 22033, "bevordering": 9413, "associatie": 8608, "seculiere": 18844, "grillig": 12889, "zogenoemd": 22812, "getergd": 12494, "bezuiniging": 9514, "##UT": 23706, "barok": 8747, "##VD": 23715, "Simpson": 6452, "sto\u00efcijns": 19627, "nauwelijks": 15966, "Invaller": 3614, "treffen": 20335, "vraagt": 22024, "Meneer": 4788, "melodie": 15509, "doorbroken": 10877, "ongeval": 16505, "Mund": 5015, "260": 417, "verklaren": 21089, "England": 2453, "ROTTERDAM": 5814, "Bureau": 1535, "bakker": 8702, "langdurige": 14841, "rotzak": 18435, "sluizen": 19054, "##xx": 29807, "Oostblok": 5361, "dictee": 10668, "ontkenning": 16615, "oogje": 16774, "##favoriet": 25242, "##mat": 27057, "verrassing": 21277, "##LP": 23478, "gestuit": 12485, "co\u00f6rdinator": 10407, "markie": 15380, "##versie": 29413, "Binnenlands": 1264, "Kunsten": 4163, "g\u00e9": 12978, "Bul": 1524, "onzichtbare": 16765, "##grijzen": 25793, "##opname": 27547, "rookte": 18419, "##FE": 23340, "##sleutel": 28525, "Achttien": 600, "machts": 15286, "Pro": 5750, "py": 17905, "hakken": 13004, "##krijg": 26629, "##terughoudendheid": 28962, "##batterij": 24185, "##melt": 27101, "aantrekkelijke": 8004, "ge\u00efnformeerd": 12676, "bereden": 9143, "arm": 8559, "zangvogel": 22668, "##EVEN": 23331, "##onotu": 27491, "##wend": 29687, "gedoofd": 11979, "##cru": 24736, "raapte": 17932, "Praag": 5725, "##schacht": 28326, "gelezen": 12163, "objectief": 16174, "spat": 19216, "##rom": 28232, "Toneel": 7003, "besparen": 9251, "##pack": 27672, "belangrijker": 9022, "wind": 22497, "kletterde": 14344, "Musk": 5027, "ongehuwd": 16474, "tegelijk": 19895, "animo": 8486, "##zaai": 29831, "Lachend": 4198, "Brazilianen": 1435, "...": 153, "##instructeur": 26240, "exploiteren": 11451, "Reclame": 5890, "alinea": 8393, "grondgebied": 12926, "##script": 28428, "##ch": 24570, "DOELPUNT": 1998, "Film": 2637, "baai": 8674, "verleiden": 21135, "##praat": 27883, "gelofte": 12179, "offensief": 16205, "benoemde": 9110, "##him": 25940, "tienduizend": 20081, "Tong": 7004, "##igan": 26135, "Zuider": 7828, "##weggetje": 29677, "Kiev": 3994, "tekenfilm": 19922, "ironie": 13894, "##geweest": 25665, "formuleren": 11692, "##name": 27258, "ontstaan": 16660, "venster": 20824, "S\u00e9": 6789, "##bod": 24393, "Hind": 3372, "Immigrati": 3567, "Och": 5276, "Un": 7144, "effectieve": 11181, "##wetten": 29718, "Davies": 2054, "grondstof": 12931, "stormen": 19619, "praktisch": 17670, "geboekt": 11886, "Rozen": 6112, "biedt": 9539, "wond": 22562, "graai": 12829, "##prent": 27891, "##voetballer": 29540, "trillen": 20358, "##nce": 27264, "##stel": 28720, "Bon": 1348, "Myanmar": 5035, "aanhanger": 7937, "##camera": 24530, "##BVV": 23228, "Cool": 1911, "Nino": 5206, "venijnig": 20822, "##gediend": 25420, "##cio": 24625, "##tten": 29132, "radicale": 17948, "dreiging": 10958, "##mbi": 27071, "reist": 18160, "##gekomen": 25476, "vervelende": 21467, "platina": 17507, "observeer": 16181, "##45": 23094, "engel": 11288, "Pyral": 5802, "Sap": 6236, "Theems": 6905, "Work": 7702, "ni\u00e9t": 16084, "overeenkomsten": 17090, "144": 207, "Advocaat": 626, "tweeslachtig": 20443, "##inia": 26219, "stijl": 19547, "religieus": 18187, "##cirkel": 24630, "onderwereld": 16431, "driftig": 10978, "strafbaar": 19638, "##hut": 26028, "##isteravond": 26293, "wandelen": 22217, "kunstwerken": 14720, "antenne": 8497, "wenkte": 22359, "##pongia": 27851, "Wervik": 7598, "eindejaars": 11213, "administratieve": 8189, "gu": 12963, "rotswand": 18433, "sketch": 18956, "##lodder": 26923, "stook": 19600, "sjiitisch": 18950, "Cris": 1955, "##HV": 23395, "##DD": 23259, "##BEEK": 23213, "##klap": 26512, "onge": 16461, "##pomp": 27849, "Duck": 2269, "hommage": 13361, "##kist": 26497, "##vall": 29298, "##land": 26702, "catalogus": 10080, "##manes": 27036, "versterkt": 21379, "slenter": 19003, "##bra": 24451, "Arbeid": 868, "trots": 20388, "vos": 22016, "totale": 20257, "sorr": 19190, "##eau": 24999, "Vrouw": 7473, "levenslust": 14997, "Hebreeuws": 3246, "kwellen": 14756, "terugwerkend": 20030, "iPod": 13560, "18": 229, "##dwalen": 24994, "##achtereenvolgens": 23816, "risico": 18335, "##problemen": 27911, "vierentwintig": 21644, "dachten": 10489, "Taxi": 6832, "##kking": 26505, "Verdi": 7285, "select": 18856, "beleggers": 9047, "valuta": 20720, "bouwt": 9830, "Booger": 1358, "flap": 11629, "reg": 18100, "fasci": 11519, "ontvangt": 16674, "verbinden": 20871, "voeren": 21798, "rugzak": 18456, "##ensis": 25124, "##pass": 27707, "##po": 27831, "Lambert": 4210, "sabbat": 18508, "##dijk": 24857, "Tiental": 6945, "kwelling": 14757, "##sapp": 28306, "Brakel": 1421, "betast": 9316, "##adel": 23836, "##portier": 27863, "ontspanning": 16657, "helderheid": 13163, "bunker": 10000, "Milieu": 4871, "afschrikwekkend": 8306, "have": 13095, "smartphone": 19069, "##rat": 28027, "##plekken": 27820, "##tekst": 28928, "EMAILADRES": 2313, "schoonmoeder": 18741, "ongeloof": 16480, "har": 13065, "Christopher": 1772, "gescheiden": 12393, "vodden": 21780, "blok": 9681, "beschikbaar": 9200, "##gekek": 25463, "##acher": 23811, "Cadfael": 1582, "geritsel": 12372, "##gas": 25372, "Bangladesh": 1056, "god": 12772, "Waterstaat": 7547, "toenemende": 20166, "Vakantie": 7209, "Davenport": 2051, "nationaal": 15947, "eraan": 11316, "verblijf": 20877, "hoofdperson": 13390, "##COM": 23245, "##phin": 27758, "hazen": 13101, "AG": 536, "##bed": 24198, "ri": 18288, "##MO": 23496, "Milaan": 4867, "2021": 402, "KB": 3856, "Picture": 5611, "drinken": 10988, "Saksen": 6198, "##terne": 28958, "Pink": 5629, "##telecommunicatie": 28930, "aanpassing": 7971, "asbak": 8590, "twist": 20458, "daalt": 10466, "bosbrand": 9808, "##syl": 28858, "moleculair": 15755, "MHz": 4524, "Poly": 5691, "selectie": 18858, "aangetroffen": 7921, "##g\u00e9": 25825, "##main": 27021, "verstopp": 21390, "kooplieden": 14528, "mand": 15338, "dialect": 10652, "Colomb": 1848, "##utter": 29268, "hereniging": 13203, "idioot": 13579, "##ski": 28503, "goedgekeurd": 12783, "schreeuw": 18770, "plo": 17531, "ruiken": 18460, "Addis": 612, "##zit": 29905, "kier": 14234, "general": 12253, "##tunica": 29144, "##co\u00f6rdinator": 24723, "Medewerker": 4747, "##maand": 27001, "Hubert": 3482, "VLD": 7183, "parasol": 17264, "zesentwintig": 22731, "Woedend": 7678, "Vervolg": 7332, "Leef": 4269, "##beeck": 24207, "toffe": 20212, "ritueel": 18344, "lig": 15071, "toelating": 20159, "verstek": 21375, "put": 17901, "##swijk": 28857, "Etienne": 2495, "poeder": 17560, "RC": 5810, "posities": 17632, "toeren": 20175, "130": 199, "wiskundige": 22523, "blondine": 9690, "##gehakt": 25449, "##wijlen": 29738, "bezorg": 9507, "echo": 11107, "spijker": 19276, "##beurzen": 24306, "wandel": 22214, "twintigtal": 20457, "uithangbord": 20560, "##overeenkomst": 27634, "fauna": 11532, "tweelingbroer": 20442, "vertrek": 21436, "##rait": 28002, "Weg": 7563, "tieners": 20083, "priv\u00e9leven": 17751, "gediscussieerd": 11972, "fabriek": 11479, "##ffen": 25260, "echtpaar": 11113, "##toneel": 29055, "wildcard": 22484, "##HEID": 23380, "##PD": 23577, "Swift": 6771, "respectievelijk": 18245, "sauna": 18558, "ontmoet": 16628, "##stukken": 28832, "strijk": 19687, "##party": 27705, "bonsde": 9770, "Kun": 4160, "Regen": 5902, "Som": 6541, "##KS": 23453, "##MER": 23490, "razendsnel": 18004, "gedeporteerd": 11959, "lesje": 14963, "##gestuwd": 25624, "liederen": 15042, "suiker": 19766, "liberaal": 15018, "##gekookt": 25477, "home": 13360, "##13": 22994, "lepel": 14955, "verdediging": 20916, "gevoetbald": 12561, "kiesdistrict": 14236, "Bui": 1520, "Laure": 4247, "avant": 8661, "draden": 10941, "##ontwerper": 27506, "geroosterd": 12378, "Onze": 5351, "Kohl": 4069, "VER": 7178, "geleefd": 12150, "proviand": 17845, "zwangerschap": 22931, "Veer": 7251, "specerijen": 19220, "directie": 10741, "##inck": 26196, "##visie": 29480, "festiviteit": 11567, "trillende": 20359, "##CG": 23237, "verbijsterd": 20868, "##gymnastiek": 25824, "behoeft": 8947, "Gucci": 3096, "plaatselijke": 17468, "zwemmen": 22945, "Log": 4425, "raaf": 17926, "##ECT": 23284, "furor": 11778, "##TPG": 23682, "##fre": 25335, "##meid": 27091, "##ore": 27565, "020": 159, "##knop": 26557, "bewoonster": 9472, "##ault": 24116, "veroorzaakt": 21244, "Diamant": 2113, "compenseer": 10263, "verdeeldheid": 20919, "achterste": 8130, "hardnekkig": 13071, "##draag": 24927, "##ion": 26250, "schepsel": 18651, "studeerkamer": 19721, "##OA": 23536, "##lik": 26869, "##mark": 27047, "ontmoedigd": 16626, "Kabul": 3873, "Schrijver": 6316, "Buma": 1529, "Grande": 3040, "##gens": 25537, "##ronde": 28238, "Zag": 7754, "arrogant": 8577, "uiteenzetting": 20495, "##ive": 26323, "##\u00f6l": 29997, "wegvallen": 22320, "Regina": 5907, "architectonisch": 8550, "##droom": 24962, "##SJ": 23643, "##toerisme": 29039, "diamanten": 10656, "bebouwing": 8790, "##gloss": 25741, "onderling": 16389, "raadslid": 17924, "afzonderlijk": 8359, "nonsens": 16107, "overtollig": 17164, "##gave": 25379, "veel": 20783, "##dah": 24783, "##consumptie": 24702, "Muur": 5032, "respons": 18246, "gediend": 11967, "##factor": 25234, "gestationeerd": 12464, "##spreek": 28630, "tevredenheid": 20041, "zeldzame": 22703, "##mma": 27158, "Philips": 5599, "Science": 6331, "tot": 20255, "Dmitri": 2169, "Reynolds": 5955, "bekeken": 8970, "##ovic": 27648, "##werpen": 29705, "##winkel": 29753, "Schoen": 6300, "eerstejaars": 11162, "divers": 10764, "##erden": 25143, "donkerblauw": 10844, "##rank": 28017, "Globe": 2981, "##span": 28585, "spel": 19254, "vastzitten": 20769, "vloeken": 21756, "meneer": 15514, "##vlek": 29495, "\u00f9": 30069, "##coureur": 24719, "po": 17556, "fijn": 11582, "verstijfd": 21382, "##tiful": 29001, "Land": 4218, "##kou": 26605, "overleefd": 17131, "tijdschrift": 20098, "dwaal": 11085, "waarschuwde": 22182, "##sta": 28670, "rokje": 18383, "##dag": 24780, "Oostendse": 5364, "Plein": 5661, "diertje": 10703, "boterhammen": 9818, "Ons": 5345, "Broer": 1482, "Huys": 3504, "achtbaan": 8097, "schuren": 18816, "speld": 19255, "##monster": 27195, "keukentafel": 14214, "##avo": 24132, "bezwe": 9518, "saaie": 18505, "uiterste": 20500, "verbonden": 20889, "Shell": 6406, "wand": 22213, "##zaag": 29830, "tegengestelde": 19902, "##amerika": 23958, "verdoezelen": 20935, "moordenaar": 15795, "intentie": 13816, "Anderson": 788, "Licht": 4348, "eigenschappen": 11203, "##jongeren": 26376, "115": 185, "Telefoon": 6853, "verkenners": 21077, "##de": 24804, "Bouw": 1400, "Walk": 7515, "ansichtkaart": 8496, "Lemmens": 4298, "##\u00e8": 141, "##aliseerd": 23930, "##48": 23098, "Kerkhof": 3965, "hoogsten": 13417, "Vrijheid": 7469, "afkick": 8278, "##athleen": 24090, "##standig": 28695, "Up": 7160, "##52": 23106, "##officier": 27397, "1969": 347, "Gloria": 2982, "digi": 10709, "valreep": 20715, "controle": 10367, "verhalen": 21030, "voltooiing": 21864, "##IJN": 23414, "##kwetsuur": 26666, "Jill": 3750, "Guus": 3119, "naderend": 15919, "##schik": 28370, "##ager": 23884, "vertaling": 21409, "##vandaan": 29303, "zorgt": 22863, "her": 13189, "au": 8625, "paarse": 17205, "wekken": 22335, "Madis": 4564, "huldig": 13504, "##bahn": 24158, "precieze": 17677, "navolging": 15971, "onderstrepen": 16417, "pittig": 17456, "Frey": 2753, "##ermate": 25163, "##nodig": 27334, "##beke": 24233, "Gerard": 2897, "oudheid": 17061, "plasma": 17498, "ingeburgerd": 13699, "begroting": 8915, "regen": 18115, "woon": 22575, "##olie": 27430, "lippen": 15115, "Vermeer": 7310, "##reg": 28063, "##TON": 23679, "Flex": 2665, "zilver": 22778, "balanceer": 8707, "slopen": 19038, "overheids": 17117, "auteursrecht": 8636, "duim": 11046, "presenteerde": 17694, "Stekene": 6657, "Dobb": 2172, "Brenda": 1446, "Berlare": 1192, "##hof": 25957, "##EE": 23287, "fal": 11497, "##missionair": 27154, "geordend": 12293, "geraamd": 12333, "ramen": 17966, "Herf": 3322, "vernederend": 21212, "##don": 24906, "beschilderd": 9206, "vermoeidheid": 21201, "vernieuwend": 21223, "Kroon": 4147, "##rechten": 28046, "logge": 15142, "stemmer": 19490, "marine": 15372, "Europe": 2507, "Tsja": 7075, "##yns": 29822, "ambitie": 8443, "Klinkhamer": 4037, "reportage": 18222, "##speelster": 28597, "pupil": 17896, "inheemse": 13734, "sec": 18835, "Pep": 5553, "versteend": 21374, "vervangt": 21462, "##rella": 28094, "##woordvoerder": 29787, "Berry": 1203, "verraderlijk": 21273, "Ridge": 5981, "Rib": 5966, "slavernij": 18992, "VK": 7182, "goal": 12770, "##lep": 26778, "Damascus": 2030, "John": 3775, "##administratie": 23844, "##psychiatrie": 27940, "##VL": 23725, "##looze": 26953, "Prinsengracht": 5744, "componist": 10279, "stopt": 19613, "natuur": 15957, "bijbel": 9548, "rassen": 17992, "schrikt": 18786, "##huis": 26016, "##ridder": 28152, "Duizend": 2287, "bovenstaande": 9843, "##dringt": 24953, "##stream": 28796, "no": 16085, "lekte": 14943, "land": 14818, "informele": 13691, "Amerika": 759, "regeert": 18104, "internaat": 13832, "democratische": 10602, "opgehaald": 16854, "Ierse": 3555, "##remont": 28099, "horloge": 13447, "installaties": 13775, "##markt": 27049, "##ala": 23918, "##muur": 27241, "Broek": 1481, "121": 192, "droger": 10998, "series": 18875, "steek": 19458, "woord": 22585, "##overdracht": 27633, "Lees": 4276, "generatie": 12254, "omgezet": 16254, "##urige": 29252, "ge\u00ebxperimenteer": 12667, "Tennis": 6866, "idyllisch": 13582, "##lli": 26912, "terstond": 20001, "Gelderland": 2848, "pomp": 17589, "schuifdeur": 18801, "##ARD": 23193, "begeer": 8882, "Square": 6612, "##pikken": 27774, "cognac": 10208, "portretten": 17627, "werkdruk": 22383, "Maigret": 4580, "nadenken": 15913, "strijders": 19684, "Geel": 2837, "letterkunde": 14970, "leiders": 14931, "vijfjarig": 21664, "horden": 13441, "Fra": 2714, "Stel": 6658, "##rezen": 28127, "Belfas": 1149, "wenken": 22358, "Air": 667, "doodschiet": 10857, "beteugel": 9324, "Brian": 1454, "mogelijke": 15747, "zakte": 22662, "Troost": 7060, "wenkbrauw": 22356, "Izegem": 3661, "Eta": 2490, "##hoff": 25958, "##onjour": 27486, "Ontwikkeling": 5348, "alleen": 8399, "Woods": 7695, "Gevangen": 2919, "vernieuwing": 21224, "belemmerd": 9055, "Noordelijke": 5230, "Standard": 6633, "sep": 18868, "##\u00e9\u00e9n": 29978, "buitenshuis": 9979, "##donker": 24910, "##liggende": 26854, "geschoten": 12411, "Kerk": 3964, "Luuk": 4502, "Mededinging": 4746, "achterwaarts": 8138, "gaarne": 11791, "werd": 22368, "\u00db": 30050, "Harald": 3198, "Len": 4299, "plaatje": 17464, "##AMC": 23178, "21": 404, "geleid": 12159, "individu": 13667, "koraal": 14556, "Zuid": 7826, "hoofdpunten": 13396, "Next": 5154, "langskomen": 14848, "voortdurende": 21965, "serre": 18878, "exemplaren": 11432, "troepen": 20369, "onherroepelijk": 16525, "lekken": 14940, "Melle": 4780, "adolescent": 8191, "deelnemers": 10567, "supermarktketen": 19780, "klaargemaakt": 14280, "##duct": 24972, "Haag": 3136, "antisemitisme": 8503, "##versiering": 29414, "##rijk": 28168, "##sterren": 28735, "lampen": 14813, "##zag": 29837, "mannelijk": 15351, "aannemelijk": 7964, "32": 427, "keuren": 14217, "woonkamer": 22579, "vernomen": 21226, "Manon": 4617, "toereikend": 20174, "##roman": 28233, "afgesloten": 8251, "##kla": 26506, "##waard": 29620, "Oregon": 5391, "Kant": 3896, "Gilles": 2952, "##trekken": 29097, "Azi\u00eb": 993, "eenduidig": 11131, "groeps": 12914, "paus": 17338, "Scheidsrechter": 6274, "##jury": 26390, "duisternis": 11050, "From": 2766, "aanslagen": 7981, "fatale": 11528, "ge\u00ebxporteerd": 12669, "klam": 14289, "nadruk": 15921, "##orno": 27581, "verwarmd": 21509, "Borst": 1375, "uitzag": 20631, "belabberd": 9011, "oprichting": 16952, "##llereerst": 26910, "voortreffelijk": 21972, "Boeken": 1327, "problemen": 17760, "synthesizer": 19808, "Contact": 1905, "##VSE": 23731, "##WA": 23739, "kleinkinderen": 14331, "Anton": 839, "blijken": 9648, "Detroit": 2101, "snel": 19111, "bevolkingsgroep": 9405, "##bes": 24270, "##chov": 24600, "8": 23, "KBC": 3857, "bedreigen": 8831, "besmettelijk": 9245, "glimp": 12747, "piloten": 17444, "vermissing": 21192, "##chauffeur": 24577, "Beker": 1141, "##anne": 23996, "protesteerde": 17839, "Beheer": 1132, "loodrecht": 15164, "afkorting": 8282, "zelfdoding": 22706, "Gouden": 3024, "coke": 10210, "voorbereiding": 21895, "Spar": 6573, "shock": 18901, "doelman": 10801, "##Hoofdstuk": 23396, "##EK": 23298, "##flakker": 25292, "##16": 22997, "luiken": 15224, "##lia": 26817, "stang": 19421, "geplaagd": 12309, "dagelijks": 10497, "##pia": 27765, "##opteryx": 27556, "##zanger": 29850, "##wereld": 29694, "Vereniging": 7291, "slaap": 18965, "##\u00e8ve": 29968, "po\u00ebzie": 17654, "zaterdag": 22670, "laaiend": 14775, "bolletjes": 9749, "##ago": 23890, "Beau": 1109, "Ohio": 5295, "achterlijk": 8122, "verwanten": 21505, "daarop": 10480, "opgestart": 16876, "zuidwestelijke": 22885, "##65": 23120, "##klassement": 26516, "##ostoma": 27600, "Mobile": 4913, "burgers": 10013, "##ieux": 26116, "Bully": 1528, "##jev": 26365, "konijn": 14510, "maakte": 15253, "Michiels": 4841, "Clarenc": 1800, "gerealiseerd": 12340, "dankbaar": 10519, "Zijlstra": 7797, "identificeer": 13573, "domineren": 10833, "verdieping": 20932, "##26": 23065, "##ifera": 26123, "arriveren": 8576, "toegewijd": 20147, "##am": 23948, "##neembaar": 27278, "gedeputeerde": 11960, "Marokkaans": 4668, "kerk": 14192, "Bruno": 1502, "vertel": 21413, "Aziatisch": 991, "overbodig": 17077, "bewaker": 9429, "##tisch": 29024, "Euloph": 2501, "kopen": 14539, "onwrikba": 16759, "Angel": 800, "Meli": 4776, "voetbalelftal": 21806, "sieraad": 18912, "bederven": 8812, "##etter": 25203, "FOTO": 2552, "##lepel": 26779, "halsband": 13015, "Kenia": 3952, "vak": 20697, "waarborgen": 22152, "overwinnen": 17186, "komkommer": 14502, "##anno": 23998, "Alstublief": 740, "management": 15334, "##hen": 25916, "vakblad": 20701, "Punt": 5793, "korting": 14570, "##rot": 28252, "##werd": 29693, "Iowa": 3618, "vesting": 21616, "knie": 14409, "Darfur": 2044, "ontevreden": 16593, "trachten": 20277, "##nomen": 27336, "##ieve": 26118, "Heinz": 3275, "##wandel": 29639, "doch": 10776, "uitsluiten": 20591, "behorend": 8956, "Herald": 3315, "aanzien": 8037, "bittere": 9609, "Eer": 2360, "aansteker": 7992, "vroege": 22088, "##prestatie": 27896, "rendabel": 18200, "gelukkig": 12193, "Mey": 4826, "Holocaust": 3418, "Vest": 7340, "doodmoe": 10853, "kleermaker": 14324, "kromme": 14665, "ondertekend": 16418, "onderzoekt": 16445, "##VI": 23723, "straalvinnige": 19633, "Spits": 6599, "##bestrijding": 24289, "bekoorlijk": 9001, "klimaat": 14357, "stok": 19584, "Carl": 1636, "Jonge": 3787, "irriteren": 13902, "blond": 9688, "uitstak": 20598, "daverend": 10536, "Tata": 6831, "Griekenland": 3063, "logeerde": 15139, "gewapende": 12580, "weken": 22333, "##ridge": 28153, "##tion": 29018, "platteland": 17510, "stoom": 19601, "Huizen": 3489, "pluis": 17548, "Axel": 986, "sneuvel": 19117, "Haha": 3158, "Falk": 2568, "stralen": 19649, "vegetari\u00ebr": 20802, "geleend": 12151, "invloed": 13875, "opdrachtgever": 16812, "oordelen": 16784, "fluister": 11650, "Monroe": 4957, "genade": 12237, "restauratie": 18252, "stommiteit": 19592, "##gekruld": 25479, "Zondag": 7811, "verstijfde": 21383, "bekentenis": 8979, "gehanteerd": 12053, "euroland": 11394, "zaterdagavond": 22671, "##gedrongen": 25426, "Command": 1861, "Knack": 4043, "Tam": 6817, "frustrerend": 11753, "Cyrus": 1986, "Close": 1823, "Saturni": 6248, "##cus": 24761, "grinnikend": 12895, "Reach": 5875, "##utte": 29267, "Hoge": 3401, "Bin": 1261, "Thi": 6911, "Brazili\u00eb": 1436, "doek": 10791, "gedwee": 12000, "Boss": 1381, "##product": 27917, "Herr": 3331, "verliezers": 21155, "##andra": 23979, "##platform": 27811, "woensdag": 22547, "regels": 18113, "##LIE": 23469, "Basel": 1079, "Gemeenschappen": 2862, "##offensief": 27395, "##vloot": 29516, "scheut": 18670, "Carolina": 1643, "Parijs": 5494, "zichtbaar": 22751, "##stukje": 28831, "##qu": 27962, "Bonn": 1355, "gesuggereerd": 12488, "Middelburg": 4850, "afgrond": 8268, "zin": 22781, "Sik": 6438, "enkel": 11293, "Heilige": 3271, "oogenblik": 16771, "gietijzer": 12695, "##OL": 23550, "Margriet": 4636, "getoetst": 12499, "gokke": 12793, "##brigade": 24473, "secret": 18838, "##discipline": 24875, "erfelijk": 11324, "pakken": 17218, "wanneer": 22229, "##nette": 27294, "##sberg": 28312, "##geleefd": 25488, "##afhankelijk": 23868, "overweldigd": 17184, "ton": 20223, "##d\u00e9": 24997, "keten": 14209, "Rein": 5916, "gezuiverd": 12653, "zwaargewicht": 22918, "arbitrage": 8538, "##ELE": 23302, "ondersteunen": 16414, "introduce": 13855, "sanitair": 18548, "evenwel": 11411, "Vai": 7207, "tijdrovend": 20097, "olympische": 16236, "Zaventem": 7767, "wolk": 22556, "Swan": 6767, "##agi": 23887, "##igne": 26142, "bekent": 8978, "groot": 12936, "versoepel": 21355, "Stok": 6691, "lekke": 14939, "##carri\u00e8re": 24539, "##wiens": 29728, "omvangrijk": 16286, "details": 10637, "offshore": 16215, "##tic": 28989, "Teun": 6890, "Lord": 4448, "vooruitzicht": 21982, "techniek": 19888, "##uka": 29209, "##schreef": 28399, "##dorf": 24917, "donor": 10849, "Math": 4696, "Cathy": 1675, "time": 20110, "pakketje": 17220, "Georgia": 2891, "laaide": 14774, "ongedierte": 16468, "##gaan": 25354, "##vlucht": 29517, "voorlopig": 21927, "##SK": 23644, "bou": 9824, "##gesteld": 25614, "tiener": 20082, "genuanceerd": 12281, "Willy": 7649, "chirurgie": 10140, "##looi": 26945, "Lausann": 4254, "renaissance": 18199, "Jessie": 3741, "##\u00fc": 30022, "knarste": 14402, "grens": 12867, "atmosfeer": 8620, "v\u00f3\u00f3r": 22137, "Gang": 2809, "##luchting": 26970, "##89": 23144, "weerzinwekkend": 22303, "kordaat": 14558, "grondwettelijk": 12935, "kledingstukken": 14318, "Gustav": 3116, "nostalgisch": 16139, "onaangekondigd": 16301, "bevolking": 9404, "##room": 28244, "meesterlijk": 15488, "bandleden": 8728, "Inwoners": 3617, "meegemaakt": 15464, "Francisco": 2722, "geweest": 12583, "extase": 11463, "graafschap": 12827, "##arbeid": 24027, "Peel": 5536, "Hek": 3277, "schok": 18718, "dof": 10813, "kristalle": 14657, "decreet": 10554, "2011": 392, "Gil": 2949, "hoofdklasse": 13388, "##kro": 26633, "irriteer": 13901, "Grey": 3059, "klon": 14372, "Lucy": 4480, "Boe": 1320, "branding": 9862, "##volle": 29549, "zuchtte": 22875, "dusdanig": 11071, "##uitgaven": 29201, "Diksmuide": 2140, "middenin": 15596, "Arch": 873, "Lombard": 4433, "nodige": 16091, "unieke": 20653, "heffen": 13135, "##friend": 25340, "ru\u00efne": 18500, "Pu": 5786, "Blo": 1297, "##scene": 28317, "Erg": 2473, "paviljoen": 17341, "##BI": 23218, "ontdekte": 16589, "passie": 17317, "##nnis": 27332, "##biedt": 24336, "##rttemberg": 28268, "##kreek": 26626, "doctor": 10780, "##ject": 26361, "betrouwbaar": 9351, "combineer": 10227, "##ster": 28733, "##lay": 26729, "##unt": 29242, "terughoudend": 20015, "balk": 8710, "##igoni": 26145, "verpleger": 21264, "volgend": 21833, "herdenk": 13196, "identificeren": 13574, "07": 165, "Zoek": 7806, "teams": 19886, "Thierry": 6913, "kin": 14256, "immense": 13620, "hangar": 13053, "##iseerde": 26274, "erfenis": 11325, "Pavel": 5531, "##serv": 28453, "##ipula": 26257, "atlete": 8617, "streng": 19675, "creativiteit": 10418, "rechtop": 18047, "digitaal": 10710, "Baz": 1100, "Ker": 3963, "and": 8470, "belegering": 9044, "kwart": 14745, "aanraakte": 7972, "stemt": 19495, "##naren": 27262, "##naar": 27250, "##itsch": 26311, "St\u00e9phan": 6731, "blanken": 9630, "werkloosheid": 22396, "##'": 68, "##afspraken": 23871, "##oijmans": 27410, "Robot": 6020, "loog": 15167, "Duitse": 2280, "##DER": 23263, "##pedi": 27722, "##terminal": 28956, "giechelde": 12691, "##lief": 26838, "ge\u00eberd": 12657, "kameraad": 14061, "lukt": 15234, "##vrucht": 29603, "Dutchbat": 2296, "dunne": 11061, "slapende": 18988, "Fun": 2777, "magisch": 15298, "##luister": 26974, "geslagen": 12430, "##proberen": 27908, "historisch": 13311, "Nedersaks": 5116, "insecten": 13761, "##geschakeld": 25578, "gebruikte": 11915, "ambt": 8447, "puinho": 17889, "landbouwproduct": 14821, "Meulenhof": 4820, "toenmalig": 20167, "ging": 12710, "glasvezel": 12730, "Amy": 775, "Bedank": 1116, "##par": 27692, "caf\u00e9s": 10043, "Agassi": 648, "##30": 23070, "Evert": 2527, "permanente": 17383, "##selier": 28448, "1894": 270, "Fabian": 2557, "Virgil": 7374, "stortte": 19622, "Franciscus": 2723, "versteld": 21376, "136": 202, "zich": 22750, "##\u00f1": 30016, "papa": 17242, "schulden": 18812, "##onne": 27487, "informatica": 13687, "christelijk": 10146, "##v": 134, "Agnes": 655, "rijd": 18307, "##oei": 27386, "Goes": 2993, "sleepte": 19001, "toetsen": 20194, "##reeks": 28060, "101": 172, "##zuchtig": 29933, "gearriveerd": 11853, "vergeef": 20992, "citeren": 10174, "vork": 22007, "Eredivisie": 2471, "##spelen": 28602, "Cran": 1948, "achtertuin": 8131, "geobsedeerd": 12283, "Crest": 1953, "Herb": 3316, "Maagd": 4531, "verteerd": 21411, "##staatssecretaris": 28679, "Groene": 3076, "Constant": 1900, "Zaandam": 7751, "waarvan": 22189, "##zeer": 29856, "allround": 8417, "Wallander": 7519, "Zanger": 7764, "##drink": 24954, "##pir": 27783, "zwierig": 22956, "##teams": 28904, "bezit": 9497, "gefotografeerd": 12025, "Gill": 2951, "bommenwerper": 9757, "uren": 20664, "doorgaans": 10885, "voetpad": 21815, "mits": 15702, "roll": 18386, "pas": 17303, "venture": 20831, "Atletic": 949, "speeksel": 19237, "pacht": 17207, "##J": 97, "schakel": 18589, "##oud": 27616, "##verkopen": 29381, "Opel": 5373, "goochel": 12801, "troost": 20382, "rap": 17984, "verweer": 21516, "##gemaaid": 25507, "Staatsbos": 6620, "microfoon": 15580, "sprake": 19335, "voorsprong": 21953, "Owen": 5432, "##ach": 23810, "onvermogen": 16724, "opnamen": 16929, "sla": 18959, "##lie": 26833, "mengde": 15517, "preek": 17681, "verlopen": 21163, "veroordeel": 21238, "Rijkaard": 5990, "Nairob": 5075, "Raymond": 5872, "boterham": 9817, "feestelijke": 11547, "jaag": 13913, "documentaire": 10782, "opgeroepen": 16868, "grof": 12922, "type": 20460, "worstelde": 22598, "Nog": 5220, "Zuidoost": 7830, "##iger": 26138, "zorgeloos": 22860, "##ains": 23897, "count": 10396, "##NMa": 23522, "staarde": 19375, "##sym": 28859, "##lijk": 26861, "moedig": 15728, "denktank": 10614, "##aleb": 23924, "boer": 9731, "##hove": 26005, "##,": 71, "Bla": 1278, "Moerdijk": 4925, "Theres": 6908, "Volk": 7426, "safe": 18513, "snelle": 19113, "##tan": 28887, "grie": 12874, "Voorlopig": 7444, "Haarlem": 3142, "slib": 19012, "worstelen": 22599, "spit": 19294, "##nick": 27310, "##kka": 26499, "##mini": 27142, "genetisch": 12258, "dialog": 10653, "##phi": 27757, "aarzel": 8056, "onvoorzien": 16744, "for": 11677, "Fowler": 2711, "beter": 9322, "Odysse": 5280, "euforisch": 11390, "eeuw": 11168, "eigenare": 11197, "##drijven": 24950, "Muziek": 5033, "wal": 22206, "vlakte": 21719, "topman": 20242, "millimeter": 15634, "verijdel": 21063, "Anthony": 832, "Stond": 6694, "gebruikmaken": 11913, "750": 491, "Birmingham": 1270, "uitzoek": 20640, "bariton": 8744, "##korting": 26601, "Ziggo": 7795, "auteurs": 8635, "##izz": 26332, "Ander": 782, "componeerde": 10276, "moderniseren": 15720, "training": 20297, "Aalst": 556, "nou": 16151, "##soort": 28578, "Alexandr": 703, "smaad": 19058, "vertrapt": 21435, "blaast": 9617, "fonkel": 11671, "##baarheid": 24150, "psychologische": 17870, "##koorts": 26591, "bestuur": 9299, "##blijfsvergunning": 24373, "##illus": 26183, "##mit": 27155, "conferentie": 10313, "elite": 11258, "intelligente": 13808, "droogte": 11006, "Melan": 4771, "gruwelijk": 12960, "verschijning": 21312, "Koninginnedag": 4083, "KLM": 3859, "heerste": 13130, "imperialis": 13630, "trainingen": 20298, "gaat": 11793, "menige": 15522, "##fer": 25253, "Octavi": 5279, "merkte": 15551, "##witte": 29764, "Russin": 6139, "party": 17302, "creat": 10414, "rechterkan": 18043, "ranzig": 17983, "Balk": 1043, "##\u00e1": 30009, "Ski": 6473, "contour": 10361, "Suk": 6740, "##kunde": 26648, "volken": 21841, "Campo": 1608, "tekent": 19925, "45": 447, "hatelijk": 13093, "##edric": 25014, "Mono": 4956, "bi": 9528, "wetsontwerp": 22433, "Winterspelen": 7665, "Chev": 1739, "##mission": 27153, "idee\u00ebn": 13570, "##middel": 27129, "vraaggesprek": 22023, "Burg": 1536, "CIA": 1568, "boeien": 9717, "fout": 11712, "n\u00e9t": 16167, "sol": 19163, "Kho": 3988, "Ferri": 2619, "##barsten": 24179, "voortvloei": 21975, "mono": 15775, "Hor": 3460, "mensenrechten": 15536, "ruimschoots": 18466, "judoka": 13990, "Angst": 808, "kampen": 14068, "geworteld": 12617, "##ares": 24038, "gelden": 12143, "##dook": 24912, "bemachtig": 9079, "##beschouwing": 24273, "Gerry": 2910, "method": 15566, "Sym": 6780, "vonnis": 21875, "##nstitutionele": 27353, "ongevraagd": 16509, "onderbreking": 16355, "Bloem": 1300, "bedreigend": 8832, "vazal": 20774, "j": 30032, "gebundeld": 11920, "onnodig": 16541, "samengesteld": 18525, "##LF": 23467, "begrijpelijk": 8902, "##herstel": 25920, "##demonstratie": 24820, "Heverlee": 3347, "adviseren": 8206, "##heen": 25893, "verhoog": 21045, "##iers": 26110, "##GE": 23356, "theatral": 20052, "weglopen": 22319, "werkgever": 22390, "relatie": 18175, "riva": 18348, "verlangd": 21123, "beschikken": 9202, "##mate": 27059, "##tri": 29105, "ingredi\u00ebnten": 13729, "moet": 15743, "verwijst": 21541, "Maan": 4535, "Nietzsche": 5174, "##mbri": 27074, "oefenwedstrijd": 16197, "##ILLE": 23418, "Versatel": 7323, "Ierland": 3554, "tribu": 20354, "boetes": 9736, "Ellen": 2417, "kanon": 14083, "telegram": 19944, "huivering": 13500, "manifest": 15344, "##verre": 29406, "##FOR": 23348, "let": 14965, "mannetje": 15354, "verpletterd": 21265, "280": 421, "Gullit": 3110, "95": 516, "volmaakte": 21855, "##gepoetst": 25547, "Fisher": 2651, "Part": 5502, "##1852": 23015, "Thuis": 6929, "blonde": 9689, "ruk": 18478, "Med": 4744, "wachten": 22193, "Laurens": 4250, "##tribune": 29107, "diepvries": 10694, "dominantie": 10830, "##kos": 26602, "##ATIE": 23201, "gedeelte": 11948, "Vaart": 7203, "binnen": 9580, "K\u00f6ln": 4181, "knieblessure": 14410, "afdoend": 8221, "opduiken": 16814, "Platform": 5652, "herdenking": 13197, "1902": 280, "pu": 17873, "suggereert": 19763, "ervan": 11360, "w": 56, "Blom": 1304, "dominee": 10831, "hooiwagen": 13423, "##rup": 28287, "##rev": 28123, "Saph": 6237, "##rud": 28270, "gedragen": 11986, "##echt": 25003, "kleindochter": 14327, "reinigen": 18156, "##sessie": 28455, "Citi": 1790, "Jerry": 3734, "H\u00e9": 3512, "##gedrag": 25423, "periodiek": 17379, "Spi": 6588, "crucia": 10438, "profileer": 17796, "verdragen": 20943, "ondoorzichtig": 16451, "Route": 6104, "bedachtzaam": 8794, "Boh": 1334, "ondeugend": 16447, "##MI": 23492, "Nederlandstalig": 5115, "##corporate": 24715, "##lastingverlaging": 26721, "co\u00f6rdineer": 10408, "##scher": 28357, "Congole": 1886, "##meren": 27109, "Vrijdag": 7467, "vertroebel": 21439, "Waver": 7550, "aangevuld": 7927, "boks": 9742, "zinnen": 22787, "noteren": 16146, "##selen": 28447, "wijde": 22461, "1992": 370, "soundtrack": 19195, "##reus": 28121, "Werkelijk": 7592, "Veertien": 7254, "Federal": 2593, "doelmatig": 10802, "gezwo": 12654, "gestort": 12476, "Avalon": 976, "wateroverlast": 22257, "##bewaking": 24313, "voldoen": 21826, "snuiven": 19134, "opende": 16823, "vast": 20751, "##drijver": 24951, "bladerde": 9621, "##auer": 24113, "Gran": 3037, "##zano": 29852, "beroemdste": 9168, "Permanent": 5564, "originele": 17040, "##segment": 28438, "aktetas": 8377, "verslapt": 21343, "damp": 10514, "220": 407, "##zen": 29870, "kan": 14073, "Unesco": 7146, "##WERK": 23741, "##ekt": 25056, "##ho": 25948, "Istanbul": 3646, "##rijden": 28164, "uitvallen": 20613, "gedumpt": 11997, "krappe": 14622, "spiritualiteit": 19291, "maatregelen": 15271, "17": 220, "preventie": 17710, "##29": 23069, "voorzitterschap": 21999, "##medi": 27082, "Bri": 1453, "##ren": 28100, "It": 3647, "Egypte": 2373, "Dubois": 2267, "modder": 15713, "Atlantische": 947, "onverminderd": 16723, "onzekerheid": 16762, "lak": 14808, "roemrucht": 18369, "wispelturig": 22524, "##profiel": 27925, "schaak": 18570, "Kern": 3967, "Rwanda": 6149, "Purmerend": 5795, "##imb": 26186, "Watch": 7544, "##kleeft": 26524, "Muller": 5012, "gehinderd": 12067, "aangetoond": 7920, "weerszijde": 22301, "ontroerend": 16643, "veroorloven": 21243, "##ovi": 27647, "ritme": 18341, "Fol": 2686, "Kreta": 4129, "Robben": 6013, "ruit": 18474, "kro": 14661, "##war": 29645, "wekker": 22336, "##naartoe": 27251, "Kad": 3874, "platen": 17504, "Cy": 1979, "##verbindingen": 29344, "Bleek": 1292, "Paradiso": 5490, "roest": 18377, "##moord": 27200, "Dode": 2179, "Proto": 5768, "wolf": 22555, "y": 30045, "allerlaatste": 8410, "energie": 11285, "Ho": 3387, "vermelding": 21179, "rivier": 18351, "##andeweg": 23975, "aquarium": 8529, "parten": 17288, "##bin": 24345, "heden": 13114, "##itz": 26318, "koe": 14450, "stuw": 19746, "nutteloze": 16163, "##wetswijziging": 29717, "overgebracht": 17099, "altijd": 8429, "walging": 22208, "strand": 19654, "polit": 17570, "fragiel": 11722, "Fiets": 2629, "##\u00f3m": 29990, "##ooi": 27519, "##sturingssysteem": 28836, "grauwe": 12859, "Kenmerkend": 3954, "Kleine": 4029, "Maatschappelijk": 4544, "bestuder": 9295, "Fu": 2771, "Macedoni\u00eb": 4550, "gevaarlijkst": 12524, "##gestuurd": 25623, "Latijns": 4244, "##lerlei": 26784, "index": 13661, "Euh": 2500, "##schaaf": 28322, "hindernis": 13298, "Cler": 1812, "astronaut": 8611, "solide": 19168, "duid": 11036, "##illon": 26182, "oortje": 16793, "Patroon": 5521, "Reeds": 5896, "Kalm": 3883, "Militaire": 4873, "NK": 5052, "interim": 13828, "Sluiter": 6500, "marge": 15367, "organisatie": 17026, "Weimar": 7566, "omver": 16291, "glas": 12729, "##vrijheid": 29598, "natuurgebied": 15959, "uitzicht": 20637, "##toppen": 29059, "viering": 21646, "aanwezigheid": 8031, "middernacht": 15602, "Shir": 6412, "moeilijker": 15731, "nerveu": 16025, "Lier": 4357, "Software": 6536, "ingestort": 13717, "##ista": 26289, "##atlee": 24100, "##grafisch": 25774, "Naast": 5067, "onthulde": 16607, "Spaar": 6567, "##bouillon": 24439, "verdwe": 20961, "toegangs": 20134, "constitu": 10338, "toekomstige": 20155, "Camb": 1598, "vraag": 22022, "berg": 9157, "##cut": 24762, "##richten": 28144, "nadeel": 15910, "##hield": 25934, "##front": 25344, "wolven": 22560, "rendier": 18204, "Total": 7022, "Verhulst": 7302, "Hoe": 3391, "primair": 17730, "stuitte": 19733, "vervangen": 21459, "##zamelen": 29846, "Jean": 3717, "misdrijf": 15677, "Prodi": 5756, "buit": 9966, "##werp": 29704, "goed": 12780, "leugens": 14975, "OOSTENDE": 5266, "IV": 3538, "zwaaide": 22907, "##oise": 27414, "##stelde": 28721, "##vaert": 29292, "##co\u00ebffici\u00ebnt": 24721, "##da": 24770, "knol": 14431, "werpen": 22412, "Mohammad": 4933, "schor": 18750, "karwei": 14129, "weekeinde": 22285, "college": 10219, "Nieuwe": 5176, "tikkel": 20104, "##charmeerd": 24576, "##iscus": 26272, "komt": 14505, "##stu": 28823, "radioactieve": 17952, "Santo": 6232, "##aco": 23823, "Jij": 3749, "Tik": 6953, "harder": 13068, "Kruishoutem": 4153, "aanvraag": 8024, "Carel": 1632, "fondsen": 11670, "##wekkend": 29682, "mocht": 15711, "wegens": 22310, "Business": 1546, "Gall": 2802, "verzadigd": 21567, "##geld": 25484, "\u00fb": 30071, "geneesmiddel": 12246, "schuifelde": 18802, "vermist": 21193, "aangeduid": 7890, "##maal": 26997, "sentimenteel": 18867, "##kampioenschap": 26411, "##tini": 29015, "sociaaldemocrat": 19140, "overgeleverd": 17101, "stilstaan": 19556, "diverse": 10765, "overstappen": 17157, "daarmee": 10476, "##vaar": 29284, "Ontvang": 5347, "radeloos": 17944, "tasten": 19874, "tuimelde": 20405, "deelneming": 10568, "##schema": 28350, "##PEN": 23581, "##DG": 23265, "chauffeurs": 10125, "huiskamer": 13491, "klassiekers": 14309, "##boy": 24449, "achteloos": 8098, "##VER": 23719, "Dyck": 2303, "vertaler": 21408, "Major": 4585, "##dieren": 24853, "boekte": 9728, "hang": 13052, "Mister": 4903, "gemaakt": 12198, "##pneu": 27830, "Ferguson": 2613, "##GA": 23352, "Schalken": 6269, "NEW": 5049, "Kron": 4146, "caravan": 10068, "ontfutsel": 16595, "terugkwam": 20023, "stak": 19400, "voeten": 21812, "Susanne": 6759, "reconstrue": 18066, "gevuld": 12570, "Kel": 3944, "##vermaak": 29394, "musical": 15859, "Sport": 6603, "Jupiler": 3844, "pinnen": 17448, "pic": 17416, "uitmaakte": 20573, "fungeerde": 11774, "##haar": 25834, "uitstekende": 20604, "patriottis": 17333, "Woord": 7698, "jezelf": 13948, "##nederlands": 27275, "Berger": 1183, "basis": 8761, "Channel": 1720, "espresso": 11366, "##lidae": 26832, "##schelp": 28349, "insider": 13762, "##\u00e9l": 29971, "75": 490, "peer": 17349, "##23": 23052, "##ili": 26170, "Hulst": 3492, "##schrijvers": 28409, "Econom": 2333, "##eschrokken": 25180, "##ologische": 27438, "geschiedenis": 12398, "Marijke": 4643, "\u00f3f": 22977, "##jack": 26346, "##mann": 27038, "Nacht": 5068, "parade": 17254, "betreuren": 9346, "##koel": 26564, "350": 432, "##technicu": 28907, "Gio": 2960, "educatieve": 11128, "rechtszaak": 18056, "##idu": 26092, "Celeb": 1686, "baadde": 8673, "berekenen": 9154, "Theodor": 6907, "democratisering": 10603, "regelt": 18114, "morgen": 15806, "##ex": 25218, "##groot": 25804, "heersend": 13127, "rein": 18155, "roofvogel": 18416, "vragen": 22031, "Meijer": 4764, "lijstje": 15090, "##rog": 28226, "Pietje": 5620, "Michelin": 4838, "afkeurend": 8276, "Achterhoek": 599, "Alfa": 706, "##kus": 26655, "##32": 23076, "Ternat": 6872, "##ips": 26256, "veracht": 20833, "Duinkerke": 2274, "explosieve": 11454, "toezicht": 20209, "##vlakte": 29491, "evident": 11414, "portret": 17626, "##levisieprogramma": 26811, "Corporation": 1927, "125": 194, "duurzaam": 11077, "rot": 18428, "##continent": 24705, "Studenten": 6722, "bestudeer": 9292, "Bennett": 1174, "erachter": 11317, "##ab": 23788, "politie": 17575, "Bolkestein": 1340, "vetera": 21618, "Stadsschouwburg": 6625, "##rial": 28135, "##spookt": 28619, "ambacht": 8438, "##way": 29657, "vanuit": 20736, "behels": 8940, "beiden": 8963, "She": 6403, "##spaar": 28583, "aparte": 8509, "dame": 10511, "demonstraties": 10606, "##pat": 27708, "financi": 11608, "##dou": 24923, "mooiste": 15791, "##nagel": 27255, "instituten": 13785, "Conference": 1884, "Cross": 1959, "neiging": 16018, "zo": 22795, "##road": 28211, "PvdA": 5799, "kleverig": 14351, "spoken": 19305, "Kaapstad": 3868, "dementerende": 10597, "##cor": 24711, "eruitzag": 11358, "meningsverschil": 15527, "##hond": 25970, "knipperde": 14423, "##asse": 24073, "Landen": 4221, "doorkruist": 10890, "nagel": 15924, "Dominicaans": 2198, "Hagenaar": 3157, "1814": 232, "##te": 28902, "ongemakkelijk": 16489, "trekken": 20344, "Fontaine": 2690, "zaakwaarnemer": 22639, "pijnstiller": 17433, "Masa": 4686, "##verslag": 29415, "##1825": 23005, "stom": 19590, "goedkoop": 12787, "lomp": 15154, "cruise": 10440, "Kuij": 4156, "##savel": 28310, "beat": 8784, "##geplakt": 25544, "175": 223, "ballingschap": 8717, "diamant": 10655, "KPM": 3861, "voelde": 21793, "##dronken": 24960, "##kweker": 26663, "terugdring": 20007, "##sse": 28657, "Speed": 6580, "##trakteerd": 29080, "noordwestelijke": 16129, "veerkracht": 20794, "##EV": 23330, "uitleg": 20569, "Weer": 7559, "##poppen": 27856, "eenvoudige": 11144, "materieel": 15409, "bedeesd": 8800, "oefende": 16192, "spurt": 19364, "onderneming": 16398, "Luther": 4501, "Alice": 714, "consequentie": 10325, "pop": 17604, "ontzegd": 16705, "vergezellen": 21009, "rav": 18000, "schreeuwde": 18771, "visserij": 21702, "weergegeven": 22293, "bekwaam": 9007, "Heleen": 3282, "##endael": 25113, "prestaties": 17698, "brokstuk": 9915, "##SML": 23648, "Chester": 1738, "Jager": 3680, "Herschel": 3333, "past": 17320, "Londen": 4437, "lam": 14811, "statuut": 19449, "##spreidingsgebied": 28633, "naoorlogs": 15940, "##spray": 28629, "##zia": 29882, "##centrum": 24557, "Fen": 2608, "brein": 9883, "variatie": 20743, "##poot": 27854, "nabij": 15897, "gegraveerd": 12038, "stand": 19415, "vrijdagavond": 22068, "prostitutie": 17834, "overdracht": 17084, "##bewoners": 24321, "stabiel": 19385, "grill": 12888, "Koppel": 4099, "mentale": 15538, "Immers": 3566, "Sjo": 6468, "Ach": 594, "##persoonlijk": 27746, "brulde": 9943, "Utrecht": 7167, "Brits": 1471, "desbetreffend": 10627, "genre": 12280, "bommen": 9756, "Krijg": 4131, "muggensoort": 15839, "##con": 24686, "bries": 9892, "##cca": 24546, "Aarschot": 568, "##abri": 23800, "##slapeloze": 28517, "##bezorger": 24330, "##mail": 27020, "advertenties": 8200, "toespraak": 20184, "VII": 7181, "voetbalstadion": 21810, "schade": 18584, "knop": 14435, "projectie": 17813, "solidair": 19166, "stempel": 19493, "vakbond": 20702, "verschijnt": 21315, "##metje": 27121, "verdomme": 20937, "cilindrisch": 10160, "##jouw": 26380, "##oot": 27531, "Martijn": 4677, "##cia": 24614, "##manoeuvre": 27041, "hersen": 13241, "##gaande": 25355, "##presentatie": 27892, "knal": 14396, "degradeerde": 10585, "draai": 10936, "vliesvleugelig": 21743, "##mmy": 27165, "Geduld": 2834, "1871": 252, "ATP": 549, "beheren": 8942, "spelregels": 19265, "S": 45, "missionaris": 15693, "smeren": 19081, "staren": 19432, "nuttige": 16165, "##jurk": 26389, "recensie": 18025, "neig": 16017, "ze": 22674, "ongepast": 16496, "prestatie": 17697, "Cab": 1579, "Bilbao": 1253, "NASA": 5043, "publiciteit": 17883, "letsel": 14966, "##protesteerd": 27934, "Europeaan": 2508, "##kreeft": 26624, "gekruist": 12127, "trollen": 20375, "dwing": 11100, "Nieuwsblad": 5183, "vervolgde": 21478, "overlevering": 17137, "uiterlijk": 20498, "##dankbare": 24793, "Hongaars": 3434, "Sri": 6614, "##DM": 23270, "engagement": 11287, "##VT": 23732, "Indi\u00eb": 3582, "Dir": 2151, "deur": 10642, "hulpverlener": 13510, "##stroming": 28813, "Hirsch": 3377, "afgelegd": 8239, "Khan": 3986, "tijdelijk": 20089, "##gever": 25645, "bulderend": 9991, "##kijk": 26481, "re\u00eble": 18286, "Leeuwen": 4279, "laptop": 14862, "repertoire": 18217, "##adelijk": 23837, "zaal": 22640, "bedden": 8799, "##gelijk": 25497, "gesmokkeld": 12437, "slapen": 18987, "Duisburg": 2275, "##breuk": 24469, "Dank": 2039, "afgestudeerd": 8254, "plekke": 17524, "steriel": 19505, "deed": 10556, "VAST": 7176, "##IP": 23430, "##daags": 24772, "twijfels": 20453, "neergestoken": 15991, "gerichte": 12366, "Advies": 625, "uitkeringen": 20562, "Middag": 4848, "Apeldoorn": 849, "Joel": 3765, "huwelijk": 13535, "mei": 15496, "thriller": 20067, "sorteren": 19191, "##leuning": 26799, "laffe": 14802, "vizier": 21712, "nauwgezet": 15967, "ginds": 12709, "brandstof": 9865, "grootte": 12949, "verstandig": 21372, "koplamp": 14546, "Family": 2572, "woonwijk": 22584, "prullenbak": 17858, "warrig": 22249, "Julia": 3830, "vaccin": 20688, "Waarme": 7497, "communicatie": 10250, "##kasteel": 26438, "bleke": 9637, "gedwongen": 12001, "Onno": 5344, "lasten": 14866, "piekeren": 17420, "film": 11591, "Rwande": 6150, "veroordeeld": 21239, "##ctus": 24746, "verzamelde": 21570, "##iel": 26099, "reik": 18151, "radioprogramma": 17953, "Poperinge": 5701, "##rechter": 28048, "hop": 13435, "Schultz": 6321, "5000": 457, "adembenemend": 8177, "bonen": 9766, "##sluiten": 28538, "penetr": 17358, "beleids": 9052, "##20": 23034, "voetbalveld": 21811, "aangrijpend": 7935, "##partner": 27704, "Hou": 3470, "drijfve": 10981, "##for": 25314, "broei": 9904, "station": 19440, "gehoorzaamde": 12073, "ruiter": 18476, "Sybil": 6774, "##diep": 24851, "##onge\u00efnteresseerd": 27476, "steviger": 19528, "discrimineren": 10752, "##deren": 24828, "toegang": 20133, "km": 14389, "netwerk": 16037, "psychologie": 17868, "##heten": 25927, "##issen": 26286, "concrete": 10304, "dodelijke": 10787, "woeste": 22551, "Joann": 3757, "##TABEL": 23666, "##remans": 28096, "Gianni": 2939, "Schubert": 6320, "##uc": 29167, "##ongeluk": 27474, "essenti\u00eble": 11370, "ontdoe": 16590, "Vrije": 7468, "verminderde": 21188, "eredivisie": 11322, "ondertoon": 16421, "##fokker": 25305, "##kleden": 26521, "deugd": 10639, "Veldhoven": 7264, "gemiddeld": 12223, "Daar": 2003, "##dock": 24889, "##igheid": 26140, "bruikbaar": 9938, "problematiek": 17758, "##OZ": 23573, "gedecideerd": 11945, "Kluivert": 4042, "##liss": 26892, "kopers": 14542, "pastorie": 17324, "Jonker": 3790, "hoe": 13324, "Zwijg": 7853, "##kur": 26654, "##uitbreiding": 29199, "Greve": 3058, "Wetteren": 7614, "##inkel": 26223, "medewerkers": 15441, "professioneel": 17789, "oppositiepartij": 16948, "##AMP": 23179, "neder": 15976, "surf": 19784, "##pitten": 27788, "coureurs": 10403, "Alzheimer": 745, "Commun": 1869, "Celtic": 1691, "##glas": 25730, "expeditie": 11437, "theologie": 20056, "Genua": 2882, "##coalitiepartijen": 24656, "Dublin": 2266, "Architect": 876, "onroerend": 16560, "Sal": 6200, "Roda": 6025, "aannam": 7963, "Chen": 1735, "Ry": 6151, "tilde": 20107, "##hoofdcommissaris": 25978, "Hooijdonk": 3453, "schuldenlast": 18813, "##borough": 24429, "American": 758, "##huwelijk": 26030, "Knight": 4047, "redden": 18075, "toevertrouwd": 20201, "##tropisch": 29119, "##ub": 29165, "intimidatie": 13847, "##ogen": 27400, "ijsje": 13594, "Rich": 5971, "Stem": 6660, "##schreeuw": 28400, "valse": 20717, "dikwijls": 10720, "gelukt": 12195, "kapsel": 14113, "##pac": 27671, "Nouvelle": 5251, "1893": 269, "##avi": 24129, "christelijke": 10147, "Myrm": 5037, "Pati\u00ebnten": 5515, "off": 16204, "Heerlen": 3258, "geuren": 12519, "##jak": 26351, "herenhui": 13201, "begint": 8894, "##OT": 23565, "Niets": 5173, "blessure": 9639, "draait": 10939, "overpeinzing": 17149, "sappig": 18550, "geometri": 12286, "ontspande": 16655, "hoeveel": 13339, "opstijgen": 16976, "Bour": 1391, "Tak": 6809, "##bollen": 24408, "lusteloos": 15240, "##hurst": 26027, "Verb": 7279, "Seng": 6362, "bisschoppen": 9606, "perfectie": 17376, "schreeuwend": 18773, "liet": 15062, "65": 476, "Kha": 3983, "onderbrak": 16353, "hengst": 13187, "##pistolen": 27785, "Sterre": 6671, "uitvoeren": 20621, "glimlach": 12740, "Kazachstan": 3935, "noodsituatie": 16113, "fel": 11555, "uitmaken": 20574, "Mu": 5006, "ID": 3516, "Final": 2639, "Stekel": 6656, "hallo": 13013, "##214": 23044, "##plaatje": 27794, "beschrijving": 9216, "Glad": 2972, "##uitzending": 29206, "absoluut": 8071, "spaargeld": 19203, "Hat": 3219, "staal": 19371, "##zinnig": 29903, "vrolijke": 22093, "A": 28, "gedocumenteerd": 11974, "poets": 17563, "spelers": 19258, "Ne": 5104, "keken": 14167, "##ATE": 23200, "##AR": 23190, "woeker": 22545, "##lle": 26905, "Achilles": 595, "weet": 22306, "##oliemaatschappij": 27431, "##gebracht": 25405, "Overijssel": 5429, "manipulatie": 15347, "bejegen": 8966, "##boog": 24417, "Meri": 4801, "grappige": 12851, "##rey": 28125, "topschutter": 20247, "ruimtestation": 18471, "Gene": 2870, "Play": 5655, "noodzakelijk": 16117, "liefdes": 15048, "##stick": 28741, "Eddie": 2340, "sabel": 18509, "Gian": 2938, "##golven": 25754, "Katholieke": 3924, "Noor": 5228, "porno": 17618, "krijt": 14652, "TMF": 6794, "##where": 29721, "Golfoorlog": 3002, "lippenstift": 15116, "##tijds": 29006, "Engelsch": 2448, "Ariel": 891, "koord": 14533, "Modder": 4917, "favorieten": 11536, "omstandigheden": 16280, "Legend": 4283, "Iris": 3627, "Sinds": 6455, "droeg": 10994, "likte": 15095, "onverwacht": 16731, "##T5": 23664, "Gew": 2921, "##aandelen": 23769, "##gem": 25506, "##gewisseld": 25674, "##journalistiek": 26379, "gedood": 11978, "voorspellen": 21949, "##organisator": 27572, "besturing": 9298, "uitstel": 20605, "binnenplaats": 9590, "##wijl": 29737, "##check": 24579, "##ificeren": 26129, "##sputter": 28651, "Heef": 3252, "Rangers": 5857, "omzoomd": 16299, "looptijd": 15178, "##groep": 25799, "Cliff": 1817, "Antho": 831, "Scheffer": 6272, "pret": 17704, "vo": 21775, "stranden": 19656, "vergetelheid": 21004, "overeenkomstig": 17091, "##bb": 24190, "leerkrachten": 14901, "canvas": 10059, "gegaan": 12028, "geruchtmakend": 12381, "regeerde": 18102, "##ky": 26668, "deadline": 10538, "##stage": 28684, "wan": 22212, "ontwapenen": 16686, "##lengte": 26775, "Watson": 7548, "BE": 999, "kathedraal": 14143, "##gezegd": 25686, "##champ": 24572, "Britten": 1475, "##erende": 25148, "vouw": 22019, "Heer": 3256, "akoestisch": 8376, "voorbereid": 21893, "Montgomery": 4964, "##RIJS": 23615, "delicate": 10595, "vrijdag": 22067, "##tro": 29110, "achttien": 8145, "familielid": 11503, "##GD": 23355, "Hit": 3382, "Normandi\u00eb": 5244, "duizel": 11054, "verticale": 21421, "Eerst": 2363, "stelsel": 19483, "##brengt": 24468, "##tai": 28874, "ideologie": 13576, "kwal": 14736, "by": 10031, "##epidemie": 25136, "herdacht": 13195, "nat": 15945, "fort": 11697, "##werk": 29696, "opbouw": 16805, "Taliba": 6814, "Tr": 7032, "Petit": 5581, "onmiddellijk": 16535, "Laatst": 4192, "puberteit": 17876, "geluk": 12192, "Spelers": 6586, "##goten": 25761,
[...]
