{"Plein": 5661, "Tony": 7007, "Arne": 907, "kust": 14726, "##life": 26848, "plaatste": 17473, "Inge": 3593, "##log": 26928, "irrelevant": 13898, "lijsten": 15089, "geleefd": 12150, "joeg": 13958, "##ost": 27599, "Carrefour": 1647, "Bettin": 1222, "##heffing": 25898, "vaardigheden": 20680, "##vleugel": 29497, "Slobodan": 6491, "Tim": 6959, "gedraaid": 11984, "onderweg": 16430, "##FK": 23343, "Overijssel": 5429, "kater": 14142, "##ian": 26039, "bariton": 8744, "losmaakte": 15190, "advies": 8201, "meningsuiting": 15526, "##witte": 29764, "erbarmelijk": 11319, "aangelegd": 7898, "uitvoer": 20619, "profeten": 17792, "##wel": 29683, "telefoons": 19941, "##vriendelijke": 29593, "onderdrukte": 16365, "Annelies": 823, "Playboy": 5657, "afgebakend": 8228, "Jason": 3710, "##vriendelijk": 29592, "##bleef": 24368, "##recht": 28044, "##vle": 29493, "vrijetijds": 22071, "Photo": 5604, "Vera": 7278, "terreurgroep": 19994, "##it\u00e9": 26319, "##organisaties": 27571, "##vezels": 29447, "Calvin": 1595, "voorbij": 21897, "##tories": 29062, "blootstelling": 9696, "retro": 18266, "##enswaardige": 25126, "Ceulemans": 1706, "##kkie": 26504, "Tirol": 6972, "Black": 1279, "Massa": 4689, "knikte": 14419, "mosterd": 15818, "Zandvoort": 7763, "vind": 21674, "##MW": 23503, "##tie": 28994, "eigendom": 11199, "jarig": 13934, "##OUD": 23567, "beginners": 8892, "##track": 29072, "Lionel": 4398, "ram": 17963, "brok": 9912, "vernuft": 21227, "##HH": 23382, "onver": 16713, "kralen": 14614, "vermoord": 21207, "glimlach": 12740, "vampier": 20721, "##logie": 26932, "vleermuizen": 21724, "Mut": 5031, "promotie": 17820, "gedisciplineerd": 11970, "trappelen": 20323, "planken": 17490, "vermissing": 21192, "bre": 9871, "##513": 23105, "##ziel": 29890, "praten": 17673, "##31": 23073, "Up": 7160, "Hol": 3405, "ontmoedigd": 16626, "##mix": 27157, "##VP": 23728, "Fund": 2778, "##buurt": 24518, "##ijden": 26150, "##maeker": 27013, "Rupel": 6132, "Metcalfe": 4815, "utopi": 20669, "boodschapper": 9779, "##rollen": 28230, "diplomatieke": 10737, "Stout": 6701, "##stroom": 28816, "ongedeerd": 16467, "Boys": 1409, "Ankara": 816, "Cooper": 1912, "ambt": 8447, "erin": 11336, "regime": 18134, "Milieu": 4871, "Beuk": 1225, "weergave": 22292, "vertoonde": 21431, "prullenbak": 17858, "aangetast": 7919, "gereserveerd": 12362, "winnen": 22511, "Vandereycken": 7234, "##co\u00f6rdinator": 24723, "forensisch": 11680, "No": 5213, "ligt": 15075, "Ra": 5819, "motor": 15827, "betrokken": 9349, "Mueller": 5007, "ontploffen": 16635, "lijnen": 15086, "##wolf": 29770, "Derek": 2093, "##OORD": 23560, "breken": 9884, "##ken": 26451, "werkten": 22405, "##moeilijk": 27180, "##spinnen": 28610, "Zwevegem": 7851, "rap": 17984, "ambachtelijk": 8439, "waarin": 22167, "Eeuw": 2366, "lening": 14951, "spookachtig": 19314, "##gegroeid": 25446, "##voedingsmiddelen": 29525, "beroemd": 9166, "lovend": 15199, "gal": 11798, "Foundation": 2709, "turf": 20419, "Studio": 6724, "##hab": 25837, "##mmel": 27160, "deelgemeente": 10560, "##anga": 23985, "##molen": 27190, "verlangd": 21123, "cannabis": 10057, "communistisch": 10257, "electronic": 11236, "hindernissen": 13299, "spreek": 19338, "##SO": 23650, "beschilderd": 9206, "Glasgow": 2974, "Reuben": 5944, "##signaal": 28477, "muzikaal": 15868, "##NMI": 23521, "gem": 12197, "##dans": 24794, "Hill": 3366, "boek": 9719, "tribu": 20354, "exemplaar": 11431, "nutteloze": 16163, "aangespoord": 7915, "struikel": 19716, "naderde": 15916, "schaamte": 18574, "zin": 22781, "##vinger": 29474, "meid": 15497, "ster": 19499, "##sion": 28489, "##ermann": 25162, "Duncan": 2291, "##alisatie": 23929, "zeventienjarige": 22748, "A": 28, "impasse": 13629, "prikkelend": 17726, "rijbewijs": 18306, "##kwetsuur": 26666, "obligatie": 16177, "Ethiopisch": 2493, "##DEN": 23262, "1910": 288, "##hora": 25986, "##tract": 29073, "##erle": 25161, "##omer": 27444, "nodig": 16090, "massieve": 15399, "boze": 9848, "vrucht": 22104, "Eerder": 2361, "onderbouw": 16352, "plotseling": 17544, "##OG": 23547, "##eter": 25192, "verwensing": 21523, "##lard": 26716, "vervangen": 21459, "miljonair": 15632, "Linda": 4387, "Anderson": 788, "Marg": 4632, "euroland": 11394, "medewerking": 15442, "titelverdediger": 20123, "##bb": 24190, "##debuut": 24807, "vijfenveertig": 21662, "##richten": 28144, "tussenkomst": 20425, "Binnenlands": 1264, "kan": 14073, "##oki": 27420, "burgeroorlog": 10011, "##pati\u00ebnt": 27711, "##erende": 25148, "oorbelle": 16781, "##poten": 27872, "landstitel": 14838, "##producent": 27915, "vanzelf": 20738, "Nieuwegein": 5177, "##d\u00e9": 24997, "Carol": 1642, "vlug": 21773, "Dic": 2117, "Mara": 4623, "geschopt": 12408, "106": 177, "raampje": 17931, "schieten": 18677, "kristal": 14656, "Ash": 924, "geklopt": 12107, "surrealis": 19785, "bovengronds": 9839, "Gemeente": 2863, "##goed": 25749, "gebracht": 11899, "invaller": 13862, "grimas": 12891, "Full": 2776, "ontsnapt": 16653, "respecteer": 18243, "schijfje": 18680, "vluchteling": 21767, "Classic": 1802, "##inger": 26212, "Rein": 5916, "##huizen": 26020, "Boonen": 1362, "Khalid": 3984, "Marcus": 4630, "enkel": 11293, "opstapt": 16973, "##ndle": 27271, "mark": 15377, "noordwestelijke": 16129, "##hartverscheurend": 25876, "Dieren": 2128, "##wegen": 29676, "sparen": 19214, "neerwaarts": 16001, "veroverde": 21251, "conf": 10312, "waardering": 22159, "##gate": 25376, "##zienbare": 29892, "Antwerpse": 845, "pr": 17655, "Banks": 1058, "##grote": 25806, "atoom": 8621, "wrijven": 22615, "medelijden": 15435, "bivakke": 9610, "persbureau": 17387, "##album": 23920, "165": 217, "##duur": 24990, "##ANNE": 23185, "##RC": 23604, "andermans": 8475, "berokken": 9176, "bestaan": 9265, "drijft": 10980, "Lib": 4338, "verwonding": 21559, "Birgit": 1268, "Captain": 1625, "cabaret": 10034, "melodie": 15509, "##product": 27917, "##plaat": 27793, "Sel": 6355, "overheids": 17117, "Len": 4299, "veracht": 20833, "VROUW": 7190, "Senegal": 6361, "tint": 20114, "belicht": 9061, "diertje": 10703, "##spreekt": 28631, "##vuil": 29604, "gemoed": 12228, "Evelien": 2521, "instemming": 13782, "Lodewijk": 4424, "abstracte": 8073, "broek": 9907, "Nacht": 5068, "aangaan": 7885, "opgelost": 16860, "steegje": 19457, "##kerig": 26459, "goddelijk": 12773, "Sancho": 6221, "##mai": 27019, "matig": 15410, "Klink": 4036, "lees": 14906, "1926": 304, "Gij": 2947, "ge\u00ebvacueerd": 12664, "Mobile": 4913, "##selectie": 28446, "student": 19722, "rijksmonumenten": 18318, "aankondigde": 7949, "inheemse": 13734, "Blankenberge": 1286, "aardige": 8050, "##agent": 23881, "missionaris": 15693, "Trans": 7040, "peper": 17369, "##zaak": 29832, "woensdag": 22547, "rottend": 18434, "Kh": 3982, "uitpuilend": 20580, "##emon": 25106, "diarree": 10658, "nors": 16137, "##paleis": 27682, "geruis": 12383, "wapenstilstand": 22238, "praatjes": 17659, "Rustig": 6143, "wetgeving": 22430, "##kend": 26452, "##son": 28573, "vakblad": 20701, "Social": 6525, "verondersteld": 21229, "Vandaar": 7227, "##deed": 24808, "##gund": 25817, "Cemetery": 1692, "veroordeelde": 21240, "draaien": 10938, "Aalbers": 554, "Hmm": 3386, "uitgerekend": 20532, "##gedreven": 25425, "##teren": 28951, "nieuwkomers": 16068, "zweef": 22937, "vertalen": 21407, "Beauty": 1111, "Euh": 2500, "Wilhelmina": 7641, "luide": 15216, "boekhoud": 9723, "wandelpad": 22220, "Irani\u00ebr": 3625, "##de": 24804, "##fre": 25335, "purper": 17899, "##augh": 24114, "omdraaide": 16240, "##argument": 24039, "doorslaggevend": 10895, "Dmitri": 2169, "##oogst": 27518, "Doch": 2174, "gebaa": 11858, "Shannon": 6397, "punten": 17894, "donkerblauw": 10844, "##salade": 28301, "##UUR": 23707, "tegenstrijdig": 19913, "##roepen": 28223, "architecten": 8549, "##28": 23068, "##sav": 28309, "oefenwedstrijd": 16197, "proef": 17782, "port": 17620, "contract": 10363, "verlichte": 21144, "##sleden": 28521, "Mary": 4684, "##shian": 28465, "Baden": 1028, "##kleding": 26522, "ge\u00efnterpreteerd": 12681, "Paulus": 5527, "bewindslieden": 9457, "verschrikking": 21323, "vermeden": 21175, "islam": 13904, "onmacht": 16532, "scheep": 18621, "geluid": 12189, "##diep": 24851, "##rivalen": 28197, "vaststelling": 20767, "tank": 19858, "vrachtwagens": 22030, "##dini": 24866, "Vader": 7205, "##rata": 28028, "##strategie": 28793, "JO": 3664, "##boog": 24417, "Yankee": 7722, "langzamer": 14855, "##ieke": 26097, "Bet": 1216, "parkeergarage": 17274, "evolutie": 11417, "militair": 15622, "compleet": 10268, "Rick": 5977, "slib": 19012, "Hooggerechtshof": 3448, "begaf": 8879, "##lach": 26681, "Ieder": 3549, "##izz": 26332, "Dolicho": 2192, "##liswaar": 26894, "zaklamp": 22659, "therapie": 20063, "Corus": 1930, "talenten": 19845, "rivaliteit": 18350, "Spre": 6607, "vrouwtjes": 22103, "##Hoofdstuk": 23396, "Homo": 3426, "##mission": 27153, "##sniveau": 28560, "##ppel": 27877, "slag": 18973, "achtervolgen": 8135, "##richtlijn": 28146, "gebeurd": 11871, "##autoriteit": 24123, "##geef": 25432, "leider": 14930, "Assche": 930, "##peper": 27736, "Marvel": 4681, "ADO": 531, "hem": 13182, "storen": 19615, "Maurice": 4714, "geestdrift": 12007, "valreep": 20715, "vrijgelaten": 22073, "Ben": 1165, "##PC": 23575, "chef": 10127, "Sme": 6504, "ribben": 18290, "arrest": 8568, "amulet": 8458, "priv\u00e9leven": 17751, "kruising": 14686, "aangemerkt": 7901, "Mossad": 4991, "verkozen": 21108, "##aid": 23892, "serre": 18878, "afsluiten": 8312, "Jamaica": 3686, "actie": 8154, "Mogelijk": 4931, "scherpschutter": 18661, "h\u00e9": 13553, "violist": 21688, "##eredith": 25144, "Balkan": 1044, "##meld": 27097, "war": 22241, "Gus": 3115, "Mocht": 4916, "vijver": 21671, "actiegroep": 8157, "voorzet": 21992, "##podium": 27834, "ego\u00efs": 11188, "groothertog": 12938, "knik": 14414, "digitale": 10711, "organiseerde": 17032, "##Today": 23689, "concurrentie": 10306, "Key": 3980, "kruidenier": 14680, "Barclay": 1068, "Publicatie": 5788, "##tia": 28988, "Merijn": 4802, "bezorgde": 9509, "##geknepen": 25472, "Eef": 2355, "m\u00f3et": 15883, "##kens": 26456, "Verwilghen": 7335, "temperatuur": 19961, "##t\u00e9": 29161, "##geraden": 25555, "opruimen": 16960, "wonen": 22568, "Virgil": 7374, "Boss": 1381, "verlichten": 21145, "##IJ": 23413, "kilogram": 14253, "##onderzoeksbureau": 27468, "##weefsel": 29665, "bereken": 9152, "##boord": 24422, "vloeiend": 21752, "Literatuur": 4406, "geniale": 12263, "Net": 5138, "Einstein": 2388, "aftrek": 8330, "Eragon": 2467, "matroos": 15413, "##ziekte": 29888, "##methyl": 27119, "arg": 8553, "mineraal": 15643, "vernederen": 21211, "beduidend": 8851, "homme": 13362, "neu": 16039, "verkleed": 21093, "Burg": 1536, "NEC": 5048, "deskundigheid": 10632, "weergegeven": 22293, "Shanghai": 6396, "##combinatie": 24667, "voortgebracht": 21967, "Paint": 5455, "stopcontact": 19608, "Beerschot": 1127, "meelevend": 15467, "vijfde": 21659, "##wetswijziging": 29717, "processie": 17768, "Etienne": 2495, "nationale": 15949, "##cey": 24569, "rockband": 18360, "er": 11315, "Verstraete": 7328, "65": 476, "##IN": 23420, "##lect": 26735, "classic": 10184, "##blazer": 24366, "t\u00e9": 20466, "Daartoe": 2010, "moleculair": 15755, "##bby": 24194, "Partij": 5504, "##iden": 26076, "##VERS": 23720, "Hakim": 3163, "grootouder": 12942, "##alen": 23925, "dramatisch": 10946, "fl": 11623, "##oshi": 27592, "verontwaardigd": 21237, "##inner": 26229, "verdediger": 20914, "verzorgd": 21600, "Veneti": 7270, "stedelijk": 19451, "##voeren": 29532, "Ravel": 5868, "Come": 1858, "financiering": 11611, "lineair": 15100, "cruise": 10440, "##zalen": 29844, "ach": 8094, "keeper": 14156, "mezelf": 15577, "noodzakelijk": 16117, "##AAG": 23157, "Set": 6384, "##crisis": 24730, "namens": 15937, "##gas": 25372, "140": 205, "effectenbeur": 11179, "##springer": 28638, "alledaagse": 8398, "##wind": 29751, "##wetten": 29718, "stads": 19394, "Kasom": 3913, "##synthese": 28863, "##moeder": 27178, "handhaving": 13041, "ingeleverd": 13705, "##ares": 24038, "bogen": 9740, "hoofdstad": 13402, "folter": 11667, "Liberty": 4345, "##arno": 24051, "USD": 7129, "Groenin": 3077, "VU": 7195, "vies": 21651, "sleur": 19007, "Kroatisch": 4141, "Saph": 6237, "fikse": 11585, "Wiener": 7629, "gerenommeerd": 12359, "sloffen": 19031, "##artikelen": 24063, "You": 7737, "Zijn": 7798, "groet": 12917, "##tussen": 29152, "Chil": 1743, "Ka": 3866, "pluis": 17548, "gepakt": 12299, "slagen": 18974, "opgetogen": 16878, "gewelfd": 12591, "##EST": 23325, "elegan": 11237, "Matth": 4704, "muizen": 15844, "##gul": 25815, "bliksemschicht": 9655, "##nova": 27348, "Melanie": 4772, "##vlo": 29509, "Pac": 5449, "bezield": 9490, "verschaft": 21301, "Tang": 6822, "##hav": 25880, "##gedeelte": 25417, "Georgia": 2891, "Vor": 7450, "lichamelijk": 15024, "##leverancier": 26807, "Wonder": 7691, "ontfutsel": 16595, "##vrouwen": 29602, "Sanne": 6228, "componist": 10279, "Halverweg": 3173, "##worm": 29792, "hoofdverdachte": 13405, "Jacqueline": 3678, "##pogon": 27840, "belangstellend": 9024, "##lica": 26822, "##pru": 27937, "Tessenderlo": 6885, "dam": 10510, "##WIJK": 23744, "botsing": 9820, "uitvoert": 20624, "gedrukt": 11994, "##belasting": 24243, "hu": 13469, "##commissarissen": 24676, "beneden": 9103, "##1816": 23002, "##ough": 27620, "quota": 17916, "haken": 13003, "speld": 19255, "Ward": 7532, "lui": 15213, "Vlinder": 7405, "##runner": 28286, "Aerts": 630, "Neptunus": 5133, "minderheden": 15639, "visuele": 21705, "##kwetter": 26667, "##ovski": 27652, "Gr": 3027, "Phoebe": 5602, "Vollenhove": 7434, "freelance": 11734, "##concern": 24690, "##rev": 28123, "Murray": 5021, "##training": 29078, "veilig": 20805, "Jackie": 3673, "##stuiven": 28829, "##telling": 28936, "scherp": 18658, "##isca": 26269, "mobiliteit": 15710, "##geschilderd": 25584, "James": 3688, "##groei": 25796, "##minister": 27143, "opperhoofd": 16938, "bereidwillig": 9145, "Eiland": 2382, "autobiografisch": 8643, "##-": 72, "Jef": 3719, "spuit": 19360, "koffie": 14475, "steeg": 19456, "getoetst": 12499, "stad": 19388, "##missie": 27152, "Schwarz": 6327, "kassa": 14131, "can": 10056, "##okyo": 27423, "rillen": 18327, "buurland": 10023, "explosieve": 11454, "vereist": 20970, "Mar": 4622, "##geleerd": 25489, "drukke": 11018, "Nijmegen": 5192, "##dine": 24862, "Argentijn": 885, "Australi\u00ebr": 970, "Sierra": 6432, "dwars": 11094, "dertiende": 10625, "spreekkamer": 19339, "harnas": 13079, "verbind": 20870, "##ORT": 23563, "raaf": 17926, "Buckingham": 1513, "recensie": 18025, "blij": 9643, "achtergelaten": 8111, "kluizenaar": 14384, "##1": 76, "Dieter": 2130, "Jura": 3847, "doorbreken": 10876, "papier": 17245, "beklaag": 8986, "aanbieders": 7866, "gemaskerde": 12205, "opdoemen": 16809, "[UNK]": 0, "verschil": 21316, "Mem": 4783, "Ita": 3648, "Lycaen": 4508, "gezamenlijke": 12625, "##s": 131, "creatieve": 10417, "proppe": 17830, "##tulp": 29142, "##schakelen": 28333, "brandwonden": 9868, "vechtpartij": 20778, "Belgen": 1152, "##braden": 24454, "autofabrikant": 8645, "arbeid": 8530, "Rad": 5830, "##oni": 27478, "Lange": 4226, "bedreigd": 8829, "losliet": 15189, "rijden": 18308, "Myanmar": 5035, "##les": 26786, "Kwa": 4171, "skelet": 18955, "grijpen": 12884, "na": 15885, "Bol": 1338, "integratie": 13801, "Mozart": 5003, "drempel": 10960, "##eksuele": 25055, "##igoni": 26145, "Vraag": 7456, "Ble": 1291, "grootscheepse": 12945, "##uck": 29172, "literatuur": 15124, "##tim": 29010, "Snow": 6521, "belangrijker": 9022, "ongelofelijk": 16479, "hop": 13435, "Can": 1609, "mama": 15329, "##yla": 29815, "Scheffer": 6272, "Yi": 7730, "Maxwell": 4720, "h\u00e9m": 13554, "Kern": 3967, "rees": 18092, "NIET": 5051, "spoor": 19315, "Rebec": 5879, "Boo": 1357, "vlei": 21726, "plaag": 17462, "##strategie\u00ebn": 28794, "landingsba": 14833, "opengesperd": 16827, "verkeersongeval": 21073, "duiden": 11041, "scheuren": 18669, "schoondochter": 18736, "redacteur": 18071, "gebrul": 11918, "kleurrijke": 14347, "wijn": 22468, "1913": 291, "publieke": 17885, "consultatie": 10344, "Kill": 3999, "meteorolog": 15562, "melk": 15508, "riool": 18334, "Koen": 4060, "Yates": 7726, "##ient": 26105, "ruimtelijke": 18468, "##\u00f3\u00f3k": 29996, "christendom": 10150, "Oezbekistan": 5288, "##bron": 24481, "Spi": 6588, "familie": 11502, "ministerie": 15654, "schuim": 18807, "gedaan": 11937, "##directeur": 24870, "mei": 15496, "aantonen": 7999, "Baskisch": 1083, "finale": 11605, "vrijgemaakt": 22074, "belediging": 9036, "city": 10177, "Joel": 3765, "slaan": 18964, "veelbetekenend": 20785, "bewindvoerder": 9458, "restje": 18255, "geil": 12085, "raken": 17959, "##tomida": 29052, "Croo": 1958, "##VZ": 23735, "##daal": 24775, "##bijeenkomst": 24340, "eigenaardige": 11195, "mentor": 15540, "Atlantische": 947, "480": 452, "Ice": 3544, "Arg": 883, "dvd": 11084, "cilinder": 10159, "slijt": 19017, "machtspositie": 15288, "SER": 6163, "verwijderde": 21538, "##gesp": 25603, "Syl": 6776, "huiverend": 13499, "technici": 19887, "genereren": 12256, "gesplitst": 12451, "##yan": 29810, "Jiang": 3747, "##LB": 23461, "##stig": 28743, "leek": 14895, "onvermogen": 16724, "##subsidie": 28844, "zwaard": 22915, "bestrijding": 9290, "communautair": 10249, "##haak": 25829, "Cel": 1685, "doorweekt": 10900, "Luna": 4497, "Onkelinx": 5339, "##perk": 27741, "lip": 15114, "Dewael": 2106, "plaat": 17463, "##nder": 27268, "##gestuurd": 25623, "##sembl": 28450, "##banen": 24171, "Rowan": 6107, "compenseren": 10264, "eensklaps": 11139, "felle": 11559, "pluim": 17546, "Monsieur": 4958, "vrijkomen": 22078, "lol": 15153, "Roo": 6073, "dagen": 10498, "middeleeuws": 15590, "Eerste": 2364, "##ONG": 23554, "##ri": 28133, "moreel": 15803, "AFP": 535, "Dijkstra": 2136, "Odysse": 5280, "other": 17049, "Tenslotte": 6867, "##KT": 23454, "Bulgarije": 1526, "Venezolaans": 7272, "##ald": 23921, "Merlijn": 4807, "Hastings": 3218, "##berry": 24268, "##osaurus": 27589, "onherroepelijk": 16525, "Wend": 7580, "verenigd": 20972, "##RR": 23624, "leiders": 14931, "Onze": 5351, "change": 10112, "kapot": 14109, "##1883": 23031, "bleven": 9641, "schamel": 18596, "furieu": 11777, "##4": 79, "Gonzalez": 3005, "Kust": 4168, "Victoria": 7349, "liever": 15066, "terugbetal": 20004, "minst": 15660, "Germaans": 2905, "Gibb": 2940, "nervos": 16027, "eenmalig": 11135, "##NE": 23512, "congres": 10320, "roya": 18442, "##eli": 25074, "##ette": 25201, "gepromoveerd": 12329, "##activiteiten": 23831, "getracht": 12503, "##j": 122, "adellijke": 8175, "verlangen": 21125, "schrok": 18791, "Tal": 6811, "flauw": 11633, "(": 9, "overgave": 17097, "ambtenaren": 8450, "weren": 22379, "leraar": 14956, "Duc": 2268, "##therapeut": 28978, "compromis": 10283, "##materialis": 27062, "gedoofd": 11979, "dominantie": 10830, "##vra": 29579, "censuur": 10096, "Chen": 1735, "lichaam": 15022, "##omyia": 27452, "slaperig": 18989, "dichters": 10663, "##RA": 23601, "bereikten": 9151, "kou": 14587, "##OU": 23566, "##liefhebbers": 26841, "adres": 8195, "schatting": 18614, "Pr": 5723, "gehuil": 12078, "leg": 14912, "##klap": 26512, "gesitueerd": 12425, "verteller": 21417, "gezondheid": 12648, "##bereid": 24258, "Korte": 4107, "##hir": 25944, "recept": 18029, "snijden": 19121, "##aoui": 24016, "Stadion": 6622, "symfonie": 19796, "have": 13095, "##polis": 27846, "II": 3517, "##donk": 24909, "##duik": 24976, "satijn": 18555, "dom": 10826, "##UG": 23695, "aansluiting": 7984, "vervolgt": 21482, "Juncker": 3840, "schaatsen": 18581, "##EUR": 23329, "'": 8, "hypo": 13544, "Bill": 1255, "schermpje": 18656, "##garantie": 25370, "overlijden": 17140, "##kort": 26600, "avonturier": 8668, "wipte": 22521, "Commun": 1869, "RUIMTE": 5817, "Lon": 4436, "activiteit": 8165, "veroordeeld": 21239, "Dubbel": 2265, "zoveel": 22869, "##reb": 28040, "voetbal": 21803, "Wilson": 7651, "componenten": 10277, "##cut": 24762, "boer": 9731, "##spruit": 28647, "belastingdienst": 9029, "##woord": 29784, "krassen": 14624, "fresco": 11739, "flauwekul": 11635, "smelten": 19080, "wervel": 22414, "##mechanisme": 27077, "allround": 8417, "bestuur": 9299, "onschuld": 16567, "Meppel": 4793, "cal": 10044, "tussen": 20422, "##ohn": 27407, "Belgrado": 1159, "doelgroep": 10799, "mentale": 15538, "kwellen": 14756, "koppel": 14549, "resultaten": 18258, "Goldman": 3000, "aansprakelijk": 7987, "Staf": 6626, "##CH": 23238, "Tho": 6916, "Bie": 1241, "Hed": 3249, "haa": 12980, "Stock": 6688, "centraal": 10101, "regeringen": 18128, "ritselen": 18343, "pootje": 17603, "Ex": 2530, "communisten": 10256, "1937": 315, "stofzuiger": 19583, "col": 10211, "gefluister": 12021, "beschadigd": 9188, "coma": 10224, "##oot": 27531, "Galerie": 2800, "Zwijg": 7853, "ozon": 17197, "verbale": 20849, "##vel": 29329, "geoordeeld": 12287, "Ur": 7161, "##56": 23110, "##gebracht": 25405, "rijtje": 18323, "structuree": 19711, "##NET": 23513, "##thal": 28970, "##altaar": 23947, "##celli": 24553, "sprint": 19351, "Slo": 6490, "##g\u00e9": 25825, "aandacht": 7871, "onhoorbaar": 16526, "Unter": 7159, "Afghanistan": 638, "##DD": 23259, "affiches": 8225, "gruwel": 12959, "Explo": 2536, "uitgelegd": 20523, "Carolina": 1643, "voortkom": 21970, "##geboekt": 25395, "##lust": 26981, "##oria": 27576, "##simulatie": 28482, "##baar": 24148, "dwalen": 11088, "gesubsidieerd": 12487, "weemoed": 22288, "##kreeg": 26625, "absoluut": 8071, "geleden": 12148, "##aca": 23802, "##bay": 24188, "##gno": 25746, "crew": 10421, "dat": 10532, "Ultra": 7143, "mislukking": 15685, "plaatsing": 17471, "BRUSSEL": 1010, "gereden": 12348, "scoren": 18828, "zwaartekracht": 22921, "##televisie": 28932, "Deel": 2065, "butler": 10021, "belemmerd": 9055, "driehonderd": 10969, "Dis": 2155, "Jar": 3706, "##fusie": 25350, "Lekker": 4295, "Kim": 4000, "fan": 11505, "zorg": 22857, "betaalde": 9311, "reserve": 18233, "Hagen": 3156, "dubbele": 11030, "##kolonie": 26575, "Slam": 6481, "##itis": 26306, "Dill": 2143, "softdrugs": 19158, "atletiek": 8619, "##pay": 27718, "Hoeven": 3397, "Thro": 6927, "twee\u00ebn": 20446, "onaangekondigd": 16301, "willekeur": 22488, "zoemen": 22806, "geteisterd": 12491, "psalm": 17861, "beheer": 8933, "verdomme": 20937, "schoonmaak": 18739, "medestander": 15439, "aannam": 7963, "Maj": 4583, "##zuil": 29937, "Scarlet": 6261, "Kamerlid": 3887, "bedreigend": 8832, "diepe": 10687, "Mori": 4982, "uitbater": 20473, "want": 22231, "Hui": 3486, "##schicht": 28364, "Netflix": 5140, "Stork": 6698, "Ley": 4334, "Schep": 6280, "##ight": 26141, "Broadway": 1477, "middenmoot": 15598, "##igny": 26144, "went": 22366, "##verpakking": 29402, "chroom": 10155, "erkend": 11337, "sap": 18549, "koele": 14457, "goed": 12780, "##dokter": 24902, "Antwoord": 846, "Happy": 3196, "rekent": 18170, "##LIJK": 23470, "mededeling": 15431, "Cesar": 1705, "langdurig": 14840, "snoep": 19126, "Russell": 6137, "gezorgd": 12652, "ge\u00ebxperimenteer": 12667, "getipt": 12497, "Toronto": 7016, "##PI": 23586, "Ter": 6869, "bibliothecar": 9531, "verbouwereerd": 20893, "vooraanstaande": 21880, "constructeur": 10339, "piloten": 17444, "Eneco": 2441, "##basiliek": 24182, "600": 470, "##rand": 28014, "hoofdpunten": 13396, "1700": 222, "Landis": 4222, "hoorbaar": 13430, "Fowler": 2711, "ontmoette": 16631, "Warschau": 7539, "uitgestorven": 20544, "Luik": 4486, "koopt": 14530, "##cchi": 24547, "##dische": 24873, "onderhandeld": 16376, "##regeling": 28065, "trendy": 20349, "angstig": 8481, "grotendeels": 12954, "Tess": 6883, "##fysica": 25352, "gemonteerd": 12234, "verzonden": 21597, "Kamp": 3890, "76": 492, "uitgeroepen": 20534, "ornament": 17044, "##knappen": 26548, "##dubbel": 24970, "onoverkomelijk": 16550, "bestuder": 9295, "eiste": 11228, "vaas": 20683, "Robb": 6012, "##anji": 23993, "Vlieg": 7400, "Lokeren": 4431, "gerommel": 12375, "amper": 8457, "haakte": 12984, "sets": 18887, "Kem": 3948, "stotter": 19625, "synthetisch": 19809, "zuidwesten": 22886, "Hoi": 3404, "gedempt": 11955, "pilaren": 17440, "mislukte": 15687, "sollicitant": 19170, "beleefde": 9039, "Suk": 6740, "bestond": 9284, "Duitse": 2280, "textiel": 20044, "glinsterde": 12748, "900": 510, "hierop": 13285, "fauteuil": 11533, "Oct": 5278, "vrouwelijk": 22099, "##pal": 27681, "Fel": 2600, "Sarkozy": 6242, "formula": 11689, "mensenleven": 15535, "decennia": 10550, "interieur": 13827, "call": 10046, "schaars": 18579, "dochter": 10777, "Bemb": 1164, "Dall": 2026, "Papoea": 5484, "contrast": 10365, "gebed": 11865, "dwerg": 11098, "ontrouw": 16645, "##223": 23049, "free": 11733, "psychiater": 17864, "kousen": 14591, "##iseert": 26275, "feitelijk": 11553, "Morning": 4983, "Kristof": 4137, "zeilen": 22697, "achterblijven": 8105, "Daarover": 2009, "Madd": 4561, "sleepte": 19001, "##dah": 24783, "geneeshe": 12244, "##DEL": 23261, "takje": 19840, "voren": 22004, "indrukwekkend": 13674, "Giorgio": 2961, "mede": 15430, "stelletje": 19479, "republikein": 18229, "Bak": 1037, "Boom": 1360, "popster": 17608, "Koninginnedag": 4083, "weegt": 22281, "fi": 11568, "Arkon": 897, "flauwe": 11634, "##juk": 26386, "##geweest": 25665, "pad": 17209, "klom": 14370, "Neil": 5124, "zwaartepunt": 22922, "Vleuten": 7399, "geweten": 12597, "avontuur": 8669, "Walloni\u00eb": 7520, "##kloppen": 26544, "##calcul": 24527, "##almaar": 23940, "mortuarium": 15810, "vernederend": 21212, "vreselijke": 22050, "Messi": 4813, "##ulata": 29215, "schelle": 18636, "bezuinigen": 9513, "verschaffen": 21300, "verijdel": 21063, "blootgesteld": 9695, "hengst": 13187, "partijen": 17295, "zoek": 22800, "vracht": 22026, "robuust": 18358, "gekund": 12128, "slalom": 18981, "##heem": 25892, "eenoogkreeftjes": 11136, "##remmen": 28097, "ge\u00efnvesteerd": 12685, "Fred": 2741, "##stukje": 28831, "stapte": 19430, "hernieuwde": 13233, "Ver": 7277, "Electrabel": 2396, "niets": 16059, "verplaatsing": 21258, "##produkten": 27920, "japon": 13931, "vries": 22064, "verraderlijk": 21273, "toejuich": 20150, "WE": 7483, "aandelenmarkt": 7878, "alfabetiserings": 8386, "zegel": 22686, "Ghost": 2935, "jongetje": 13973, "ontdekking": 16587, "spul": 19361, "deurwaarder": 10645, "Bock": 1317, "benodigd": 9108, "##ward": 29646, "##NSB": 23529, "toeristen": 20178, "aanklacht": 7943, "##contr": 24706, "architectuur": 8551, "##roe": 28218, "Jupiter": 3845, "bevend": 9388, "##klaar": 26507, "Broeder": 1480, "ministerraad": 15655, "Matthijs": 4707, "gesteund": 12469, "mosselkreeftjes": 15817, "uitvinder": 20617, "doelen": 10797, "Verschillend": 7325, "expert": 11442, "##hrer": 26009, "##latus": 26725, "geruchten": 12380, "bloederige": 9668, "Rosa": 6084, "##inter": 26244, "##02": 22981, "cult": 10445, "##troeven": 29112, "Justin": 3850, "Dijssel": 2137, "Saudisch": 6251, "Spong": 6600, "explodeerde": 11447, "pijlers": 17429, "Book": 1359, "pletter": 17526, "wonder": 22563, "##\u00ebren": 29984, "vingerafdruk": 21680, "##sso": 28665, "##boel": 24400, "aangehouden": 7892, "informant": 13685, "juweel": 14015, "##kruip": 26641, "Wool": 7696, "waarlijk": 22168, "##dong": 24908, "buitenbeentje": 9970, "##ledig": 26739, "parlementari\u00ebr": 17282, "##plantage": 27806, "beeldje": 8862, "vervanger": 21460, "##ave": 24127, "huurlingen": 13530, "Eve": 2520, "##reef": 28059, "beschikking": 9203, "##rttemberg": 28268, "##loopt": 26949, "Vakbond": 7210, "hevig": 13270, "vastgehouden": 20757, "hi\u00ebrarchie": 13319, "ge\u00ebxploiteerd": 12668, "condoom": 10310, "volks": 21844, "##zake": 29839, "##opperbevelhebber": 27550, "programmeer": 17806, "eilanden": 11209, "##helst": 25912, "filosofie": 11599, "vergelding": 20996, "##breken": 24464, "##straten": 28795, "functioneren": 11767, "Herk": 3324, "Hack": 3151, "breekt": 9878, "lezer": 15011, "##utz": 29269, "##ennegentig": 25121, "afgeluisterd": 8245, "##\u00e8re": 29966, "Taxi": 6832, "partners": 17300, "##dertig": 24832, "engel": 11288, "Bouterse": 1399, "songwriter": 19184, "zover": 22871, "Marion": 4652, "##NB": 23509, "misdadig": 15674, "vijandelijk": 21654, "##gall": 25362, "Bier": 1242, "##kanonnen": 26420, "Holt": 3422, "besluitvorming": 9242, "retrospectie": 18267, "kwartfinales": 14749, "##competentie": 24681, "stappen": 19428, "ranzig": 17983, "##verdraagzaamheid": 29357, "informateur": 13686, "transitie": 20316, "Amateur": 750, "##aren": 24037, "voltooide": 21862, "Tsja": 7075, "synagoge": 19805, "overgang": 17095, "out": 17064, "banden": 8725, "genadig": 12239, "browser": 9931, "Koninklijke": 4086, "ongewild": 16514, "Dur": 2293, "schier": 18674, "volleybal": 21853, "geroepen": 12374, "uitverkoren": 20616, "##NA": 23508, "##schrijvers": 28409, "who": 22443, "wetenschappen": 22427, "fotografen": 11706, "Bild": 1254, "Meg": 4757, "128": 197, "##zi": 29881, "scheiding": 18630, "fascinatie": 11520, "##ides": 26080, "##chuldig": 24609, "straks": 19648, "hoort": 13433, "##warm": 29649, "twijfels": 20453, "##loeter": 26926, "mits": 15702, "Ottomaans": 5414, "slak": 18978, "##DK": 23268, "herinnerd": 13215, "straatje": 19636, "##prins": 27905, "escorte": 11365, "bleken": 9638, "##EZ": 23335, "meeslepen": 15480, "Jupiler": 3844, "Elf": 2402, "Gio": 2960, "verslapt": 21343, "Vaart": 7203, "Verhaeghe": 7296, "kreupel": 14638, "##modder": 27170, "fo": 11659, "hergebruik": 13205, "1908": 286, "Vuur": 7480, "ontspring": 16659, "psycho": 17867, "##dicht": 24843, "ernst": 11346, "##tan": 28887, "##zone": 29922, "lekker": 14941, "opstaan": 16969, "111": 183, "Haider": 3161, "alias": 8390, "drie\u00ebn": 10975, "ontbloot": 16578, "##\u00e8": 141, "Salt": 6207, "tuimel": 20404, "Pam": 5474, "gehavend": 12055, "ridder": 18299, "##01": 22980, "Ondanks": 5326, "kanker": 14081, "##KI": 23445, "you": 22631, "##pus": 27958, "verdampt": 20909, "meneer": 15514, "##scheiding": 28347, "##EG": 23293, "seminar": 18860, "aangebracht": 7888, "TNO": 6795, "beschikbare": 9201, "Pinkpop": 5630, "Aalst": 556, "Reserve": 5941, "vliegen": 21736, "rechtvleugelig": 18060, "leeftijd": 14891, "name": 15934, "vage": 20695, "Av": 974, "leggen": 14921, "Latem": 4240, "snak": 19100, "su": 19747, "##ouwen": 27626, "Maaike": 4532, "Battle": 1093, "Peel": 5536, "frituur": 11744, "overweldigd": 17184, "schoen": 18715, "troost": 20382, "Braak": 1412, "winstwaarschuw": 22516, "beschouw": 9208, "school": 18730, "Pei": 5540, "##balans": 24163, "##pend": 27732, "kubus": 14700, "##bis": 24351, "##fix": 25289, "yoga": 22629, "Swi": 6770, "##cle": 24647, "uitwijken": 20628, "Belgium": 1157, "##watch": 29654, "##schat": 28343, "Margaret": 4633, "##col": 24660, "##ndy": 27273, "Subti": 6734, "overkwam": 17125, "binnengehaald": 9583, "richtingen": 18295, "strompelde": 19699, "Dyck": 2303, "leden": 14884, "Kameleon": 3885, "komedie": 14494, "bureau": 10002, "gerespecteerd": 12363, "problematisch": 17759, "rennen": 18205, "Eem": 2357, "\u2018": 61, "hol": 13353, "##verlichte": 29388, "levensverhaal": 15000, "Tommy": 7001, "doodstil": 10861, "Technologie": 6839, "Shaw": 6402, "laag": 14771, "periodiek": 17379, "Nintendo": 5208, "##32": 23076, "Marino": 4650, "genomineerd": 12274, "##cast": 24540, "dwaas": 11087, "neerzette": 16002, "benzinestation": 9119, "driedelig": 10965, "##gestel": 25613, "enclave": 11282, "Four": 2710, "break": 9872, "dreigt": 10959, "behoedzaam": 8945, "gijzeling": 12704, "hoestte": 13338, "##poliep": 27845, "slapen": 18987, "##positie": 27866, "##ge": 25381, "##hoofd": 25977, "##factor": 25234, "Poolse": 5698, "monnik": 15773, "Helle": 3288, "##standig": 28695, "kopman": 14548, "##contract": 24707, "tol": 20215, "besloten": 9238, "luisteren": 15230, "##VD": 23715, "##langs": 26710, "##gge": 25705, "##explosie": 25223, "bio": 9594, "aanvallen": 8013, "House": 3472, "scholieren": 18725, "tuinbouw": 20407, "##vordering": 29568, "stedelijke": 19452, "opgevoed": 16881, "##Govern": 23373, "glansde": 12726, "Dun": 2290, "##zoo": 29924, "##SR": 23652, "afge": 8227, "klassen": 14305, "Sar": 6238, "##programma": 27928, "geschaa": 12389, "Groene": 3076, "klimmen": 14358, "gevangenisstraf": 12532, "vlinder": 21745, "##eringen": 25158, "##academie": 23803, "ouderlijk": 17057, "##owski": 27658, "##sdienst": 28434, "##gast": 25373, "##kiezingscampagne": 26479, "##th": 28968, "Hoogland": 3449, "##vuur": 29609, "kent": 14186, "Omroep": 5320, "wellicht": 22346, "Grande": 3040, "partijgenote": 17297, "##hof": 25957, "deelde": 10558, "Iraans": 3622, "nestelde": 16029, "rechter": 18040, "verlaten": 21126, "ma\u00efs": 15422, "##ders": 24831, "onnavolgba": 16540, "Schat": 6270, "organisaties": 17027, "##ertje": 25170, "Gold": 2998, "personenauto": 17397, "Castel": 1662, "Jaren": 3707, "achterdochtig": 8108, "##soort": 28578, "beraad": 9140, "Kett": 3974, "Palestijnse": 5467, "##vlek": 29495, "fonkelend": 11673, "vertoeven": 21423, "##MT": 23499, "Pli": 5662, "geschikt": 12400, "bedrog": 8847, "##gekletter": 25469, "hype": 13542, "##verkopen": 29381, "stug": 19729, "eerstvolgend": 11163, "Gelderse": 2849, "##paal": 27668, "Effect": 2368, "fornuis": 11694, "##wikkel": 29746, "toneelstuk": 20225, "Federic": 2596, "weggegooid": 22313, "##gli": 25735, "##dock": 24889, "##he": 25883, "ge\u00ebxecuteerd": 12666, "Jay": 3714, "tred": 20331, "observeer": 16181, "ontmoeten": 16629, "servies": 18884, "chirurgie": 10140, "tegenstand": 19909, "Bonn": 1355, "rekrute": 18172, "Ulrich": 7142, "##chan": 24573, "##pakketten": 27679, "pit": 17455, "welk": 22343, "gordel": 12810, "voorgeschreven": 21911, "##De": 23280, "##ax": 24137, "##ondernemer": 27463, "geschriften": 12417, "holde": 13354, "Ji": 3746, "bit": 9607, "Homme": 3425, "onvindbaar": 16736, "geveild": 12540, "linkerar": 15105, "With": 7673, "##azar": 24140, "##geacht": 25382, "kortaf": 14567, "norm": 16132, "##onderzoek": 27466, "IJs": 3521, "Leb": 4263, "betwijfel": 9354, "Maakt": 4534, "spijtig": 19279, "Jonathan": 3784, "sleutelbeen": 19010, "Amerikaans": 761, "##achtereenvolgend": 23815, "##bal": 24162, "##goederen": 25750, "hoge": 13345, "bezitting": 9499, "##LN": 23476, "Versatel": 7323, "bindend": 9577, "hielp": 13276, "orthodox": 17046, "opvolging": 16999, "##stadion": 28681, "drie\u00ebntwintig": 10976, "##idae": 26072, "##\u00f3w": 29994, "debatten": 10543, "toelichting": 20161, "trapte": 20326, "opengaan": 16826, "Marleen": 4663, "Nog": 5220, "episode": 11312, "Staatsbos": 6620, "signalement": 18923, "##stone": 28771, "catacomben": 10079, "##icul": 26067, "##kavel": 26442, "denktank": 10614, "gemoedstoestand": 12231, "Bradley": 1418, "reiken": 18152, "##figur": 25271, "Gibson": 2942, "bloeddorstig": 9665, "virtueel": 21691, "124": 193, "rechtvaardig": 18058, "luidt": 15221, "KPN": 3862, "risico": 18335, "##sector": 28437, "sensatie": 18865, "Sonny": 6551, "Gli": 2977, "##koerier": 26566, "Gunther": 3113, "tweetal": 20444, "##VR": 23729, "stal": 19403, "Wegen": 7564, "##toerisme": 29039, "wenden": 22354, "##sprint": 28640, "neus": 16043, "##ith": 26302, "verbrak": 20895, "Beweging": 1232, "omgeving": 16252, "element": 11250, "verloop": 21162, "Schwarzenegger": 6328, "Uiteindelijk": 7135, "Zuiderzee": 7829, "Tia": 6936, "ac": 8076, "Soms": 6547, "malen": 15326, "##vergadering": 29364, "Matt": 4702, "Fl": 2654, "Telenet": 6857, "##0000": 22979, "kruiden": 14679, "Aarschot": 568, "Consumenten": 1904, "beaam": 8778, "##q": 129, "Stadium": 6623, "gedroeg": 11990, "##RAN": 23602, "Cab": 1579, "Vermeersch": 7311, "deskundigen": 10631, "##rbeidsongeschikt": 28035, "doorsnee": 10897, "Dominicaans": 2198, "jukbeen": 13997, "##mura": 27233, "Sabena": 6177, "Zwijndrecht": 7855, "##num": 27356, "inkomen": 13744, "Atlantic": 945, "vermeend": 21176, "behuizing": 8959, "hyper": 13543, "Thi": 6911, "##vat": 29313, "bankiers": 8736, "communicatie": 10250, "Pluto": 5669, "Nas": 5083, "Coast": 1829, "##lijden": 26858, "##DF": 23264, "Plasterk": 5650, "##jaag": 26341, "Ouwe": 5423, "nobel": 16086, "kruispunt": 14687, "vervallen": 21457, "ontvouw": 16682, "gedraag": 11983, "##zin": 29900, "afgekort": 8237, "##fout": 25329, "##gedraaid": 25422, "##lagen": 26688, "eeuwenoude": 11171, "irriteer": 13901, "Joris": 3805, "Claus": 1806, "##minuten": 27146, "##schoren": 28391, "inspiratiebron": 13769, "##ars": 24058, "##journalistiek": 26379, "##itz": 26318, "ziel": 22766, "Spielberg": 6592, "pater": 17328, "ruiter": 18476, "betrekking": 9344, "Volle": 7433, "hoogsten": 13417, "Japan": 3702, "promover": 17822, "silhouet": 18929, "verlaat": 21117, "cilindrisch": 10160, "Harvey": 3214, "afgelegen": 8240, "Dan": 2035, "Jones": 3785, "insect": 13760, "vergeten": 21005, "Leefbaar": 4270, "rel": 18174, "vergeeld": 20994, "##herziening": 25924, "##naam": 27249, "##gestookt": 25617, "Street": 6713, "##graat": 25769, "##inrichting": 26232, "Goossens": 3011, "##lanceren": 26701, "Ella": 2415, "belemmer": 9054, "likken": 15094, "oversteek": 17158, "##cun": 24756, "##MV": 23502, "echtgenote": 11112, "Bretagne": 1450, "##mur": 27232, "slakken": 18979, "contracten": 10364, "##sie": 28475, "bloeddruk": 9666, "dioxine": 10731, "moskee": 15813, "Wa": 7491, "toedoen": 20132, "voorgesteld": 21912, "##beurt": 24305, "geintje": 12086, "getiteld": 12498, "Intel": 3604, "snavel": 19105, "onderhield": 16381, "##I": 96, "kreunend": 14637, "orde": 17018, "Calv": 1594, "finalist": 11607, "patron": 17334, "afgevoerd": 8258, "kraampje": 14599, "Tiffany": 6947, "krans": 14618, "dieptepunt": 10693, "##engevolge": 25118, "Griek": 3061, "doodgaan": 10851, "theater": 20050, "Meerdere": 4754, "voegt": 21790, "Saoedisch": 6235, "Stefan": 6651, "Le": 4260, "huisdier": 13482, "verlossen": 21166, "##enveertig": 25131, "LA": 4183, "stapten": 19431, "##84": 23138, "stront": 19700, "vergrijp": 21018, "daarvoor": 10487, "Frans": 2731, "##poging": 27839, "##voeding": 29524, "##schuur": 28421, "zeil": 22696, "halve": 13018, "verbod": 20885, "wikkelde": 22481, "ellende": 11265, "##auri": 24117, "claim": 10181, "lichtgewond": 15032, "Antonio": 841, "plussers": 17555, "prenten": 17688, "wissen": 22531, "##champ": 24572, "##gekruld": 25479, "gekoppeld": 12117, "reclassering": 18064, "gearriveerd": 11853, "camper": 10053, "domme": 10834, "karate": 14119, "Vivi": 7386, "aanschouw": 7979, "daartegen": 10483, "Regering": 5903, "economisch": 11121, "hockey": 13323, "legitim": 14924, "##SE": 23637, "heiligen": 13147, "##spaan": 28582, "gegarandeerd": 12030, "alibi": 8391, "onvervalst": 16730, "zouden": 22868, "##ic": 26051, "voet": 21802, "dochters": 10778, "Wis": 7667, "veiligheid": 20808, "naai": 15887, "wedijver": 22274, "##match": 27058, "Gandhi": 2808, "daarin": 10475, "aangeboden": 7887, "bezienswaardig": 9492, "##monster": 27195, "gevoelige": 12559, "Carab": 1628, "ether": 11382, "Imperial": 3569, "Museum": 5024, "producer": 17775, "##\u201e": 152, "anekdote": 8477, "##trainer": 29077, "Louw": 4464, "hen": 13185, "map": 15360, "ontvangen": 16671, "sample": 18541, "##dio": 24868, "Justine": 3851, "oudejaars": 17052, "stichter": 19532, "Dark": 2045, "Bernhard": 1200, "ondertekenen": 16419, "behal": 8923, "tumor": 20412, "Bekaert": 1139, "paraplu": 17262, "verkoper": 21105, "hernieuw": 13232, "zorginstelling": 22862, "dorst": 10917, "sprak": 19334, "##idi": 26082, "gelach": 12135, "analyseren": 8466, "1934": 312, "ondernemingen": 16399, "uitgevoerd": 20552, "vakbeweging": 20700, "Woensdag": 7679, "verduistering": 20957, "Sofie": 6535, "vernieuwing": 21224, "##gezinnen": 25697, "##)": 70, "kei": 14161, "naakte": 15889, "tonen": 20227, "Lager": 4204, "Meer": 4753, "rent": 18209, "vrije": 22070, "stink": 19566, "##harige": 25873, "verkeersveilig": 21074, "heersend": 13127, "##onica": 27481, "Arnhemse": 909, "##f": 118, "werkvloer": 22406, "##vereniging": 29362, "dringen": 10984, "boegbeeld": 9715, "bekroning": 9005, "verdedig": 20910, "##vit": 29485, "draak": 10940, "Landbouw": 4219, "##nale": 27256, "gunstig": 12973, "##bird": 24350, "dobbel": 10770, "##lichaam": 26824, "Jakarta": 3683, "##polder": 27843, "holes": 13356, "##ous": 27623, "catalogus": 10080, "Parkinson": 5498, "Ricky": 5978, "Dino": 2148, "vloekte": 21757, "schandaal": 18599, "Cecil": 1682, "##kur": 26654, "Eury": 2514, "informeerde": 13690, "Wapen": 7530, "pan": 17231, "Crow": 1960, "##AR": 23190, "##greep": 25784, "verkies": 21080, "aandelen": 7876, "knap": 14399, "aansluiten": 7983, "kwetsbare": 14761, "sporters": 19325, "flard": 11630, "bladzijde": 9624, "huisartsen": 13481, "misdaad": 15672, "eenzame": 11148, "eergisteren": 11156, "zakenman": 22656, "##straal": 28782, "##holpen": 25966, "##batterij": 24185, "mogelijkheden": 15748, "afleiding": 8285, "onzichtbare": 16765, "Rou": 6099, "##plezier": 27822, "gehuldigd": 12081, "sediment": 18847, "toast": 20126, "vrezen": 22052, "Ne": 5104, "##jar": 26353, "##roep": 28222, "##HBO": 23377, "Lilian": 4374, "inspirerend": 13772, "teruggetrokken": 20012, "Jongens": 3788, "##leeuw": 26749, "verroeren": 21292, "##marche": 27046, "Mik": 4863, "symbolische": 19793, "besmet": 9243, "thuiswedstrijd": 20074, "##draait": 24932, "##gebed": 25386, "##weg": 29675, "wantrouwig": 22233, "huisjes": 13490, "wisselde": 22526, "##255": 23064, "Amerikaanse": 762, "ge\u00efnterviewd": 12682, "Ticket": 6939, "mee": 15454, "##schrijft": 28406, "mediterrane": 15452, "plat": 17502, "McLaren": 4735, "kersen": 14202, "##plaatsen": 27796, "vaag": 20674, "schutting": 18820, "Hiddin": 3353, "gave": 11837, "##boe": 24396, "schimmen": 18705, "architect": 8548, "verpletterd": 21265, "staatsschuld": 19384, "##elt": 25097, "zeggen": 22690, "##2000": 23036, "##gala": 25360, "##etter": 25203, "Forum": 2706, "##abiliteit": 23795, "politicolo": 17573, "##eert": 25027, "truffel": 20397, "##werf": 29695, "vuurtoren": 22131, "Rath": 5865, "kerkelijke": 14193, "Ardenne": 878, "zenuwen": 22726, "Davies": 2054, "Katelijne": 3920, "RKC": 5813, "samenhang": 18529, "##vergroting": 29367, "aanmoediging": 7962, "betreur": 9345, "aarzelde": 8057, "openlucht": 16835, "##knijp": 26552, "verwonder": 21556, "##ploeg": 27826, "uitmaakt": 20572, "gastronomi": 11829, "Beneden": 1166, "duizelig": 11055, "volume": 21866, "##1882": 23030, "##sini": 28485, "korting": 14570, "##overschot": 27638, "IS": 3533, "adviseurs": 8208, "Stella": 6659, "H\u00f6": 3513, "juwelen": 14016, "##OEN": 23544, "zwerf": 22947, "Hai": 3160, "Guggenheim": 3100, "Zwolle": 7859, "##asso": 24077, "bui": 9958, "staaltje": 19372, "##torren": 29064, "controversie": 10374, "cao": 10060, "bemoeienis": 9090, "geraffineerd": 12336, "netto": 16033, "##kunde": 26648, "Cura": 1976, "Ronny": 6071, "ongeslagen": 16501, "werkgelegenheid": 22389, "##evergeefs": 25216, "##tentie": 28946, "Nord": 5240, "##iets": 26114, "##ucky": 29173, "Beer": 1124, "Sob": 6523, "Ye": 7727, "race": 17937, "##broeder": 24478, "##rage": 27997, "Tegenwoordig": 6846, "ontzegd": 16705, "##pence": 27731, "Veerle": 7252, "altijd": 8429, "debatteer": 10542, "geconcentreerd": 11927, "schuifelde": 18802, "##ix": 26328, "##amus": 23966, "##bos": 24433, "##ARD": 23193, "##gle": 25732, "vuisten": 22116, "Plaza": 5658, "normalite": 16135, "##PP": 23594, "lichten": 15030, "##ona": 27457, "##hara": 25868, "##OR": 23562, "##essler": 25187, "##technisch": 28910, "primaire": 17731, "Vlees": 7398, "Sala": 6201, "passeer": 17311, "Zouden": 7822, "bescherming": 9197, "2500": 415, "garantie": 11817, "kwalitatie": 14741, "Tolsto": 6998, "Ullrich": 7141, "topschutter": 20247, "Cler": 1812, "oplichter": 16915, "knaagdier": 14391, "##spannen": 28586, "slechte": 18995, "##thy": 28987, "Kampioenschap": 3892, "kwartier": 14750, "Anti": 833, "mobiele": 15707, "Sex": 6389, "schikken": 18688, "72": 486, "dalend": 10508, "Critici": 1956, "woonachtig": 22576, "schurken": 18818, "vluchtig": 21770, "##meldt": 27099, "##technieken": 28909, "aflatend": 8283, "##goeroe": 25751, "stijger": 19544, "bal": 8706, "leken": 14938, "##ect": 25009, "##cro": 24732, "lu": 15202, "Pater": 5513, "Hawk": 3231, "##ible": 26049, "lijken": 15081, "voluit": 21865, "Petersburg": 5580, "broekspijp": 9908, "toevluchtsoord": 20203, "dobber": 10772, "garderobe": 11819, "bumper": 9996, "verstuurd": 21403, "##pingu\u00efn": 27781, "golfbaan": 12796, "Christie": 1766, "Dave": 2050, "##ten": 28942, "kruipt": 14684, "Turner": 7102, "onvolledig": 16739, "baadde": 8673, "minimumloon": 15652, "betreffende": 9340, "Schouten": 6309, "##lob": 26917, "##streden": 28797, "##vlag": 29488, "prostitutie": 17834, "Freedom": 2748, "activisten": 8164, "omstandigheid": 16281, "theologie": 20056, "winnaar": 22508, "##MZ": 23504, "draden": 10941, "verliezen": 21153, "pole": 17569, "Hiroshi": 3376, "flirt": 11647, "vergemakkelijk": 21003, "Bath": 1091, "wenteltrap": 22367, "tachtig": 19827, "##rechten": 28046, "69": 481, "alcohol": 8383, "vertaling": 21409, "hommage": 13361, "Vis": 7378, "##imo": 26189, "verbannen": 20851, "zweet": 22942, "Costello": 1933, "controversi\u00eble": 10375, "Memorial": 4784, "lap": 14859, "vallen": 20713, "slap": 18986, "trok": 20373, "##BW": 23229, "Duits": 2278, "Noordelijke": 5230, "vredesmissie": 22038, "inzien": 13892, "##circulatie": 24629, "telefooncel": 19938, "Singapore": 6456, "oordelen": 16784, "verdiepingen": 20933, "vrolijke": 22093, "##nspireerd": 27351, "blijken": 9648, "Avenue": 978, "beproefd": 9138, "regisseur": 18141, "##perspectief": 27747, "ex": 11419, "har": 13065, "betwijfelde": 9355, "Health": 3239, "United": 7151, "kruisvaarders": 14690, "Roche": 6021, "##ion": 26250, "avonden": 8664, "provocatie": 17852, "inzet": 13888, "vloo": 21761, "Dordrecht": 2217, "Alba": 685, "gegooid": 12037, "geraamd": 12333, "Bangkok": 1055, "Kijk": 3996, "Ves": 7339, "zwaargewond": 22919, "##weven": 29719, "wijngaard": 22469, "bonk": 9767, "Watch": 7544, "Leer": 4274, "peloton": 17355, "opduiken": 16814, "redding": 18077, "##cc": 24545, "##eiligheidsdienst": 25047, "slurf": 19056, "##vuren": 29608, "Gar": 2812, "cola": 10212, "schoppen": 18748, "Clint": 1819, "Egypte": 2373, "Brandweer": 1428, "oprichten": 16950, "overhandigd": 17108, "zwaailicht": 22910, "ArenA": 880, "gilde": 12706, "strijken": 19688, "bevat": 9375, "##UID": 23697, "personen": 17396, "ontmoeting": 16630, "willen": 22491, "regenachtig": 18116, "Gaspar": 2820, "relatieve": 18178, "clich\u00e9": 10188, "##liet": 26845, "MA": 4519, "##dor": 24916, "##onnen": 27488, "inbreng": 13650, "stroomopwaarts": 19706, "commerci\u00eble": 10244, "##411": 23088, "staren": 19432, "##ifer": 26122, "schrift": 18775, "traditionele": 20285, "Che": 1731, "gracieu": 12835, "droevig": 10995, "voeten": 21812, "Lu": 4468, "##akker": 23912, "pretentie": 17705, "Vrede": 7458, "autoritair": 8656, "geroosterd": 12378, "realism": 18017, "reu": 18269, "##stip": 28757, "toilette": 20214, "##flessen": 25297, "triest": 20356, "Maureen": 4712, "##gebrek": 25407, "elektronica": 11247, "duidelijkheid": 11040, "heimelijk": 13148, "##schreeuw": 28400, "professor": 17791, "verder": 20924, "antisemitisch": 8502, "angstaanjagend": 8480, "##ojo": 27416, "olijf": 16232, "Iowa": 3618, "##duwde": 24993, "koloni\u00ebn": 14491, "Comb": 1857, "##ndel": 27267, "akkoord": 8375, "##cip": 24626, "##nam": 27257, "tekort": 19926, "Luther": 4501, "##ongelukken": 27475, "Coninck": 1888, "Gla": 2971, "Verhulst": 7302, "Duizend": 2287, "KB": 3856, "Sankt": 6227, "parochiekerk": 17285, "Slecht": 6484, "bedenkelijk": 8807, "hits": 13315, "##bod": 24393, "##ketel": 26466, "kinderlijk": 14262, "Cran": 1948, "won": 22561, "Marina": 4648, "bevordering": 9413, "bevestigde": 9391, "uitgeprocedeerd": 20529, "##tut": 29153, "aanbieden": 7865, "##vet": 29444, "Advocaten": 627, "##brengen": 24467, "optrekken": 16987, "Rasmussen": 5863, "proeven": 17785, "Brazili\u00eb": 1436, "basisplaats": 8763, "kernenergie": 14200, "wint": 22517, "Schel": 6275, "depressief": 10618, "deuropening": 10644, "##geschroefd": 25589, "##ie\u00ebn": 26119, "raadkamer": 17918, "##ieder": 26093, "gestrand": 12479, "Annemarie": 824, "Bundes": 1531, "Minute": 4892, "##leuk": 26797, "ambtstermijn": 8452, "##nchen": 27265, "afzondering": 8358, "Prins": 5743, "Rudi": 6118, "signaleer": 18922, "##aert": 23859, "##MER": 23490, "##verhuur": 29373, "proost": 17826, "##draaien": 24931, "##room": 28244, "##sprei": 28632, "nederlaag": 15978, "Line": 4391, "Spinoza": 6597, "Campert": 1607, "loer": 15135, "Fair": 2564, "intimiteit": 13849, "##journaal": 26377, "Lucia": 4477, "##uys": 29279, "ingeschreven": 13715, "fantastisch": 11513, "bestand": 9268, "News": 5152, "gevallen": 12526, "##steenvlieg": 28715, "##schap": 28338, "##chemie": 24583, "##beheersing": 24228, "kruist": 14688, "VOC": 7186, "voetbalstadion": 21810, "Haas": 3146, "##lein": 26766, "Links": 4394, "oorlogs": 16788, "##besteding": 24286, "Bedrijven": 1120, "##tas": 28898, "##embargo": 25101, "88": 507, "weggooi": 22317, "##phy": 27763, "aangename": 7904, "adoptie": 8193, "gelaten": 12140, "mannen": 15353, "waren": 22243, "gebeten": 11870, "dump": 11058, "schuchter": 18796, "waarom": 22177, "horizontale": 13446, "##eiroet": 25051, "straat": 19634, "##reden": 28057, "##uleerd": 29219, "steenkool": 19465, "magere": 15296, "Cop": 1913, "scheepswerf": 18624, "verhuur": 21060, "beschermd": 9194, "gesleept": 12431, "Vorm": 7452, "Eigenaar": 2379, "##arra": 24054, "bedwang": 8852, "Kanton": 3897, "begaafd": 8877, "ziekenfonds": 22759, "##lend": 26774, "##scentrum": 28318, "droogte": 11006, "tweeduizend": 20438, "toestaan": 20186, "high": 13289, "gelegenheid": 12157, "kleverig": 14351, "nummer": 16160, "##geschakeld": 25578, "##prefectuur": 27889, "##gal": 25359, "nuance": 16156, "##bike": 24341, "Gary": 2819, "soul": 19193, "##space": 28584, "bewust": 9474, "Breng": 1447, "Vrij": 7466, "##cale": 24528, "wan": 22212, "mikke": 15615, "##gieter": 25718, "Barend": 1069, "##bood": 24415, "publicatie": 17877, "Afgevaardigden": 635, "consortium": 10331, "gulden": 12966, "Fara": 2578, "Smet": 6506, "wapen": 22234, "graai": 12829, "##ndalar": 27266, "##loch": 26921, "Ir": 3619, "caf\u00e9": 10042, "verricht": 21285, "##ieten": 26113, "ensemble": 11299, "1904": 282, "nuchter": 16157, "behaald": 8919, "vlotte": 21765, "gordijn": 12811, "speciale": 19223, "##cert": 24565, "##maan": 27000, "plof": 17537, "bries": 9892, "notering": 16147, "waken": 22204, "bandleden": 8728, "stief": 19536, "##ermate": 25163, "doorbrak": 10875, "ongewenste": 16512, "##coureur": 24719, "wenken": 22358, "##thans": 28971, "##heid": 25900, "##lezer": 26815, "aussi": 8633, "Rhyme": 5963, "##svormen": 28856, "Birmingham": 1270, "##ssing": 28664, "Kirk": 4011, "besprak": 9259, "presenteren": 17695, "vice": 21630, "##gedaald": 25412, "pijpen": 17435, "punct": 17891, "anonieme": 8494, "aankomst": 7947, "Nobelprijs": 5216, "leugens": 14975, "verzeker": 21576, "Kiki": 3997, "Riv": 6006, "doek": 10791, "##erusten": 25173, "Jens": 3729, "Dhabi": 2110, "blauwe": 9632, "##ensis": 25124, "kreeg": 14629, "##bla": 24355, "werken": 22387, "Citadel": 1789, "adviseur": 8207, "fotograferen": 11707, "helikopter": 13170, "rusteloos": 18489, "##teeken": 28912, "echtscheiding": 11114, "licht": 15025, "kasten": 14138, "##diefstal": 24847, "Sachs": 6182, "zaken": 22654, "paradijs": 17255, "verplicht": 21267, "drijvende": 10983, "zombie": 22816, "minne": 15659, "##spullen": 28649, "##kin": 26490, "##kampioenschappen": 26412, "dierlijke": 10701, "onvoorspelbaar": 16740, "Zweden": 7846, "Megach": 4759, "communie": 10253, "##OV": 23570, "Trip": 7055, "##verandering": 29338, "hoeken": 13333, "uitgedost": 20513, "Lage": 4203, "persoon": 17399, "tegenslag": 19908, "135": 201, "##cat": 24541, "pittig": 17456, "Form": 2699, "Honduras": 3431, "Iets": 3556, "kijkt": 14248, "klippen": 14366, "renden": 18203, "gewonnen": 12610, "wandel": 22214, "##LA": 23458, "frame": 11725, "jongens": 13969, "overigen": 17122, "Love": 4465, "mam": 15328, "Karim": 3907, "geritsel": 12372, "Savo": 6254, "32": 427, "kantine": 14093, "##social": 28565, "##wor": 29788, "Australi\u00eb": 969, "Sav": 6253, "pianist": 17414, "Zaterdag": 7766, "sympathisant": 19801, "Maria": 4638, "scheur": 18667, "bespreek": 9260, "korpschef": 14563, "troebel": 20366, "huilde": 13475, "modderig": 15714, "stimuleren": 19564, "afpersing": 8297, "##ardi": 24035, "##drukking": 24965, "Rat": 5864, "koperen": 14541, "Eline": 2407, "##cine": 24622, "##\u00f3\u00f3": 29995, "verpleegkundige": 21262, "animatie": 8484, "segment": 18848, "redden": 18075, "##ical": 26053, "##PA": 23574, "Immigrati": 3567, "ontmoedigen": 16627, "Nere": 5134, "motorkap": 15831, "Powell": 5720, "Antillian": 836, "flavi": 11636, "trekpleister": 20346, "biedt": 9539, "##unc": 29227, "behoefte": 8948, "principes": 17736, "Hezbollah": 3350, "##stelde": 28721, "gepantserd": 12300, "defensie": 10575, "function": 11761, "Ca\u00efro": 1680, "World": 7703, "scherm": 18654, "##DN": 23271, "##injectie": 26221, "wederzijds": 22273, "##ook": 27520, "Hazel": 3234, "##comm": 24669, "magie": 15297, "verwissel": 21548, "manieren": 15343, "frank": 11729, "##etronic": 25197, "grie": 12874, "diva": 10763, "##master": 27056, "Pittsburgh": 5642, "mp3": 15837, "Voorzitter": 7449, "voorpagina": 21938, "Steden": 6645, "##vlijt": 29506, "##zag": 29837, "chimpansee": 10135, "Aangezi": 560, "Si": 6420, "ernaast": 11345, "##haast": 25836, "doorliep": 10891, "##BAL": 23209, "procureur": 17770, "##ARE": 23194, "huiswerk": 13495, "leraren": 14957, "##hui": 26013, "Plots": 5665, "hut": 13524, "puur": 17903, "##OL": 23550, "##z\u00e9": 29962, "volmaakt": 21854, "cultuur": 10448, "republiek": 18228, "duizend": 11056, "Geschiedenis": 2913, "overmacht": 17141, "schriftelijk": 18776, "##tio": 29017, "bosbrand": 9808, "##politiek": 27848, "Lau": 4245, "raadsel": 17921, "afsluit": 8311, "rituelen": 18346, "dromen": 10999, "specifiek": 19229, "bericht": 9160, "bankroet": 8739, "##reuzel": 28122, "tempel": 19958, "geografisch": 12285, "Heef": 3252, "Neotropisch": 5130, "Airways": 671, "Ruim": 6124, "choreografie": 10145, "##finale": 25283, "ski\u00ebn": 18958, "sussen": 19787, "goddelijke": 12774, "##sprocedure": 28642, "##klassieker": 26518, "massal": 15394, "##ryll": 28295, "Kul": 4159, "##beur": 24303, "vers": 21298, "##schok": 28380, "##blote": 24389, "discussi\u00ebren": 10755, "gemeentelijk": 12214, "rijkelijk": 18314, "Gwen": 3122, "##koning": 26586, "##lec": 26734, "bluf": 9702, "##lab": 26677, "Connexxion": 1891, "zondig": 22829, "Cultuur": 1973, "middags": 15585, "Pamel": 5475, "Baltisch": 1050, "nonchalant": 16105, "award": 8670, "##dragen": 24934, "##mini": 27142, "##icula": 26068, "plukte": 17551, "##ler": 26781, "##lian": 26818, "##akis": 23910, "Eric": 2475, "ergernis": 11334, "klim": 14356, "##og": 27398, "misdrijf": 15677, "Light": 4366, "##spiegel": 28607, "##gedwongen": 25431, "duiken": 11043, "oproep": 16957, "uitgekiend": 20519, "SBS6": 6159, "landskampioen": 14837, "opera": 16838, "##gezakt": 25685, "filiaal": 11589, "smette": 19086, "nabij": 15897, "Pal": 5459, "##register": 28072, "gebleven": 11882, "1875": 254, "Trouw": 7064, "geheimzinnige": 12063, "uitnodiging": 20578, "##vid": 29452, "Lente": 4304, "circuit": 10165, "verstrekt": 21397, "Theodor": 6907, "boomstamme": 9784, "digi": 10709, "beroving": 9180, "knorrig": 14440, "USS": 7130, "##stijgt": 28749, "##wil": 29747, "Advocaat": 626, "MTV": 4529, "weerhouden": 22295, "verpleegster": 21263, "Botswana": 1386, "wervelend": 22415, "veranderde": 20839, "##al": 23917, "Floor": 2669, "waardoor": 22164, "strijk": 19687, "Valley": 7220, "dertien": 10624, "##rim": 28176, "bamboe": 8721, "bewonderde": 9464, "onderhouden": 16383, "zoon": 22853, "##cant": 24534, "Lauren": 4248, "room": 18421, "##andi": 23976, "##schoot": 28389, "veroverd": 21250, "Cyr": 1985, "Teeven": 6842, "##nov": 27347, "##blauwe": 24364, "Ren": 5930, "##101": 22988, "zwangerschap": 22931, "archieven": 8546, "trainers": 20296, "uitzonderlijk": 20642, "Pool": 5696, "dringend": 10985, "##erend": 25147, "##line": 26878, "Somers": 6544, "##jah": 26350, "Al": 679, "concept": 10292, "golvende": 12799, "onverwacht": 16731, "investeren": 13871, "deel": 10557, "##gekek": 25463, "2010": 391, "##aan": 23763, "Indien": 3578, "##cheque": 24585, "Sau": 6249, "foyer": 11716, "zwijn": 22962, "leert": 14905, "##twist": 29158, "informele": 13691, "spelregels": 19265, "uitgebreid": 20509, "penis": 17359, "monumenten": 15787, "Of": 5289, "achteloos": 8098, "Vic": 7346, "AG": 536, "Lod": 4423, "1925": 303, "Joods": 3792, "opgevat": 16879, "programmering": 17808, "vliegdek": 21735, "vroegere": 22090, "janken": 13929, "Olsen": 5308, "meeslepend": 15481, "spirituele": 19293, "##brecht": 24460, "pissebed": 17452, "testosteron": 20036, "##riek": 28155, "Bar": 1060, "Rutger": 6144, "passage": 17306, "kiem": 14233, "proefschrift": 17784, "stemmen": 19489, "gedacht": 11939, "##NMa": 23522, "beschaving": 9191, "Vara": 7239, "plekke": 17524, "##verslaggever": 29416, "Kaiser": 3878, "##olkshuisvesting": 27432, "##transplantatie": 29084, "Diamond": 2114, "Wanne": 7528, "Merc": 4795, "##azc": 24141, "cast": 10078, "Duivels": 2286, "bewolkt": 9461, "classificatie": 10185, "Schneider": 6298, "halsband": 13015, "geschied": 12397, "##gie": 25716, "Lanotte": 4230, "Bek": 1138, "herkenbaar": 13222, "##misdrijf": 27151, "##verbruik": 29349, "Rolling": 6053, "samenhangend": 18530, "richel": 18291, "##bbel": 24191, "armband": 8560, "sculptuur": 18833, "Hedwig": 3250, "gorilla": 12813, "Veilig": 7258, "##drukken": 24964, "men": 15513, "voorbijgaan": 21898, "##obelprijswinnaar": 27364, "eigenschappen": 11203, "legitiem": 14923, "proportie": 17829, "Burton": 1542, "Recep": 5884, "blondine": 9690, "##groene": 25798, "precies": 17676, "##beurs": 24304, "inboorlingen": 13646, "##selen": 28447, "Bijvoorbeeld": 1250, "krulde": 14696, "gedoog": 11980, "arme": 8561, "belangrijke": 9021, "gardist": 11820, "##li": 26816, "##gouw": 25763, "gewest": 12596, "bestrijden": 9289, "1844": 243, "gekomen": 12114, "##pik": 27773, "##wein": 29680, "iPod": 13560, "zwaaien": 22908, "##igen": 26137, "richtlijnen": 18297, "##feestje": 25247, "Castle": 1665, "##gepikt": 25542, "ingenieur": 13709, "Hollandsche": 3412, "invoering": 13879, "Caroline": 1644, "Veld": 7262, "g\u00e9": 12978, "leeuwen": 14910, "Helm": 3289, "verkondig": 21098, "Laten": 4241, "Kerst": 3969, "Pour": 5719, "categorie": 10083, "ceremonie": 10106, "decoratie": 10553, "koord": 14533, "strikt": 19690, "exploderen": 11448, "gezellige": 12631, "scheppen": 18649, "##lven": 26985, "##schoten": 28395, "Rijks": 5991, "kost": 14576, "##my": 27244, "perzik": 17405, "oostelijke": 16799, "##TP": 23681, "Agenten": 652, "master": 15401, "lat": 14870, "onrechtmatig": 16556, "staatshoofd": 19382, "##vervalsing": 29428, "Antho": 831, "kloppen": 14377, "hatelijk": 13093, "Wehrmacht": 7565, "bezorg": 9507, "commotie": 10247, "genoodzaakt": 12275, "##PS": 23597, "##ison": 26281, "amuseren": 8461, "voicemail": 21821, "borstkas": 9806, "##dreiging": 24942, "Coca": 1831, "##soldaten": 28571, "onderlip": 16391, "kappen": 14111, "##agne": 23889, "Commer": 1864, "##ell": 25082, "bemiddeling": 9084, "gedoe": 11975, "gebeurde": 11872, "Elsevier": 2423, "Marijn": 4644, "uitwedstrijd": 20625, "deksel": 10592, "Reizen": 5920, "lever": 15002, "regenwoud": 18124, "##chneumon": 24596, "##reg": 28063, "begrijpend": 8904, "melden": 15505, "Building": 1521, "bepleit": 9137, "MO": 4527, "preventiev": 17712, "##partijvoorzitter": 27702, "Ana": 777, "kijkcijfers": 14243, "optimistisch": 16984, "krijsend": 14650, "Lycos": 4509, "vulkanische": 22121, "na\u00efeve": 15974, "##schijn": 28368, "druppel": 11026, "Slu": 6497, "Alex": 701, "branche": 9856, "diabetes": 10649, "##idor": 26090, "##kraker": 26619, "##route": 28255, "##waaien": 29615, "Hoog": 3445, "collect": 10215, "Bureau": 1535, "##ING": 23423, "werkplek": 22401, "marketing": 15379, "formeel": 11686, "Witt": 7674, "##ric": 28140, "##plant": 27805, "kneuzing": 14408, "##iformis": 26131, "##vlekken": 29496, "avant": 8661, "tastte": 19875, "achterban": 8103, "lingerie": 15101, "macro": 15289, "bijlage": 9557, "schorpioen": 18751, "plus": 17554, "stoof": 19599, "slechts": 18997, "Middel": 4849, "voeteneind": 21813, "landen": 14825, "##socialistische": 28566, "neerslag": 15999, "kwalificatie": 14737, "##leiders": 26762, "lidmaatschap": 15038, "ontwierp": 16693, "universeel": 20655, "##seweg": 28457, "Haan": 3140, "42": 444, "euforisch": 11390, "agrarisch": 8364, "##lles": 26911, "tikkel": 20104, "vrouwelijke": 22100, "herinner": 13214, "die": 10669, "Caribisch": 1634, "iTunes": 13561, "Eli": 2404, "onveranderd": 16714, "##eur": 25206, "##journalist": 26378, "##boer": 24401, "begrijpt": 8905, "BIJLAGE": 1003, "Kli": 4032, "onbekommerd": 16323, "luchthaven": 15205, "reacties": 18007, "verwonderlijk": 21558, "Khan": 3986, "39": 438, "begeleidde": 8885, "Six": 6466, "benutten": 9116, "logistiek": 15146, "##emde": 25102, "vaker": 20704, "voormalig": 21928, "concurrent": 10305, "beledigd": 9033, "overheidsdienst": 17118, "##gespannen": 25604, "##klep": 26527, "Vledder": 7397, "Grad": 3033, "kabel": 14033, "Velen": 7266, "undercover": 20649, "Harrison": 3210, "cursisten": 10451, "Kara": 3903, "Maandag": 4536, "litteken": 15125, "Vu": 7476, "eerst": 11160, "Jump": 3838, "belangrijk": 9020, "##hier": 25935, "##prik": 27902, "stikstof": 19551, "##H": 95, "Burundi": 1543, "##verpleegkundigen": 29403, "Kopenhagen": 4098, "verandering": 20841, "sleutel": 19009, "mannetjes": 15355, "kalveren": 14056, "huldig": 13504, "kakkerlak": 14044, "gehouden": 12076, "Grijp": 3069, "##storm": 28776, "destijds": 10634, "onlosmakelijk": 16531, "Rau": 5866, "Draai": 2234, "2011": 392, "Somali\u00eb": 6543, "verbanning": 20852, "##verslaving": 29417, "feest": 11543, "Collega": 1844, "gekneusd": 12108, "ban": 8722, "Arm": 899, "officieel": 16209, "glazig": 12732, "Cijfer": 1782, "auteursrecht": 8636, "sympathie": 19799, "Zelfs": 7782, "bijna": 9558, "terrein": 19989, "handschrift": 13048, "##voorraden": 29558, "antwoorden": 8507, "##spect": 28593, "stuw": 19746, "tra": 20271, "ro": 18354, "Indias": 3577, "beukte": 9359, "##BE": 23212, "##lick": 26830, "moge": 15745, "##betaald": 24295, "omstander": 16279, "Elk": 2413, "Sir": 6463, "13": 198, "Hongkong": 3438, "telefonie": 19935, "w\u00e9l": 22624, "Prima": 5739, "Steen": 6648, "bewoning": 9469, "meespelen": 15482, "vitaliteit": 21709, "##trekt": 29102, "Machine": 4553, "stoten": 19624, "onontbeerlijk": 16544, "gerinkel": 12371, "Nederlander": 5110, "Train": 7037, "Arabieren": 862, "##ueel": 29178, "aspecten": 8599, "Bac": 1024, "Gly": 2983, "gemaakt": 12198, "idee": 13569, "##fascist": 25240, "Damrak": 2034, "##uad": 29162, "##ugel": 29186, "Barak": 1063, "Operatie": 5378, "baal": 8675, "##gens": 25537, "##eongchang": 25135, "SP": 6166, "##hebber": 25888, "gloeiende": 12761, "truc": 20394, "rechte": 18038, "Champ": 1714, "Stro": 6718, "meewarig": 15492, "##gesproken": 25609, "gesch": 12388, "huwelijks": 13536, "opgeleverd": 16859, "##weef": 29664, "erfpacht": 11329, "##universiteit": 29237, "Pseudo": 5781, "##woog": 29782, "steeds": 19455, "uitgezocht": 20555, "juicht": 13994, "slechtste": 18998, "serieuze": 18877, "kussen": 14724, "Thor": 6921, "##melding": 27098, "wordt": 22592, "2004": 385, "leiderstrui": 14933, "NRC": 5058, "##fragment": 25332, "gedeeld": 11947, "gips": 12712, "Arian": 889, "WK": 7486, "##nstitutionele": 27353, "Hawa\u00ef": 3230, "geflankeerd": 12020, "verwarring": 21514, "wimper": 22495, "##gordel": 25759, "Uitgeverij": 7137, "half": 13007, "##elaar": 25059, "##il": 26167, "Space": 6568, "beleefdheid": 9040, "Harry": 3211, "eindelijk": 11214, "klappen": 14296, "Arn": 905, "Silicon": 6441, "terreinwagen": 19991, "waard": 22153, "##gereisd": 25562, "##ianen": 26041, "1500": 211, "1894": 270, "wol": 22554, "##rel": 28088, "document": 10781, "nostalgie": 16138, "erfgenaam": 11326, "felicitatie": 11557, "overvloed": 17178, "smerig": 19082, "pakjes": 17217, "Amstel": 770, "##goten": 25761, "##adze": 23856, "##straling": 28790, "Econom": 2333, "regelde": 18106, "Fr\u00e9d\u00e9ric": 2770, "tragisch": 20289, "wiskundige": 22523, "##vermindering": 29395, "Nicc": 5159, "Tamara": 6818, "##turbine": 29148, "resultaat": 18257, "Rudy": 6120, "vertrouwde": 21444, "stokje": 19585, "##DU": 23277, "##exploitant": 25222, "display": 10756, "##gua": 25810, "Studenten": 6722, "Moeilijk": 4923, "straling": 19652, "Aristoteles": 892, "Bordeaux": 1366, "gif": 12696, "verlagen": 21118, "heer": 13121, "uitzending": 20635, "##voc": 29520, "##kundig": 26649, "ape": 8512, "spelen": 19256, "count": 10396, "Alaska": 684, "verkleind": 21094, "##bespreking": 24280, "##rath": 28029, "1999": 377, "##icida": 26060, "##uniform": 29236, "Bor": 1365, "Rh": 5956, "Paul": 5523, "koper": 14540, "Je": 3716, "##had": 25838, "##vechter": 29320, "ontzettend": 16707, "Vas": 7240, "jongedame": 13964, "onenigheid": 16458, "onverminderd": 16723, "asbak": 8590, "onvolkomenhe": 16738, "krappe": 14622, "tafels": 19832, "App": 853, "gekocht": 12112, "Sommige": 6545, "verkoo": 21100, "verlengstuk": 21142, "zal": 22663, "woog": 22574, "fasci": 11519, "Indonesi\u00eb": 3585, "##lla": 26903, "bouwde": 9828, "##gewezen": 25671, "zelve": 22717, "schaduw": 18588, "maagdelijk": 15249, "##geroerd": 25570, "lukte": 15235, "stomme": 19591, "onbruikbaar": 16346, "##afwijking": 23876, "huisje": 13489, "Monique": 4955, "genezing": 12261, "##nest": 27290, "Veer": 7251, "civil": 10179, "badplaats": 8695, "08": 166, "Suriname": 6754, "Bomhoff": 1346, "grondstof": 12931, "waarvoor": 22190, "Koekelare": 4057, "herten": 13249, "opzienbarend": 17012, "##ogen": 27400, "##lip": 26889, "##houdende": 25995, "Fox": 2712, "voorgaande": 21907, "stoot": 19605, "##wespen": 29708, "meenam": 15469, "##atsu": 24105, "##waard": 29620, "eigentijdse": 11204, "Sno": 6520, "##ynaeve": 29818, "ondeugend": 16447, "rot": 18428, "ontrafel": 16641, "ontslagen": 16650, "Ara": 860, "Zap": 7765, "##lof": 26927, "fysiek": 11784, "##ET": 23326, "##ACH": 23164, "brancard": 9855, "Vest": 7340, "puntje": 17895, "Cornelia": 1922, "Gedaan": 2833, "Historisch": 3380, "##osoma": 27596, "##edel": 25011, "matte": 15415, "Braun": 1431, "Willy": 7649, "##main": 27021, "bejaarden": 8965, "##beschouwing": 24273, "basisscholen": 8764, "heerlijk": 13122, "opsomming": 16966, "scherts": 18664, "##gren": 25785, "##EL": 23300, "##drijver": 24951, "##ama": 23949, "Dorothy": 2221, "Meise": 4766, "##eria": 25151, "typische": 20465, "verpest": 21256, "Mega": 4758, "Revolutionair": 5949, "dij": 10712, "Wereldoorlog": 7588, "bezem": 9481, "L\u00e9": 4516, "##co\u00ebffici\u00ebnt": 24721, "doen": 10811, "Debbie": 2060, "shoppen": 18903, "opdrachten": 16811, "verstand": 21369, "Bara": 1061, "VAN": 7174, "hartje": 13087, "bezweren": 9519, "##lantaarn": 26712, "meegemaakt": 15464, "##alle": 23937, "Cast": 1661, "poosje": 17601, "Mandel": 4610, "wodka": 22539, "stoere": 19575, "##ongyang": 27477, "bezuiniging": 9514, "Luis": 4488, "uni": 20651, "Paraguay": 5491, "##sturen": 28834, "prik": 17723, "##gebouwd": 25402, "lieg": 15057, "trachtte": 20278, "bood": 9776, "door": 10871, "omslag": 16278, "##tsev": 29128, "Doc": 2173, "##ele": 25068, "struik": 19715, "drinken": 10988, "Acht": 597, "waarheid": 22166, "##dank": 24792, "kwaad": 14732, "ontstaat": 16661, "relativeer": 18180, "workshop": 22594, "##bourne": 24442, "##erre": 25168, "Dit": 2161, "Paramar": 5492, "boekhandel": 9722, "Altijd": 742, "##king": 26493, "##pir": 27783, "##was": 29650, "##lion": 26888, "stoppen": 19612, "##tong": 29056, "Schalken": 6269, "gewild": 12604, "spiritue": 19292, "##dreun": 24944, "##poppen": 27856, "McDonald": 4730, "##oordeel": 27527, "Welnee": 7576, "cacao": 10038, "klootzak": 14376, "Nedersaks": 5116, "lichter": 15031, "keek": 14153, "1944": 322, "argument": 8554, "sigaren": 18917, "vasthouden": 20764, "Veenendaal": 7250, "##etto": 25205, "Burger": 1538, "Sint": 6461, "krater": 14625, "##stel": 28720, "##37": 23082, "Eco": 2331, "##enberg": 25110, "zeker": 22698, "Gouda": 3023, "zonde": 22826, "##board": 24392, "##acht": 23813, "##rek": 28083, "baai": 8674, "slachtoffers": 18972, "T": 46, "Blond": 1305, "Wyatt": 7714, "politiekorps": 17583, "Soeharto": 6532, "onvoldoende": 16737, "resident": 18237, "Kron": 4146, "beleggings": 9049, "recente": 18027, "verstrik": 21400, "1950": 328, "travail": 20329, "Valkenburg": 7218, "nabijheid": 15898, "Aberdeen": 581, "Em": 2425, "rechters": 18045, "##qui": 27970, "Fra": 2714, "peuter": 17412, "ge\u00ebrgerd": 12663, "generaal": 12252, "betrok": 9348, "pijpleiding": 17436, "benadeeld": 9093, "##america": 23957, "opdringerig": 16813, "##ister": 26292, "mu": 15838, "Berber": 1178, "Hester": 3341, "vwo": 22135, "bemind": 9085, "verzoenen": 21595, "achterom": 8125, "taalkundige": 19818, "Enterprise": 2461, "##aandelen": 23769, "##instructeur": 26240, "##\u2019": 149, "stereo": 19500, "##veiligheid": 29327, "aanval": 8012, "ontvanger": 16672, "superieur": 19776, "Semi": 6358, "1989": 367, "motel": 15820, "##bac": 24153, "namelijk": 15935, "Heleen": 3282, "David": 2052, "Spra": 6606, "leverde": 15006, "gemanipuleerd": 12202, "pont": 17593, "schamen": 18597, "samen": 18523, "Bru": 1493, "##lai": 26691, "Philadelphia": 5594, "aarzelend": 8059, "coalitiepartner": 10202, "##omstandigheden": 27451, "Herinner": 3323, "Barbara": 1065, "idioot": 13579, "belangrijkste": 9023, "bestemd": 9279, "##illi": 26180, "##slaat": 28513, "kruis": 14685, "multi": 15845, "93": 514, "kortweg": 14573, "##verschijnselen": 29410, "official": 16208, "ontplooien": 16639, "werkwoord": 22408, "##ophorus": 27544, "moedig": 15728, "##uff": 29181, "Claes": 1795, "bedwingen": 8853, "wekenlang": 22334, "##brink": 24475, "Konings": 4084, "toe": 20129, "##rik": 28173, "##ster": 28733, "comfort": 10231, "decreet": 10554, "opknapbeurt": 16902, "Megawat": 4760, "Minder": 4884, "##ART": 23195, "Moorsel": 4974, "jogging": 13959, "Kant": 3896, "Oom": 5356, "##ify": 26133, "Toevallig": 6992, "steward": 19529, "Tranen": 7039, "...": 153, "Ridder": 5980, "binnenkwam": 9587, "ondubbelzinnig": 16453, "##honderdduizend": 25973, "##jump": 26387, "##stenen": 28732, "Evan": 2517, "Andrew": 793, "Ok\u00e9": 5298, "voldoen": 21826, "voortzetting": 21978, "verpleger": 21264, "zwijg": 22957, "geliefde": 12166, "Jamie": 3689, "Mexico": 4825, "Ava": 975, "Sera": 6369, "trio": 20362, "##rond": 28237, "afstaan": 8321, "beervlinder": 8870, "vervelend": 21466, "##igne": 26142, "Katrien": 3927, "aarzeling": 8060, "bekoorlijk": 9001, "boete": 9735, "lachten": 14793, "maatregelen": 15271, "plaatsgevonden": 17470, "poten": 17643, "##us": 29256, "vorming": 22012, "geloov": 12185, "behouden": 8958, "Hoekstra": 3394, "fantastische": 11514, "##dit": 24879, "##oppen": 27549, "Linde": 4388, "##okken": 27422, "##datum": 24798, "quiz": 17914, "bonden": 9760, "gekroond": 12126, "Agassi": 648, "##borstel": 24432, "Breuk": 1452, "Amazon": 751, "##vol": 29545, "sab": 18507, "spaar": 19202, "vermomming": 21206, "Shir": 6412, "overkomen": 17124, "Bell": 1160, "bomaanslag": 9752, "kijker": 14246, "##puis": 27953, "Kasteel": 3917, "parochie": 17284, "##begrepen": 24220, "voorganger": 21908, "##eyens": 25225, "als": 8421, "Mes": 4810, "maatregel": 15270, "soft": 19157, "Maan": 4535, "Mechelse": 4742, "groeve": 12920, "resistent": 18239, "Permanent": 5564, "stiekem": 19539, "##way": 29657, "##bossen": 24435, "vr": 22021, "afgemaakt": 8246, "neemt": 15986, "CBS": 1564, "Vicky": 7347, "bewoog": 9470, "luidspreker": 15220, "kitsch": 14274, "Mama": 4604, "principe": 17735, "gewikkeld": 12603, "strijdlustig": 19686, "sho": 18900, "Erlen": 2479, "Gerechtsho": 2901, "Oecophor": 5281, "richtlijn": 18296, "Beat": 1105, "bezegeld": 9480, "Main": 4582, "##hij": 25937, "versch": 21299, "##stikke": 28752, "Ochtend": 5277, "juichen": 13993, "##51": 23104, "94": 515, "eenheden": 11132, "wisten": 22533, "hoogstaand": 13415, "##do": 24885, "Trump": 7070, "functioneer": 11764, "onthaal": 16600, "##buk": 24501, "special": 19222, "woedende": 22543, "uitkwam": 20567, "Nie": 5169, "##tol": 29049, "boeiend": 9718, "Griekenland": 3063, "jachthaven": 13919, "vergisse": 21013, "waarschuwen": 22183, "Moore": 4973, "human": 13513, "Mare": 4631, "aap": 8040, "draf": 10942, "kapstok": 14114, "zenuwstelsel": 22727, "##ijver": 26161, "Cau": 1677, "Sergio": 6374, "echtpaar": 11113, "##ria": 28134, "tegenwoordig": 19916, "Bro": 1476, "Cli": 1816, "handtekeningen": 13051, "gehuld": 12080, "controleerde": 10369, "mooiste": 15791, "doorstaan": 10898, "##position": 27867, "Win": 7655, "##volume": 29551, "grootst": 12947, "Jo\u00ebl": 3820, "middelbaar": 15587, "vergader": 20987, "##sputter": 28651, "middenin": 15596, "glas": 12729, "pseudoniem": 17863, "Ay": 987, "Didier": 2122, "yoghurt": 22630, "##vic": 29450, "VERORDENING": 7179, "Drugs": 2259, "onbehage": 16319, "barbecue": 8743, "herinneren": 13217, "##rukken": 28282, "medisch": 15450, "kille": 14251, "Duitsers": 2282, "##getrokken": 25632, "gejaagd": 12089, "Britse": 1472, "##ieux": 26116, "machts": 15286, "democratisering": 10603, "versierde": 21334, "##dijk": 24857, "Velde": 7263, "driehoekig": 10968, "##egelijkertijd": 25036, "gezellig": 12630, "post": 17634, "afwenden": 8343, "1930": 308, "##INE": 23422, "rugzak": 18456, "boeddhisme": 9712, "eilandje": 11210, "kabouter": 14036, "traan": 20273, "verzelfstandig": 21583, "kartonne": 14128, "##geschrokken": 25590, "abonnement": 8066, "stellig": 19480, "verzacht": 21565, "##hain": 25843, "##hallen": 25849, "cijfers": 10158, "##geheim": 25453, "Koender": 4061, "code": 10206, "##rook": 28243, "beklom": 8995, "Schitterend": 6294, "##tricida": 29108, "parket": 17278, "geneesmiddelen": 12247, "Koophandel": 4093, "stilzwijgen": 19560, "##ovsk": 27651, "Krom": 4145, "reeks": 18091, "##ggi": 25708, "##CTIE": 23250, "dit": 10761, "toezegging": 20208, "paaltje": 17200, "##namiddag": 27260, "badkamer": 8692, "##terughoudendheid": 28962, "kaarsen": 14025, "##hai": 25842, "hoogwaardig": 13421, "##70": 23125, "Connie": 1892, "Winter": 7664, "ni\u00e9t": 16084, "##stu": 28823, "goedgekeurd": 12783, "griffier": 12879, "feministisch": 11561, "protocol": 17843, "tientall": 20086, "No\u00ebl": 5257, "vleiend": 21727, "gemeenteraad": 12216, "Oostzee": 5370, "Dergelijk": 2094, "##geslagen": 25593, "score": 18827, "kenden": 14174, "##rossen": 28250, "paardenstaart": 17204, "##mara": 27045, "##kansen": 26422, "##velle": 29332, "ongezond": 16519, "##zaamheid": 29835, "##loos": 26950, "viering": 21646, "Saksen": 6198, "schreeuwt": 18774, "Alfred": 708, "##elen": 25070, "herhalen": 13211, "##oide": 27409, "##Staatssecretaris": 23663, "betogen": 9326, "schuren": 18816, "raadpleeg": 17919, "bedel": 8804, "bevoorrecht": 9409, "##tail": 28875, "Luk": 4491, "kleuter": 14348, "Mack": 4555, "misschien": 15689, "verbeelding": 20857, "eekhoorn": 11129, "Lut": 4500, "KFC": 3858, "Mia": 4829, "onderhandeling": 16378, "##IER": 23405, "vereffen": 20968, "2006": 387, "aankopen": 7952, "##zuiger": 29936, "onbedoeld": 16315, "eerbiedig": 11153, "eindje": 11220, "Zorreguiet": 7819, "1968": 346, "ongetrouwd": 16503, "Gerben": 2898, "verwrong": 21564, "##nevel": 27302, "##aal": 23762, "Bahama": 1033, "gepasseerd": 12302, "harmonie": 13078, "##ligger": 26855, "lig": 15071, "##ALL": 23176, "gerangschikt": 12337, "klopte": 14379, "Smith": 6509, "vooral": 21884, "##via": 29449, "Zwan": 7841, "toets": 20193, "Kyoto": 4178, "radioactief": 17951, "creatief": 10416, "verraste": 21280, "moeder": 15726, "Divisi\u00f3n": 2166, "##peil": 27724, "Gur": 3114, "inmiddels": 13752, "Dam": 2029, "rotsen": 18432, "##schutter": 28420, "establishment": 11371, "combineren": 10228, "nerveuze": 16026, "bang": 8730, "onnozel": 16542, "##ribbel": 28139, "##analyse": 23970, "coup\u00e9": 10400, "pose": 17628, "##leigh": 26765, "gooit": 12807, "Jeruzalem": 3736, "##moulin": 27216, "Pseud": 5780, "bestuurlijke": 9304, "geschetst": 12395, "Berlare": 1192, "kant": 14091, "excuus": 11428, "uitgeleverd": 20525, "##gedoken": 25421, "vermakelijk": 21174, "##uble": 29166, "autisme": 8640, "##posten": 27870, "##S": 105, "lied": 15041, "match": 15403, "Libisch": 4346, "##uro": 29253, "voorzien": 21995, "Simone": 6448, "ka": 14020, "supporters": 19782, "afhandeling": 8271, "Ghe": 2934, "telefoontje": 19942, "2005": 386, "Rusland": 6136, "vork": 22007, "##adder": 23835, "Dy": 2302, "Rand": 5852, "##kat": 26440, "Cre": 1950, "Review": 5947, "gekapt": 12094, "opeenvolging": 16817, "Nicholas": 5161, "03": 160, "facette": 11484, "geciteerd": 11921, "##verontreiniging": 29400, "##our": 27622, "Zwitser": 7856, "verspreidde": 21362, "rinkelen": 18332, "interventie": 13842, "##loon": 26946, "superioriteit": 19777, "knallen": 14398, "##stijl": 28750, "Conservatorium": 1898, "afronding": 8301, "beperkingen": 9134, "manche": 15337, "rijzen": 18325, "dialog": 10653, "omvang": 16285, "bewerkt": 9449, "trompet": 20378, "uitmaken": 20574, "bekijk": 8983, "geboortesta": 11892, "Astrid": 936, "luitenant": 15232, "##iana": 26040, "Angel": 800, "stammen": 19410, "Saddam": 6185, "##ignon": 26143, "verkeer": 21068, "Emmen": 2435, "##aux": 24125, "dreigende": 10957, "inburgering": 13652, "hogere": 13348, "pr\u00e9": 17860, "berekend": 9153, "##HOVEN": 23390, "Arizona": 893, "zwarte": 22934, "schaken": 18592, "Steno": 6662, "##berghe": 24264, "visite": 21697, "paard": 17202, "##informatie": 26206, "flakkerend": 11626, "imp": 13627, "meesters": 15489, "Theater": 6903, "##ois": 27413, "geslepen": 12432, "stout": 19626, "##kijk": 26481, "Los": 4451, "kwijtraakt": 14766, "##denken": 24823, "buien": 9960, "hobbel": 13321, "Leon": 4306, "verbond": 20888, "aangescherpt": 7913, "##gedragen": 25424, "hit": 13313, "coalitie": 10201, "re\u00ebel": 18285, "glasvezel": 12730, "vuur": 22127, "##hoon": 25981, "##sprak": 28628, "gebald": 11862, "vrouwen": 22101, "##problemen": 27911, "relatief": 18176, "verwachting": 21500, "##lac": 26680, "uitstraalde": 20608, "##heu": 25928, "lachwekkend": 14794, "Klaus": 4024, "aansteker": 7992, "voorjaar": 21916, "getal": 12489, "huurders": 13529, "Kosovo": 4113, "Mill": 4875, "toilet": 20213, "Bredene": 1441, "bewonder": 9462, "weldra": 22340, "rad": 17942, "Franklin": 2729, "##act": 23825, "Brugge": 1496, "##lading": 26686, "##ware": 29647, "musket": 15861, "winnaars": 22509, "vermoeidheid": 21201, "##cent": 24554, "tassen": 19871, "wildernis": 22487, "##kostuum": 26604, "##vri": 29590, "##venne": 29335, "##cross": 24735, "seizoenen": 18852, "buitenwereld": 9984, "105": 176, "sneed": 19108, "Cycl": 1980, "mus": 15855, "##scholen": 28382, "werkloosheid": 22396, "belastingen": 9030, "Brand": 1424, "Henderson": 3298, "smeris": 19084, "Senaat": 6360, "herenhui": 13201, "kwartje": 14751, "masse": 15397, "geef": 12002, "##chus": 24610, "Party": 5506, "ingewand": 13722, "vermorzel": 21208, "fair": 11494, "##book": 24418, "drijven": 10982, "landgenote": 14827, "instinctie": 13784, "trance": 20307, "Moussa": 5000, "Drie": 2249, "##zw": 29944, "glo": 12753, "Mertens": 4809, "##vouwen": 29578, "formulering": 11693, "Flash": 2659, "DI": 1994, "betoverend": 9334, "Gillia": 2953, "##erpstra": 25167, "Elia": 2405, "wakker": 22205, "Trevi": 7047, "##schild": 28372, "plots": 17543, "verwijt": 21542, "##CTU": 23251, "scholier": 18724, "##uiz": 29208, "wangedrag": 22223, "principi": 17737, "Luxemburgse": 4505, "stranden": 19656, "waterstof": 22260, "verwaarloos": 21494, "##verbindingen": 29344, "elementaire": 11251, "##gers": 25572, "##sim": 28481, "##rost": 28251, "Derby": 2091, "##paneel": 27687, "Philharmoni": 5595, "##aldus": 23923, "##aanvallen": 23777, "Blackburn": 1280, "gewerkt": 12595, "Sy": 6773, "bizarre": 9612, "claxon": 10186, "##rak": 28003, "gedetineerden": 11964, "##tiek": 28996, "##dactyl": 24778, "daaronder": 10479, "##second": 28435, "lounge": 15196, "Spanjaard": 6570, "##GB": 23353, "reduceren": 18087, "##ink": 26222, "amb": 8437, "gelovig": 12188, "humor": 13516, "##TV": 23687, "Os": 5403, "volksgezondheid": 21845, "Djok": 2168, "metaal": 15558, "##breed": 24461, "##geslacht": 25592, "##juist": 26385, "Ridge": 5981, "bliksemsnel": 9656, "gooi": 12804, "aura": 8632, "beknopt": 8996, "bull": 9993, "lichtte": 15035, "overtreffen": 17168, "Praat": 5726, "begroette": 8914, "##vliegtuig": 29502, "##cap": 24535, "##papier": 27691, "bekentenis": 8979, "speeldag": 19239, "Winston": 7663, "glans": 12725, "expo": 11456, "##hawk": 25882, "Neu": 5143, "##tractie": 29074, "##storing": 28775, "gezonde": 12647, "rommel": 18396, "private": 17747, "ziekenhuizen": 22761, "Pip": 5634, "##rood": 28240, "ongewapend": 16510, "##DM": 23270, "roerend": 18375, "SPD": 6167, "suggereren": 19764, "significant": 18925, "gepland": 12313, "##apparaat": 24019, "##rab": 27985, "Mountain": 4998, "##beuk": 24302, "##\u00f3": 145, "euthanasie": 11396, "District": 2160, "Basketbal": 1082, "hok": 13351, "contra": 10362, "macho": 15279, "##schol": 28381, "eetzaal": 11167, "Yo": 7731, "duizel": 11054, "ondoordringba": 16450, "260": 417, "instabiel": 13773, "180": 230, "troepenmacht": 20370, "zeggenschap": 22691, "what": 22441, "##organisator": 27572, "##slachtoffers": 28514, "beleids": 9052, "Globe": 2981, "soci\u00e9t\u00e9": 19149, "##likker": 26870, "Mahler": 4578, "##mbi": 27071, "Philippe": 5598, "veegde": 20782, "##tijdschrift": 29007, "bezet": 9482, "lente": 14953, "Bis": 1271, "miljardair": 15628, "trage": 20286, "##plex": 27821, "Te": 6834, "##tar": 28895, "2001": 382, "gebukt": 11919, "##splan": 28614, "Jennifer": 3728, "generatie": 12254, "Jaime": 3682, "uitval": 20612, "Erfgoed": 2472, "radicalis": 17949, "mening": 15524, "katalysator": 14141, "##regering": 28068, "Beyonc\u00e9": 1235, "mijl": 15608, "onderzoekend": 16441, "Hoofdpunten": 3444, "glijden": 12738, "tv": 20430, "einde": 11212, "hybride": 13539, "plas": 17497, "hoofdstuk": 13403, "deuren": 10643, "AB": 525, "detective": 10638, "THE": 6793, "Gates": 2825, "reclame": 18061, "specifieke": 19230, "eeuwigheid": 11174, "##uchi": 29170, "Goe": 2989, "##loper": 26957, "uitging": 20557, "Kawa": 3932, "voorzitterschap": 21999, "##ath": 24088, "getrouwd": 12510, "##kov": 26607, "diensten": 10679, "##rui": 28273, "vormde": 22009, "Buddy": 1515, "ijzige": 13603, "strak": 19646, "waartegen": 22187, "cv": 10453, "Draken": 2240, "tekenaar": 19919, "veldrijden": 20815, "White": 7619, "VER": 7178, "bestudeerd": 9293, "##kasteel": 26438, "saldo": 18519, "ont": 16572, "##kovic": 26608, "Peyr": 5588, "Spelers": 6586, "Sail": 6195, "##oppervlakte": 27552, "##rian": 28136, "sikkel": 18927, "Comit\u00e9": 1860, "Gazastrook": 2830, "gekrenkt": 12122, "##kliniek": 26537, "voorafgaande": 21883, "##HS": 23393, "belt": 9076, "postzegel": 17641, "Canadezen": 1613, "Wassenaar": 7542, "##boven": 24446, "dubieuze": 11033, "negentien": 16011, "iedereen": 13585, "Siu": 6465, "controle": 10367, "##thus": 28986, "Defensie": 2068, "##uze": 29281, "maaien": 15250, "##GO": 23368, "##kocht": 26560, "wijs": 22470, "##1877": 23029, "krioel": 14655, "domein": 10827, "Colombiaans": 1850, "##aties": 24094, "##split": 28616, "beleidsmaker": 9053, "ge\u00eberd": 12657, "Namen": 5076, "##aria": 24041, "##zegel": 29859, "Bron": 1484, "Never": 5149, "overstemd": 17160, "ontging": 16597, "##sseldorf": 28659, "Beijing": 1137, "##smith": 28547, "2021": 402, "vermoeid": 21199, "Loterij": 4453, "##haft": 25839, "Mortier": 4986, "mens": 15528, "##dragers": 24936, "deelnemer": 10566, "Rotterdammer": 6097, "bevrucht": 9423, "buffer": 9957, "wankel": 22227, "Kam": 3884, "zure": 22900, "soap": 19137, "stroming": 19697, "1963": 341, "##boezem": 24404, "binnengekomen": 9584, "seksuele": 18854, "Brakel": 1421, "##geruild": 25573, "##aad": 23756, "##gesteld": 25614, "gedumpt": 11997, "Andrej": 792, "letterkunde": 14970, "Lewis": 4332, "##olf": 27428, "Schelde": 6276, "Thomson": 6920, "##OK": 23549, "Russisch": 6140, "opgesteld": 16877, "##alsema": 23945, "##vez": 29446, "##loo": 26942, "inspecteren": 13765, "##uinn": 29196, "zoontje": 22855, "Kabinet": 3872, "##vac": 29290, "machtsmisbruik": 15287, "zuidelijk": 22877, "snot": 19130, "strafbaar": 19638, "##fase": 25241, "ritme": 18341, "##gewandeld": 25663, "fregat": 11735, "VNO": 7185, "dankbaarheid": 10520, "onwillig": 16758, "brandweer": 9867, "dividend": 10767, "oudsher": 17062, "##gestampt": 25611, "Tab": 6803, "vingers": 21682, "beide": 8962, "gravel": 12860, "opnemen": 16931, "leunstoel": 14983, "fase": 11525, "Schra": 6312, "krukken": 14694, "bolwerk": 9750, "linie": 15102, "combineer": 10227, "Herschel": 3333, "dringende": 10986, "marechaussee": 15366, "correct": 10383, "##ionisme": 26251, "##detective": 24835, "ge\u00efnformeerd": 12676, "begroeiing": 8910, "Bethlehem": 1220, "Nada": 5070, "Noctu": 5218, "Zou": 7821, "opgerold": 16869, "trechter": 20330, "##TS": 23685, "hermetisch": 13230, "mishandeld": 15680, "Tesla": 6882, "Evi": 2529, "Zuid": 7826, "Mi": 4828, "waardevol": 22160, "toevallig": 20199, "tuin": 20406, "vooroorlogs": 21934, "Mach": 4551, "toen": 20162, "Frei": 2750, "##PLA": 23589, "Chap": 1722, "archeologie": 8542, "rituele": 18345, "hielden": 13274, "gezwo": 12654, "opgezet": 16887, "Braziliaan": 1433, "Fenerbah": 2609, "Meulen": 4819, "##verklaard": 29378, "ontsteld": 16663, "Maleisi\u00eb": 4593, "vaar": 20678, "##down": 24924, "veulen": 21624, "##vroren": 29600, "##kam": 26405, "moet": 15743, "adviseer": 8204, "##pongia": 27851, "schrijft": 18779, "onbezorgd": 16345, "gehucht": 12077, "Jerom": 3733, "Conrad": 1894, "Benedict": 1167, "sociaal": 19139, "##uren": 29247, "autonome": 8652, "la": 14769, "studioalbum": 19728, "biljoen": 9572, "Concurrent": 1883, "overwegen": 17181, "Ran": 5851, "brein": 9883, "installaties": 13775, "vastgoed": 20762, "terugbetaald": 20003, "##zich": 29883, "Kompany": 4077, "teloor": 19956, "schakel": 18589, "Kennelijk": 3957, "##hum": 26023, "Fire": 2648, "vooruitgang": 21980, "definitie": 10577, "page": 17212, "herberg": 13192, "vrouw": 22098, "tekent": 19925, "wateroppervlak": 22256, "##korf": 26598, "Ah": 659, "Monument": 4966, "kleren": 14339, "Betuwe": 1224, "##DR": 23274, "##gezonderd": 25700, "kok": 14478, "epo": 11313, "zweten": 22951, "19": 276, "bejaarde": 8964, "wekte": 22338, "plunderen": 17552, "Medio": 4749, "Verzekeraar": 7337, "Boeck": 1321, "Balk": 1043, "historie": 13310, "meisjes": 15500, "Kon": 4079, "Mur": 5017, "stuurboord": 19742, "houding": 13461, "schort": 18754, "over": 17071, "grauw": 12858, "Reeve": 5897, "##trokken": 29115, "Dode": 2179, "##\u00e9s": 29975, "gesloopt": 12434, "schilderijen": 18698, "##gar": 25368, "##muren": 27234, "cre\u00eberde": 10423, ":": 25, "Bruinsma": 1500, "Vecht": 7244, "heffing": 13136, "##palm": 27684, "voorgelegd": 21909, "Pay": 5532, "Tamil": 6819, "##rang": 28016, "##bedacht": 24199, "apr": 8526, "lege": 14917, "Haarlemmer": 3143, "sta": 19368, "bevindingen": 9397, "openings": 16833, "Loper": 4445, "##check": 24579, "##uentin": 29180, "Buggenhout": 1519, "kurk": 14722, "##wekkend": 29682, "Toon": 7009, "klasse": 14303, "verbetering": 20864, "worsteling": 22600, "Toch": 6985, "##tech": 28906, "Papa": 5483, "Onbe": 5324, "Waal": 7493, "snelste": 19115, "onaanvaardbaar": 16307, "Eugene": 2497, "Poe": 5673, "begane": 8880, "merkwaardige": 15553, "##CB": 23233, "225": 408, "61": 472, "behandel": 8925, "##bestaan": 24283, "##zakken": 29842, "Cant": 1618, "Kor": 4101, "Californische": 1590, "Peri": 5562, "repeteren": 18218, "with": 22535, "bevriezen": 9418, "Sicili\u00eb": 6424, "stak": 19400, "deftig": 10581, "bedrukt": 8849, "videobeeld": 21636, "Hiermee": 3357, "sec": 18835, "Lord": 4448, "geesten": 12010, "ervaren": 11361, "##anke": 23994, "##dzj": 24996, "Zwaan": 7838, "Lulu": 4494, "brug": 9933, "Yang": 7721, "vloeide": 21750, "Wet": 7609, "Paus": 5528, "sound": 19194, "##assa": 24072, "Moir": 4935, "##segment": 28438, "##sterkt": 28734, "##songfestival": 28577, "weinig": 22330, "Afwezig": 645, "focusse": 11661, "schoot": 18746, "velen": 20819, "interview": 13843, "leiden": 14929, "afleveringen": 8288, "dorpje": 10913, "##VC": 23714, "Memphis": 4785, "samengewerkt": 18528, "Mos": 4988, "Mun": 5014, "luisteraars": 15228, "caf\u00e9s": 10043, "naartoe": 15894, "poppen": 17606, "verlengen": 21140, "##gesloten": 25598, "krankzinnige": 14617, "script": 18831, "dode": 10785, "##schot": 28393, "schudden": 18799, "##concludeerd": 24692, "##zetel": 29876, "kaarten": 14028, "feestelijk": 11546, "monster": 15780, "Exc": 2531, "behage": 8922, "ruimtevaart": 18472, "Goede": 2991, "bekerfinale": 8981, "##ips": 26256, "wettelijk": 22435, "##pora": 27859, "hecht": 13108, "regen": 18115, "kluwen": 14388, "##schoenen": 28379, "##gevoegd": 25649, "Linnaeus": 4395, "##yns": 29822, "##BP": 23222, "Standaard": 6632, "##anni": 23997, "be\u00efnvloeden": 9527, "geoorloofd": 12288, "geplunderd": 12316, "promoten": 17819, "##ors": 27582, "triatlon": 20353, "beleven": 9058, "##doening": 24898, "constatering": 10337, "definitief": 10578, "driftig": 10978, "steunde": 19521, "##vormen": 29571, "##ridge": 28153, "neerbuigend": 15988, "Zul": 7831, "internaat": 13832, "Patroon": 5521, "ontsnappen": 16651, "diersoort": 10702, "natte": 15954, "Li": 4336, "ook": 16779, "Wist": 7671, "kans": 14085, "##boten": 24437, "samenvatting": 18534, "verafschuw": 20835, "zogenaamd": 22811, "##okia": 27421, "Spaans": 6565, "ontploft": 16637, "bekijken": 8984, "akelige": 8373, "gevoegd": 12554, "Frederick": 2744, "UTRECHT": 7131, "systemen": 19812, "blokkade": 9683, "ongewis": 16515, "##TB": 23667, "Michiel": 4840, "##sap": 28305, "koppig": 14552, "behield": 8943, "voogdij": 21876, "##add": 23834, "Zomer": 7809, "Londen": 4437, "##heten": 25927, "divers": 10764, "##begroting": 24222, "studio": 19727, "zovele": 22870, "##bl": 24354, "bevel": 9384, "uitvoering": 20623, "assisen": 8603, "##ramp": 28011, "Dro": 2253, "prikte": 17728, "mos": 15811, "uitgezet": 20554, "bilateral": 9570, "ingaan": 13696, "vooruitzicht": 21982, "nakomelingen": 15929, "Art": 915, "integrale": 13800, "globale": 12755, "verdelen": 20920, "Suzuki": 6763, "##gger": 25707, "machinegewe": 15276, "1": 16, "##ito": 26308, "Rio": 6002, "aanstaande": 7989, "Katie": 3925, "Internationale": 3609, "Zit": 7802, "##haas": 25835, "##ontschuldigend": 27500, "begrafenis": 8898, "vrienden": 22056, "Support": 6751, "##DV": 23278, "Toulouse": 7026, "##ovic": 27648, "gekwetst": 12132, "##nette": 27294, "Ott": 5411, "##oppervlak": 27551, "schizofre": 18714, "##agh": 23886, "##kenner": 26454, "Witte": 7675, "Vogel": 7418, "distributie": 10759, "dinsdagavond": 10730, "Lo": 4418, "langwerpig": 14852, "##gestopt": 25619, "##bo": 24391, "##street": 28800, "zul": 22895, "opperde": 16937, "slim": 19022, "##oet": 27391, "presentatie": 17690, "Rijd": 5988, "gestraft": 12478, "stralende": 19651, "verstaan": 21367, "##GR": 23369, "meest": 15483, "ongelovig": 16484, "Provincie": 5774, "\u00e9n": 22975, "professional": 17788, "##iviteit": 26325, "roof": 18413, "WTC": 7488, "Hang": 3186, "Hannover": 3192, "naadlo": 15886, "Wood": 7694, "status": 19447, "verloskundige": 21165, "kever": 14225, "aanpakken": 7968, "Ariel": 891, "##EEFT": 23288, "Pop": 5700, "Hahaha": 3159, "Filips": 2636, "voorkeur": 21918, "stilstaand": 19557, "##gebergte": 25388, "Hilar": 3364, "##trein": 29095, "gewelddadige": 12588, "Batavia": 1089, "##sluier": 28534, "zult": 22899, "sorr": 19190, "afdoend": 8221, "moeilijker": 15731, "papieren": 17246, "##str\u00f6m": 28822, "Zeebrugge": 7772, "complot": 10275, "NBA": 5045, "glazen": 12731, "##lina": 26876, "Gistel": 2966, "##ac": 23801, "##visie": 29480, "titels": 20122, "wrede": 22609, "##appel": 24022, "##atar": 24083, "##tarieven": 28897, "plundering": 17553, "##\u00ef": 144, "mol": 15754, "neerleggen": 15996, "smeken": 19077, "markie": 15380, "Bolivia": 1339, "Rijkaard": 5990, "keert": 14159, "Staal": 6617, "##PD": 23577, "hieronder": 13284, "##kle": 26520, "Saar": 6174, "Sterren": 6672, "vastzitten": 20769, "##lij": 26857, "tegenover": 19907, "Catherine": 1674, "##hol": 25962, "##begrip": 24221, "potentieel": 17645, "straten": 19660, "apotheker": 8516, "##gedacht": 25414, "aanhang": 7936, "##berger": 24262, "averechts": 8662, "##ERS": 23321, "beul": 9360, "griste": 12899, "Sudan": 6737, "sauna": 18558, "inbraken": 13648, "branding": 9862, "Middellandse": 4853, "overblijven": 17076, "prost": 17831, "##ho": 25948, "Kapelle": 3900, "Theatre": 6904, "Flynn": 2682, "provincies": 17849, "##zender": 29872, "datum": 10535, "trant": 20320, "Garros": 2818, "klam": 14289, "aanvoelen": 8021, "Ela": 2392, "Water": 7545, "rokers": 18382, "gerechtigheid": 12343, "koestert": 14468, "knikje": 14415, "##eniveau": 25119, "##71": 23127, "Fleming": 2661, "aansporing": 7985, "Italiaanse": 3652, "##ceae": 24549, "51": 458, "Bat": 1087, "liefst": 15056, "Hulst": 3492, "Sport": 6603, "toegepast": 20142, "##oid": 27408, "Jacobs": 3676, "##EH": 23296, "nationaal": 15947, "meebreng": 15455, "Kot": 4116, "baantje": 8678, "Lied": 4352, "Con": 1878, "bieden": 9538, "beheren": 8942, "Caesar": 1584, "koesterde": 14466, "##aglia": 23888, "Company": 1875, "##gegeven": 25441, "##nica": 27309, "muggensoort": 15839, "ID": 3516, "prop": 17827, "GroenLinks": 3075, "dank": 10518, "stekel": 19471, "Masa": 4686, "zeuren": 22742, "verdeeldheid": 20919, "Zeventien": 7787, "vecht": 20776, "##iale": 26038, "Kuifje": 4155, "Coalitie": 1828, "ge\u00efmporteerd": 12672, "Buma": 1529, "kilo": 14252, "terwijl": 20031, "Randall": 5853, "##ambu": 23956, "kenmerkt": 14178, "managers": 15336, "denkbeeld": 10610, "Stads": 6624, "Juni": 3842, "##stigma": 28744, "Hongarije": 3437, "##vijftig": 29461, "profeet": 17787, "##flakker": 25292, "##DE": 23260, "DJ": 1995, "wie": 22445, "vrachtschip": 22028, "nuttig": 16164, "bondskanselier": 9765, "##rijke": 28169, "boter": 9816, "Bobby": 1315, "nijdig": 16078, "ouderwets": 17059, "##afdeling": 23863, "vermelden": 21178, "Tour": 7027, "##atrice": 24104, "Jud": 3823, "##blauw": 24363, "##pje": 27789, "##want": 29642, "hakken": 13004, "Rwanda": 6149, "kwaadaardig": 14733, "Kad": 3874, "Peking": 5541, "##lijnen": 26865, "##sign": 28476, "starend": 19433, "berekening": 9155, "##groot": 25804, "adjunct": 8186, "tijdstip": 20100, "praatte": 17660, "this": 20066, "smoor": 19094, "##dimensional": 24860, "##ol": 27424, "heersen": 13126, "##vormig": 29572, "##tram": 29081, "we": 22264, "wezens": 22440, "Hoofddorp": 3443, "zodat": 22799, "zij": 22772, "uitzenden": 20634, "##mische": 27150, "Spoor": 6601, "aanstaarde": 7990, "huilt": 13478, "vervangt": 21462, "knagen": 14394, "##rekenen": 28084, "bromfiets": 9918, "##duc": 24971, "##tapijt": 28894, "Sou": 6557, "##thes": 28980, "##LT": 23480, "pro": 17752, "Politiek": 5688, "uitzag": 20631, "##istisch": 26295, "impuls": 13642, "voelen": 21794, "provincie": 17848, "##rog": 28226, "Sher": 6407, "civiel": 10178, "Europees": 2510, "helikopters": 13171, "##ung": 29233, "herbe": 13191, "verkeersongeluk": 21072, "balie": 8709, "enorm": 11297, "woonruimte": 22581, "##verzamelaar": 29434, "opzichte": 17009, "chemisch": 10130, "oostkant": 16802, "kamers": 14064, "##bezorger": 24330, "2003": 384, "behaalde": 8920, "donderend": 10841, "##mark": 27047, "Mont": 4960, "Zwi": 7852, "Baron": 1073, "inspanning": 13763, "reikte": 18154, "aftreden": 8329, "##rose": 28249, "Carlos": 1640, "vloeken": 21756, "##N": 101, "ingedeeld": 13700, "##bank": 24173, "losgelaten": 15185, "##vader": 29291, "##ski": 28503, "Kunnen": 4161, "taart": 19819, "geassocieerd": 11854, "marginale": 15369, "##rance": 28013, "kuit": 14705, "BE": 999, "##beke": 24233, "##mars": 27051, "##wedstrijd": 29662, "##lei": 26759, "Enrique": 2458, "Saw": 6255, "##cha": 24571, "Half": 3165, "##gezet": 25691, "Bijna": 1249, "stuk": 19734, "spellen": 19260, "Jans": 3698, "artillerie": 8585, "politieauto": 17578, "Mili": 4870, "voertuigen": 21801, "##rank": 28017, "overleed": 17129, "intensive": 13815, "minder": 15638, "##demonstreerd": 24821, "##bonnen": 24414, "effectief": 11180, "##sio": 28488, "vraagt": 22024, "ruggen": 18453, "onttrokken": 16668, "accu": 8093, "##rentree": 28106, "weerkaatst": 22296, "##strooi": 28814, "smalend": 19065, "hou": 13457, "##droog": 24961, "entree": 11304, "opsporings": 16968, "berichten": 9161, "##nek": 27282, "landings": 14832, "Rhan": 5957, "##ddin": 24800, "jagen": 13921, "##tti": 29134, "natrium": 15953, "zweem": 22939, "Speciaal": 6578, "sportwagen": 19330, "Sybil": 6774, "##eau": 24999, "##mann": 27038, "structuur": 19714, "geding": 11969, "Stor": 6697, "Du": 2263, "eerder": 11155, "geblokkeerd": 11883, "ingestort": 13717, "fascineer": 11521, "Heart": 3240, "fors": 11695, "ge\u00efntroduceerd": 12684, "hoofdklasse": 13388, "versie": 21332, "weemoedig": 22289, "duel": 11034, "##UWE": 23709, "Guy": 3120, "ofwel": 16218, "Grave": 3044, "extreme": 11470, "Clo": 1821, "prof": 17786, "Ferguson": 2613, "beurs": 9361, "rauw": 17998, "##ingenieur": 26211, "heropend": 13236, "Collectie": 1843, "hechten": 13109, "duwen": 11082, "Gesprek": 2914, "##NNEN": 23523, "Maleisisch": 4592, "homohuwelijk": 13365, "vicepremier": 21631, "verzet": 21585, "##NPO": 23526, "tussenbeide": 20423, "Vijftig": 7357, "concentreerde": 10290, "tips": 20116, "##genre": 25536, "stabiliteit": 19387, "verzeild": 21575, "##IES": 23406, "##functionaris": 25348, "##ille": 26177, "##zal": 29843, "begroeid": 8909, "Academisch": 591, "feestdagen": 11545, "wereldkampioen": 22373, "plo": 17531, "turbo": 20416, "Adriaan": 620, "Marlo": 4665, "mokken": 15753, "trein": 20338, "verhuisde": 21054, "Achter": 598, "##situatie": 28494, "##auw": 24124, "vraagtekens": 22025, "sur": 19783, "speelgoed": 19242, "mast": 15400, "toeschouwer": 20181, "##ci": 24613, "onthoofd": 16603, "Portugees": 5709, "Jette": 3743, "##ra": 27977, "Dordtse": 2218, "EEN": 2309, "mompel": 15761, "Clooney": 1822, "miljoen": 15630, "Ik": 3559, "Rice": 5970, "##olo": 27434, "buiten": 9967, "computers": 10285, "##lain": 26692, "ernaar": 11344, "overname": 17146, "Wid": 7623, "Vlissingen": 7406, "prognose": 17803, "selecte": 18857, "##motoren": 27213, "tweeling": 20441, "##mor": 27202, "##middels": 27131, "marmer": 15385, "gezicht": 12636, "Tolo": 6997, "subtiel": 19755, "Wolkers": 7687, "getuigen": 12515, "zinken": 22785, "rij": 18304, "##50cc": 23103, "##SG": 23639, "##bes": 24270, "geplaatste": 12311, "koe": 14450, "minuut": 15666, "paddenstoel": 17210, "voorzichtig": 21993, "vierentwintig": 21644, "Hooijdonk": 3453, "th": 20046, "duivel": 11051, "Lanka": 4229, "Juliana": 3832, "dementerende": 10597, "##auber": 24111, "##don": 24906, "##mie": 27133, "##49": 23099, "Ali": 713, "Evert": 2527, "terugkomen": 20021, "##isatie": 26268, "##operatie": 27539, "treden": 20332, "##ios": 26253, "beschutting": 9224, "Sinds": 6455, "Vierde": 7353, "vulde": 22118, "Salomon": 6205, "overzichtelijk": 17195, "taboe": 19826, "Nepal": 5132, "Vrolijk": 7472, "Schouw": 6310, "##stegen": 28717, "Patrick": 5518, "Koerdisch": 4063, "rusten": 18490, "hoofdrolspeler": 13399, "gekwalificeerd": 12129, "##loosheid": 26951, "genie": 12264, "verdiend": 20926, "voorbeeld": 21889, "Noah": 5214, "gecompliceerd": 11924, "20ste": 403, "Architect": 876, "audit": 8627, "##boerderij": 24402, "Jong": 3786, "gevonden": 12565, "vervolgd": 21477, "##kennis": 26455, "boswachter": 9812, "Man": 4606, "handbal": 13025, "##EE": 23287, "verspild": 21358, "korte": 14568, "gehes": 12065, "direct": 10738, "##ijns": 26158, "factoren": 11489, "telefoongesprek": 19939, "hardware": 13073, "##fant": 25238, "Lehman": 4286, "invasie": 13864, "NBC": 5046, "kreunde": 14636, "vanuit": 20736, "##ias": 26045, "##rutha": 28292, "Char": 1723, "Werchter": 7583, "tape": 19863, "plomp": 17539, "schopte": 18749, "vergaderingen": 20989, "bewonderend": 9466, "Gulden": 3109, "##bekend": 24234, "nou": 16151, "biolog": 9596, "knor": 14439, "##ANG": 23183, "##eerbare": 25021, "##klomp": 26540, "Pall": 5469, "chassis": 10122, "Gino": 2959, "Lily": 4377, "Borg": 1367, "boosaardig": 9789, "stellen": 19478, "AFM": 534, "##bezoekers": 24329, "mosdiertjes": 15812, "Internationaal": 3607, "doelsaldo": 10805, "verspreiden": 21363, "spoelde": 19304, "operatione": 16841, "VOOR": 7188, "uitzendkracht": 20636, "mal": 15323, "sombere": 19176, "Hi": 3351, "Gabriel": 2792, "transformatie": 20314, "Telegraaf": 6854, "ge\u00efnstalleerd": 12678, "##VEL": 23717, "toonbeeld": 20235, "Vandenbroucke": 7232, "Commissaris": 1866, "begraven": 8899, "religieus": 18187, "klip": 14365, "schim": 18703, "ministers": 15656, "pand": 17232, "vliesvleugelig": 21743, "ondertoon": 16421, "Raak": 5822, "dictee": 10668, "kil": 14250, "Dir": 2151, "doof": 10865, "nauwkeurig": 15968, "bv": 10030, "##oefening": 27385, "##kleurig": 26532, "schoof": 18729, "##TM": 23677, "motorfiets": 15829, "Kofi": 4068, "behendig": 8941, "opvallende": 16989, "herover": 13237, "hup": 13520, "onmiskenba": 16537, "rijk": 18311, "gerimpeld": 12367, "voelt": 21795, "Computer": 1876, "Stockholm": 6689, "Berlijn": 1193, "vriendelijke": 22055, "##chem": 24582, "etmaal": 11386, "hijgde": 13292, "##ondoorgrondelijk": 27469, "1958": 336, "##liberalism": 26820, "##IOC": 23427, "logeer": 15138, "dozijn": 10927, "Reis": 5918, "onvrede": 16745, "moment": 15759, "##verslag": 29415, "glad": 12722, "uitreiking": 20583, "##vloei": 29512, "Cham": 1712, "Nell": 5126, "tafeltennis": 19833, "Bil": 1252, "select": 18856, "buitenste": 9983, "antiek": 8500, "##sturing": 28835, "toegankelijk": 20137, "Mess": 4812, "VWS": 7200, "J\u00f6rg": 3855, "##ELT": 23307, "Woluwe": 7689, "##plein": 27817, "econom": 11119, "##salon": 28304, "Chan": 1718, "##weekend": 29668, "1990": 368, "gelaat": 12133, "aanbrengen": 7870, "levenslang": 14995, "##ieel": 26094, "##spatten": 28589, "bestudeer": 9292, "opwekken": 17001, "beklimming": 8994, "verwijderd": 21537, "grenzen": 12871, "Bos": 1376, "aderen": 8184, "beller": 9064, "##dief": 24846, "fraai": 11718, "gestaakt": 12459, "controverse": 10373, "knie": 14409, "Habsburg": 3150, "Rompuy": 6064, "doeken": 10792, "rechtsomkeer": 18052, "oordeelde": 16783, "##angenaam": 23986, "landbouwproduct": 14821, "scouts": 18829, "Eurovisie": 2513, "joch": 13955, "##arium": 24044, "Orleans": 5399, "##fke": 25291, "##structuur": 28820, "lachen": 14788, "Pell": 5543, "rechtsback": 18050, "Eugeni": 2498, "##pac": 27671, "Hindoe": 3373, "witte": 22536, "##gereden": 25560, "##potten": 27874, "##ult": 29222, "##opoulos": 27548, "evacuatie": 11398, "individueel": 13668, "audio": 8626, "tabloid": 19825, "auteur": 8634, "Keizer": 3943, "uitsluitend": 20592, "##incident": 26195, "Zyg": 7860, "referentie": 18096, "##azz": 24143, "##read": 28039, "intense": 13811, "ontlopen": 16623, "vertrekt": 21438, "ongegrond": 16471, "geslacht": 12429, "##vin": 29469, "verzorgde": 21601, "verhuurd": 21061, "##AV": 23203, "##ID": 23401, "##PRO": 23596, "##zette": 29877, "##stru": 28817, "##velden": 29331, "centralis": 10103, "Moer": 4924, "##vard": 29307, "country": 10398, "Micro": 4845, "##rijp": 28170, "##waardering": 29623, "Natash": 5087, "##gestaan": 25610, "##grepen": 25789, "onderscheiding": 16405, "##dustrieel": 24989, "aardig": 8049, "aflopen": 8291, "Zelzate": 7783, "ineenge": 13678, "1795": 227, "slopen": 19038, "##irk": 26263, "2008": 389, "##voorstelling": 29562, "4x100": 454, "vriendje": 22060, "Ek": 2390, "slokje": 19034, "vandaan": 20727, "##snoods": 28562, "Symfonie": 6781, "Hir": 3375, "instelling": 13779, "Camera": 1602, "und": 20648, "Vlamingen": 7396, "Vers": 7321, "hetzelfde": 13263, "##home": 25968, "Colorado": 1851, "medeplichtig": 15438, "voelde": 21793, "##schik": 28370, "teweeg": 20042, "##ifera": 26123, "Mad": 4558, "versterken": 21377, "ijskoud": 13596, "##ense": 25123, "##dschap": 24969, "groeien": 12903, "Passa": 5509, "##hoff": 25958, "##ri\u00ebl": 28200, "##geklaagd": 25465, "##foto": 25327, "Fat": 2585, "##spraak": 28627, "M\u00f6lle": 5040, "vijf": 21658, "palp": 17229, "oblast": 16176, "spion": 19286, "Eindhovense": 2387, "hardst": 13072, "##betuiging": 24301, "Wag": 7505, "overwinningen": 17188, "tolere": 20218, "##brood": 24483, "##pid": 27767, "duidelijker": 11039, "hy": 13538, "##uitrusting": 29204, "##DS": 23275, "##iff": 26124, "Tur": 7095, "kunsthistoric": 14714, "bloemlezing": 9678, "Augustus": 960, "Wiegel": 7626, "##gebruik": 25410, "mijlpa": 15610, "kansarme": 14086, "blaas": 9616, "voel": 21791, "Drongen": 2255, "vertraagd": 21432, "Lach": 4197, "Mail": 4581, "gevechten": 12538, "lampje": 14814, "verbinden": 20871, "Pepsi": 5556, "onvriendelijk": 16746, "Macedoni\u00eb": 4550, "##laten": 26723, "dusver": 11072, "begint": 8894, "zeebodem": 22675, "Smi": 6507, "bewoners": 9468, "broze": 9932, "vergroot": 21021, "teugels": 20038, "Crystal": 1966, "tomaat": 20220, "verslavend": 21344, "##werkzaamheden": 29703, "Praag": 5725, "Roda": 6025, "##ouder": 27617, "Hockey": 3390, "ruimschoots": 18466, "krakers": 14613, "verrijken": 21288, "sneeuwstorm": 19110, "##kop": 26592, "gepast": 12304, "##taart": 28870, "bezat": 9479, "hectare": 13112, "Janeiro": 3693, "##kiezen": 26478, "Stravinsky": 6711, "Martijn": 4677, "produceren": 17776, "##ca": 24521, "Macron": 4557, "totdat": 20258, "weddenschap": 22270, "1954": 332, "bekendmaking": 8975, "##500": 23101, "##bella": 24248, "##raket": 28006, "Omar": 5316, "farmaceutisch": 11517, "uitkering": 20561, "##slaag": 28509, "acute": 8171, "Ding": 2147, "vereenzelvig": 20966, "Vak": 7208, "98": 519, "Veneti\u00eb": 7271, "Volvo": 7435, "omwenteling": 16292, "voorstander": 21954, "##FC": 23339, "schimmel": 18704, "glibberig": 12735, "kocht": 14449, "##wassen": 29651, "Southern": 6561, "gu": 12963, "Faith": 2565, "manoeuvre": 15356, "eieren": 11191, "stimuleer": 19563, "##atief": 24093, "people": 17368, "##oren": 27566, "##dus": 24988, "wildcard": 22484, "portret": 17626, "hoorn": 13432, "##evenement": 25214, "##vervolging": 29430, "knarsen": 14401, "DE": 1992, "Ronde": 6069, "##zend": 29871, "##taal": 28868, "Tyr": 7121, "##armate": 24048, "arbeidsplaats": 8536, "gemis": 12225, "benoeming": 9112, "mollig": 15758, "##begeleider": 24217, "Second": 6344, "##drijven": 24950, "sjamaan": 18948, "ballad": 8713, "uitbreid": 20481, "voetbalclub": 21805, "##dom": 24904, "SK": 6165, "Gill": 2951, "lokale": 15150, "Newton": 5153, "marcheerde": 15363, "synoniem": 19807, "voortvloei": 21975, "##gevel": 25642, "kapel": 14102, "behandeling": 8929, "##old": 27426, "Doorgaan": 2213, "190": 277, "vermist": 21193, "relaties": 18177, "##minste": 27145, "##ock": 27374, "##liga": 26851, "Samso": 6216, "doctor": 10780, "walvissen": 22211, "zyn": 22968, "Poll": 5689, "reikt": 18153, "##officier": 27397, "verontrustend": 21235, "manipuleren": 15348, "1938": 316, "##ctin": 24740, "##rif": 28160, "Edmond": 2347, "kunstenaars": 14711, "zigeuner": 22770, "stel": 19474, "blijven": 9650, "agenten": 8363, "##ogenblikken": 27401, "##voeg": 29527, "zeespiegel": 22680, "Picasso": 5609, "Serge": 6371, "##stuurt": 28839, "##uitbreiding": 29199, "Brandenburg": 1425, "Waaro": 7498, "ontcijfer": 16583, "Mam": 4603, "Minerva": 4885, "##1855": 23017, "##jak": 26351, "Agnes": 655, "Zan": 7761, "kwispel": 14768, "nietszeggend": 16061, "schrille": 18788, "##roc": 28214, "##zien": 29891, "Rutte": 6146, "Terri": 6876, "##her": 25917, "##mmers": 27163, "adviseren": 8206, "FM": 2550, "Jood": 3791, "vier": 21640, "Pitt": 5641, "scepter": 18567, "neerstorten": 16000, "##baard": 24149, "wolf": 22555, "massamoord": 15395, "##luizen": 26975, "intensiteit": 13814, "complexe": 10271, "zoog": 22850, "##kandidate": 26417, "alternatieve": 8427, "uiterst": 20499, "groeide": 12902, "Ken": 3951, "Gemma": 2868, "##singel": 28483, "kaliber": 14048, "centrale": 10102, "geloofde": 12183, "Mandela": 4611, "##prille": 27903, "##rica": 28141, "dikwijls": 10720, "onbepaald": 16329, "ontkennen": 16614, "##aris": 24043, "##houwer": 26004, "vergelijk": 20999, "##hou": 25992, "Hendrik": 3301, "tijdje": 20094, "Jolie": 3781, "gevecht": 12537, "##ok": 27417, "##verkrachter": 29383, "Armand": 900, "fascisme": 11523, "##sco": 28423, "##gunstig": 25818, "know": 14442, "Gebruik": 2832, "England": 2453, "Red": 5893, "kaft": 14041, "##hold": 25963, "colonne": 10220, "##schoon": 28388, "Adolf": 618, "R": 44, "tent": 19971, "terroristen": 19999, "bewoording": 9473, "gezworen": 12655, "##kritiek": 26632, "tapijt": 19864, "##los": 26962, "9000": 511, "abonnees": 8065, "voedingsbodem": 21785, "Rijsel": 5997, "Abel": 580, "zocht": 22797, "Brusselse": 1505, "gangen": 11808, "##rush": 28289, "##sah": 28300, "vermoed": 21195, "overdekte": 17082, "Cloud": 1824, "St\u00e9phan": 6731, "##ECT": 23284, "omgevormd": 16253, "evenementen": 11406, "brommer": 9919, "vermijd": 21184, "Elfen": 2403, "omzetten": 16297, "Rijksmuseum": 5992, "zuidwestelijke": 22885, "onderbrak": 16353, "##kundige": 26650, "strijden": 19683, "##gezonden": 25699, "Haupt": 3220, "##ano": 23999, "helper": 13179, "Helio": 3286, "bevestiging": 9393, "##ectie": 25010, "goud": 12815, "##relativ": 28091, "internetsite": 13838, "##maat": 27004, "##elaars": 25060, "Troost": 7060, "Wiebe": 7625, "verdrongen": 20949, "Bolle": 1341, "Bl": 1277, "Herr": 3331, "Ron": 6065, "Well": 7574, "app": 8517, "konvooi": 14520, "regentschap": 18123, "schreef": 18769, "aangevoerd": 7925, "Igor": 3558, "baron": 8749, "behorend": 8956, "##urg": 29249, "smeden": 19070, "beleving": 9059, "spelletjes": 19262, "vaak": 20675, "1949": 327, "wijzigingen": 22480, "Dani\u00ebl": 2038, "fluwel": 11658, "In": 3570, "Ang": 799, "##tuig": 29139, "werpen": 22412, "organisator": 17028, "Kamerverkiezing": 3889, "basale": 8757, "fietspad": 11576, "Madeleine": 4563, "steekt": 19462, "beeldhouw": 8859, "behandelt": 8930, "again": 8360, "##opbouw": 27534, "bakboord": 8699, "knikt": 14418, "Palearctisch": 5462, "Vroeger": 7471, "herhaling": 13212, "commun": 10248, "##klik": 26534, "Reach": 5875, "Pools": 5697, "vak": 20697, "##vlak": 29489, "bezuinigd": 9512, "##iller": 26179, "stol": 19589, "verkeerd": 21069, "Luciano": 4478, "##igan": 26135, "reling": 18190, "xtc": 22627, "##idida": 26084, "mirakel": 15668, "wanhoop": 22224, "verstrakte": 21394, "astrono": 8612, "champignon": 10111, "##yra": 29824, "heftig": 13138, "##ientje": 26106, "borst": 9801, "##hamed": 25853, "Cu": 1967, "vooraleer": 21885, "Too": 7008, "biologische": 9599, "120": 190, "##wacht": 29626, "Onderzoek": 5334, "bezoekt": 9506, "##SH": 23640, "borden": 9795, "Sever": 6387, "kopbal": 14538, "##magne": 27018, "Sh": 6390, "1880": 258, "belastingvrij": 9031, "rund": 18483, "##ura": 29245, "Scheidsrechter": 6274, "Scott": 6334, "verbazen": 20853, "Tienduizend": 6943, "Who": 7621, "heerlijkheid": 13124, "verzekeraar": 21577, "gebrekkige": 11904, "plant": 17493, "gokke": 12793, "##huwelijk": 26030, "begrensd": 8900, "SBS": 6158, "extremisme": 11471, "gedreig": 11988, "invulling": 13880, "misdrijven": 15678, "Markt": 4660, "prooi": 17825, "ondertussen": 16422, "##vernieuwing": 29398, "##verplichting": 29405, "stonden": 19597, "##BU": 23226, "kanten": 14092, "Serena": 6370, "Chlor": 1756, "Kerkhof": 3965, "eindpunt": 11222, "poep": 17561, "inbraak": 13647, "hevige": 13271, "opeens": 16815, "slungel": 19055, "receptie": 18031, "##peda": 27720, "kleding": 14316, "hernoemd": 13234, "Deventer": 2105, "gazon": 11839, "voorzichtigheid": 21994, "kwalificeerde": 14738, "Fergus": 2612, "S\u00e9basti": 6790, "oud": 17050, "eerbeto": 11151, "Sap": 6236, "ongunstig": 16521, "Jur": 3846, "multinational": 15848, "klusjes": 14386, "Larsson": 4236, "hoog": 13407, "hogeschool": 13350, "##nie": 27312, "Vijf": 7355, "Zanger": 7764, "getuigenis": 12516, "ruim": 18462, "bevriend": 9417, "Gelet": 2853, "##aba": 23789, "kerken": 14194, "onuitputtelijk": 16711, "Hendrix": 3302, "Otto": 5413, "reed": 18089, "rooskleurig": 18424, "##gescheurd": 25582, "noordelijk": 16121, "Gideon": 2943, "##commissaris": 24675, "beving": 9398, "##kampioen": 26410, "remake": 18195, "##KER": 23444, "draken": 10944, "##nster": 27352, "Seks": 6354, "##vleugelig": 29498, "R\u00e9": 6154, "bereikt": 9149, "Iemand": 3551, "dokter": 10816, "schoten": 18757, "resulteerde": 18260, "prachtige": 17663, "Century": 1701, "ovatie": 17070, "##ven": 29333, "z\u00f3": 22970, "##ckaert": 24635, "menukaart": 15542, "Zwaar": 7839, "##podia": 27833, "Nouvelle": 5251, "aansprak": 7986, "sc\u00e8ne": 18834, "##ul": 29213, "geamuseerd": 11848, "Limburg": 4380, "onderdrukken": 16362, "spektakel": 19253, "##wiel": 29727, "/": 14, "Dre": 2242, "inwendige": 13882, "onderaards": 16350, "authentic": 8637, "Middeleeuwen": 4851, "beteken": 9318, "sleutels": 19011, "toeter": 20191, "al": 8378, "##hin": 25941, "kopje": 14545, "##aks": 23915, "gravin": 12862, "Baz": 1100, "Marin": 4647, "verrekt": 21284, "Richie": 5973, "waardeloos": 22156, "Claude": 1803, "##ceps": 24560, "Jerry": 3734, "entertainment": 11300, "Oh": 5294, "flamboyant": 11627, "geborduurd": 11893, "ondergoed": 16371, "ontruimd": 16646, "beschreven": 9213, "Winterspelen": 7665, "magi\u00ebr": 15301, "##gebouwde": 25403, "vijfjarig": 21664, "##ngelooflijk": 27305, "afwezig": 8346, "sergeant": 18872, "Rijk": 5989, "smaken": 19063, "lab": 14782, "verbeeld": 20856, "##opus": 27558, "##tty": 29136, "##uth": 29263, "Hm": 3385, "##pluim": 27828, "##fur": 25349, "##mineermot": 27141, "Anciaux": 780, "openbare": 16821, "kreun": 14635, "veiling": 20810, "Alec": 695, "Eva": 2516, "korrel": 14564, "waakt": 22143, "personeel": 17393, "kranten": 14620, "DSM": 2000, "doorlopen": 10892, "libellen": 15017, "bedreiging": 8833, "##mi": 27124, "##jov": 26381, "extremistisch": 11473, "##overwicht": 27643, "gijzelaars": 12703, "webwinkel": 22268, "aangewezen": 7930, "##illon": 26182, "##ium": 26320, "Lebbeke": 4264, "Georges": 2889, "gestorven": 12477, "erkenning": 11340, "intiem": 13845, "aangetrokken": 7922, "genre": 12280, "clip": 10190, "##ALE": 23174, "inhoudelijke": 13737, "##bij": 24338, "Wyn": 7715, "zonnepane": 22838, "vagina": 20696, "drijfve": 10981, "dienden": 10675, "drink": 10987, "bedompt": 8825, "Farm": 2580, "Lommel": 4435, "##AD": 23166, "Sandra": 6225, "##zaad": 29829, "Ricciard": 5969, "voorschriften": 21945, "##haalt": 25832, "roerloos": 18376, "lekke": 14939, "##gineering": 25724, "kruipen": 14683, "Dru": 2258, "uren": 20664, "noemen": 16094, "oplossingen": 16920, "Octavi": 5279, "kwijl": 14763, "##v\u00e9": 29612, "##wens": 29691, "Science": 6331, "Big": 1243, "Britt": 1473, "dunkt": 11060, "##HB": 23376, "doodskist": 10858, "balanceer": 8707, "uitschakeling": 20587, "Leuvense": 4326, "Wat": 7543, "aangepaste": 7907, "vastge": 20756, "##mantel": 27043, "weigerde": 22325, "##motion": 27209, "Blauw": 1288, "Arafat": 865, "##oever": 27392, "prairie": 17667, "##geti": 25628, "oefenduel": 16193, "zwoer": 22965, "##deuren": 24838, "##overleg": 27637, "Dupont": 2292, "vrachtauto": 22027, "darm": 10529, "Wilhelm": 7640, "vogeltje": 21819, "afdeling": 8220, "ammoniak": 8455, "sterrenstelsel": 19514, "##ari": 24040, "Sag": 6190, "piramide": 17450, "##luk": 26976, "##beek": 24208, "daar": 10467, "Personeel": 5568, "##jockey": 26368, "obscur": 16179, "frustratie": 11752, "87": 506, "Grace": 3032, "18": 229, "Sylvie": 6779, "tout": 20264, "Hofman": 3400, "##\u00e8vre": 29969, "voorspellen": 21949, "verkeers": 21071, "##plekken": 27820, "##nadien": 27254, "1893": 269, "Bibliotheek": 1240, "##wetenschap": 29712, "Travi": 7043, "huizen": 13502, "intu\u00eftie": 13858, "speciaal": 19221, "Ank": 815, "Toezicht": 6993, "##NR": 23527, "stopte": 19614, "industri\u00eble": 13677, "wal": 22206, "Hell": 3287, "prostituees": 17833, "Adam": 610, "##persoon": 27745, "##ch": 24570, "filosoof": 11602, "##beklag": 24238, "Douglas": 2227, "Vlaardingen": 7391, "##1100": 22991, "##buren": 24509, "Lot": 4452, "Gastrop": 2824, "hierbij": 13279, "bonen": 9766, "different": 10707, "##aere": 23858, "stukje": 19735, "bruggen": 9934, "Ul": 7140, "1995": 373, "Madagaskar": 4559, "##essen": 25185, "uitgesteld": 20542, "Wallace": 7518, "##standaard": 28694, "##hap": 25866, "kastje": 14139, "Centrale": 1698, "locomotief": 15132, "verhelp": 21035, "verminderde": 21188, "##oloog": 27440, "aanstormend": 7994, "verdiept": 20934, "Alice": 714, "ontsteltenis": 16664, "##sko": 28504, "Blaze": 1290, "filosofe": 11597, "schema": 18638, "Loon": 4443, "observatie": 16180, "sai": 18514, "vinnig": 21684, "##commandocentrale": 24672, "handdoek": 13027, "1900": 278, "kleinschalig": 14332, "knul": 14445, "twintigtal": 20457, "##tant": 28892, "Thu": 6928, "##coalitie": 24655, "duur": 11073, "##bekken": 24237, "Vul": 7479, "politica": 17571, "rampen": 17971, "##hal": 25846, "##/": 74, "Safi": 6189, "computerspel": 10286, "garant": 11816, "##issance": 26283, "Reggi": 5904, "##leider": 26761, "Jorritsma": 3806, "Stil": 6684, "lawine": 14879, "menige": 15522, "verval": 21456, "##snelheid": 28555, "lasten": 14866, "voorwaarde": 21984, "##onderneming": 27464, "comfortabel": 10232, "teruggekeerd": 20010, "effici\u00ebntie": 11186, "##verzorging": 29439, "Beckham": 1114, "##oda": 27375, "draagvlak": 10935, "midden": 15595, "twintigste": 20456, "##mol": 27188, "##vaart": 29288, "##huijs": 26015, "Evans": 2519, "Postma": 5714, "##getuigd": 25634, "passagiers": 17309, "toevlucht": 20202, "openging": 16829, "sjeik": 18949, "plezier": 17528, "##kloven": 26546, "tablet": 19824, "Titus": 6975, "##schreven": 28402, "woensdagmiddag": 22549, "NOC": 5055, "##UCK": 23692, "##moordenaar": 27201, "charmant": 10119, "mar": 15361, "Vaarwe": 7204, "onderhoud": 16382, "technologie\u00ebn": 19893, "versleten": 21347, "##eurs": 25207, "Tucker": 7088, "onbeschermd": 16334, "volwassen": 21868, "Air": 667, "##TG": 23673, "Hand": 3183, "Uyl": 7170, "aarde": 8046, "Valentijn": 7213, "energie": 11285, "bezien": 9491, "afgezant": 8264, "onderbroek": 16356, "redactie": 18073, "verwekt": 21519, "Vincenz": 7369, "evenwicht": 11412, "fantaseer": 11510, "##erig": 25153, "Mas": 4685, "Akkoord": 677, "doodziek": 10864, "investeer": 13867, "##\u00ebrs": 29985, "Ordening": 5389, "hbo": 13102, "Disney": 2158, "periode": 17378, "historicu": 13309, "drug": 11010, "##idani": 26073, "##ffi": 25262, "lib": 15016, "Canada": 1610, "liedje": 15043, "opwindend": 17004, "bescheiden": 9192, "tabak": 19821, "wolven": 22560, "Nijvel": 5194, "##E": 92, "Poetin": 5675, "seizoen": 18851, "##strand": 28791, "Kaz": 3934, "Car": 1626, "jonk": 13975, "Tik": 6953, "scan": 18564, "tekortkoming": 19927, "vredes": 22035, "##rode": 28217, "##schrijf": 28405, "##ori": 27575, "Kennedy": 3956, "##246": 23060, "##pur": 27957, "Panama": 5477, "toepassen": 20171, "Artsen": 921, "Natalie": 5086, "afloop": 8290, "Country": 1938, "gevangenis": 12530, "wisselend": 22528, "##stem": 28727, "aanzet": 8035, "Emanuel": 2426, "Ton": 7002, "##labor": 26679, "Pie": 5612, "schetst": 18666, "alinea": 8393, "radicale": 17948, "VI": 7180, "stoom": 19601, "huisvrouw": 13494, "##II": 23411, "Livingston": 4414, "Podium": 5672, "samenvoeging": 18535, "eigenare": 11197, "##koek": 26563, "##bestuurder": 24292, "\u201c": 63, "gerealiseerd": 12340, "prinses": 17739, "verfilmd": 20978, "Griekse": 3065, "geschokt": 12405, "Fail": 2563, "Ru": 6113, "scheurde": 18668, "voorwerp": 21989, "##achtereenvolgens": 23816, "##tribune": 29107, "##fraude": 25334, "##hangen": 25864, "mankeer": 15349, "kledingstuk": 14317, "briljante": 9898, "Benedictus": 1168, "Haar": 3141, "verbiedt": 20866, "worstelt": 22601, "##fri": 25338, "##commercial": 24673, "Schw": 6325, "17": 220, "##moord": 27200, "##mming": 27164, "Kazachstan": 3935, "Gui": 3101, "benieuwd": 9106, "riet": 18303, "44": 446, "spons": 19307, "plaatsvinden": 17476, "##52": 23106, "##behoefte": 24229, "##tique": 29023, "Economic": 2334, "JP": 3665, "platte": 17508, "uitgeput": 20530, "##LTO": 23481, "Sun": 6747, "Caval": 1679, "##inckx": 26197, "koning": 14512, "Mozambique": 5002, "remise": 18197, "ori\u00ebnteren": 17041, "##jassen": 26359, "dekbed": 10587, "Conference": 1884, "##ppi": 27880, "bruto": 9949, "Bologna": 1342, "##circuit": 24628, "heldhaftig": 13165, "leukst": 14979, "Casca": 1654, "Perry": 5565, "hoeveel": 13339, "plaatjes": 17465, "##phyl": 27764, "##verein": 29360, "Final": 2639, "##iep": 26107, "Cock": 1832, "Drive": 2252, "##indicat": 26201, "##zano": 29852, "##zijdig": 29898, "opstandelingen": 16971, "prijzen": 17721, "stilte": 19559, "Maagd": 4531, "Slaap": 6478, "Fortuyn": 2705, "Kunst": 4162, "Tett": 6889, "bekken": 8985, "samenwerkt": 18538, "autono": 8651, "toegediend": 20139, "bliksem": 9654, "asfalt": 8592, "kofferbak": 14472, "vijve": 21670, "Seda": 6348, "absurd": 8074, "werkplaats": 22400, "Afdeling": 633, "##derdaad": 24826, "kolf": 14485, "##huisje": 26018, "Wouters": 7709, "marionet": 15375, "routine": 18438, "##gro": 25795, "##CG": 23237, "Floyd": 2679, "strafschop": 19644, "tweederde": 20437, "gefilmd": 12018, "overviel": 17177, "premi\u00e8re": 17687, "fijn": 11582, "##herstel": 25920, "apparatuur": 8520, "versnelde": 21352, "wereldranglijst": 22374, "schril": 18787, "recessie": 18033, "Lud": 4481, "formuleren": 11692, "##duel": 24973, "##liedjes": 26837, "##FA": 23337, "onbekende": 16322, "kazerne": 14152, "fonkelde": 11672, "buurtschap": 10028, "innovatie": 13756, "##ffen": 25260, "kolossale": 14492, "Ferri": 2619, "kweken": 14754, "oppositie": 16946, "premie": 17684, "Sittard": 6464, "daarvan": 10486, "bin": 9575, "##onjour": 27486, "Ninove": 5207, "admiraal": 8190, "past": 17320, "##26": 23065, "Nee": 5117, "Hussein": 3499, "Ill": 3561, "Sahara": 6193, "betrapt": 9338, "derde": 10621, "liefdevolle": 15050, "##ethiek": 25195, "##tella": 28934, "Gillis": 2954, "Camb": 1598, "indeling": 13659, "filmfestival": 11592, "voorbijganger": 21899, "access": 8088, "tiental": 20085, "##sproces": 28643, "iconen": 13562, "vlaggetje": 21715, "Stri": 6714, "v": 55, "boekjaar": 9726, "Valentin": 7214, "boekje": 9727, "jongeman": 13966, "rendement": 18202, "##ssi": 28662, "Kempen": 3950, "MH": 4523, "##kru": 26638, "Luister": 4489, "jullie": 13999, "invoer": 13877, "Laurenc": 4249, "omgaan": 16242, "persoonlijkheid": 17402, "##F": 93, "##far": 25239, "knopje": 14437, "onverstaanbaar": 16727, "Alpha": 735, "Bepaald": 1176, "binnenste": 9592, "##ci\u00f3n": 24633, "##elend": 25072, "Beuningen": 1226, "uitbetaald": 20474, "wetenschapper": 22428, "aangeraakt": 7908, "onregelmatig": 16559, "Giro": 2964, "##onge\u00efnteresseerd": 27476, "##urige": 29252, "bril": 9896, "betast": 9316, "##ga": 25353, "breder": 9874, "laptop": 14862, "bourgeois": 9826, "Onderneming": 5329, "Lies": 4359, "Schiedam": 6286, "Helsinki": 3293, "fungeer": 11773, "klik": 14353, "troepen": 20369, "Mit": 4904, "Plu": 5667, "Pruisisch": 5778, "Rosie": 6089, "iets": 13587, "toeval": 20198, "Ten": 6865, "##divisie": 24882, "hoofdpijn": 13393, "##verdomme": 29356, "vervuld": 21489, "maart": 15267, "##scout": 28427, "##chester": 24588, "dagje": 10501, "vrijgesproken": 22075, "##oord": 27526, "##beweging": 24314, "##wee\u00ebn": 29674, "Saoedi": 6234, "aanvallende": 8014, "burcht": 10001, "Dietrich": 2131, "uitleggen": 20570, "wilskracht": 22492, "Fu": 2771, "afmeting": 8294, "Maxima": 4718, "linkerhand": 15106, "Venus": 7276, "kroon": 14673, "meegedeeld": 15463, "Spe": 6575, "gij": 12702, "terechtkwam": 19981, "zaden": 22647, "onze": 16760, "##draai": 24929, "RE": 5811, "hal": 13005, "Plaats": 5644, "##RS": 23625, "bruid": 9936, "leerkracht": 14900, "pleister": 17518, "##tag": 28872, "##zegging": 29861, "toetsenbord": 20195, "##vlieger": 29501, "verjaardag": 21065, "humeur": 13515, "zwaaide": 22907, "##ceremonie": 24564, "##30": 23070, "archeologisch": 8543, "Mexicaanse": 4823, "##district": 24878, "glij": 12736, "Boeken": 1327, "zender": 22719, "##gehele": 25454, "kauwgom": 14151, "gedegen": 11951, "ingredi\u00ebnten": 13729, "strafrecht": 19642, "ritmisch": 18342, "##raap": 27983, "##houdster": 25999, "Les": 4316, "Zwijgen": 7854, "behoorlijk": 8953, "Sparta": 6574, "Prinses": 5745, "##aarde": 23782, "onbewoond": 16343, "Rupert": 6133, "goedkeur": 12784, "verstoring": 21393, "kleuren": 14346, "oprijla": 16955, "jou": 13980, "Verre": 7320, "##omzet": 27455, "##dur": 24986, "Vooral": 7442, "Rox": 6108, "annu": 8490, "prijsstijging": 17720, "zeventiende": 22747, "streel": 19665, "concentreer": 10289, "spraakmakend": 19333, "##parlement": 27697, "friet": 11740, "Andr\u00e9": 797, "afgedekt": 8232, "Hoogovens": 3450, "eerstejaars": 11162, "Wiscons": 7668, "omgerekend": 16250, "paal": 17199, "verbitter": 20874, "ogenblikkelijk": 16221, "Horeca": 3461, "ontbrak": 16580, "geregistreerd": 12356, "ontspoord": 16658, "Mechelen": 4741, "Khalil": 3985, "ruige": 18458, "Berth": 1206, "koud": 14588, "##69": 23124, "##regel": 28064, "prut": 17859, "terugweg": 20029, "oudheid": 17061, "afstandelijk": 8324, "##taire": 28877, "##verre": 29406, "gestegen": 12466, "##orium": 27577, "##bruin": 24491, "heen": 13120, "##te": 28902, "dronk": 11003, "##middag": 27128, "erachter": 11317, "stier": 19540, "werpt": 22413, "gestrede": 12480, "Merkel": 4804, "Bowl": 1405, "16": 214, "ijzer": 13599, "teruggestuurd": 20011, "Linden": 4389, "Azi\u00eb": 993, "netvlies": 16036, "War": 7531, "boeven": 9738, "gepiep": 12308, "##budget": 24494, "##rait": 28002, "Leiden": 4290, "##DG": 23265, "Twente": 7111, "buitenechtelijk": 9971, "huid": 13471, "Romeins": 6061, "##kastje": 26439, "bladen": 9620, "##bom": 24409, "##tekening": 28926, "##jongen": 26374, "##hoop": 25982, "##OA": 23536, "levensgevaar": 14994, "Bishop": 1272, "rondlopen": 18406, "makelaar": 15316, "hierboven": 13280, "Barne": 1071, "Evers": 2526, "winderig": 22498, "overwinnen": 17186, "Kenny": 3960, "Op": 5371, "blozend": 9700, "Marco": 4629, "stoer": 19574, "##orzaak": 27586, "trend": 20348, "Rachel": 5828, "vicevoorzitter": 21633, "hor": 13439, "06": 164, "beheert": 8939, "conform": 10316, "gebeld": 11868, "gevat": 12536, "tuinen": 20408, "##ERE": 23318, "##bestrijding": 24289, "##broek": 24480, "##halve": 25851, "computer": 10284, "ploegmaat": 17536, "##me": 27076, "Fur": 2779, "Madonna": 4565, "Gerda": 2900, "studeerde": 19720, "veertiende": 20796, "Henn": 3307, "Dead": 2059, "ongemak": 16488, "Meli": 4776, "afzetting": 8355, "pooier": 17596, "vervulde": 21490, "verweven": 21532, "##ita": 26297, "artistieke": 8587, "breed": 9875, "doelloos": 10800, "vrolijkheid": 22094, "##mul": 27228, "Bast": 1084, "##istische": 26296, "##ingsceremonie": 26215, "Phoenix": 5603, "weerspiegeld": 22299, "##ity": 26317, "##doen": 24896, "Spencer": 6587, "Universal": 7152, "##arne": 24049, "Kee": 3937, "besmeurd": 9247, "onweerstaanbaar": 16751, "vacatures": 20687, "spinnensoort": 19285, "##uitkering": 29202, "leid": 14927, "Fest": 2622, "Hirsi": 3378, "Ev": 2515, "##box": 24448, "##geprijsd": 25551, "##eilanden": 25046, "rails": 17957, "Malt": 4602, "##ketting": 26469, "hertogdom": 13251, "schouders": 18760, "Mer": 4794, "##park": 27696, "marxis": 15390, "accent": 8082, "levensmiddelen": 14998, "medaille": 15427, "bedrijfsvoering": 8842, "Koets": 4065, "domineren": 10833, "verklaar": 21085, "Prix": 5749, "##meter": 27116, "Burcht": 1534, "voetgangers": 21814, "snoer": 19127, "##format": 25319, "magistrat": 15300, "commercieel": 10243, "toelaten": 20158, "Bella": 1161, "moer": 15737, "gesteente": 12465, "kopstukken": 14553, "##away": 24136, "begroeting": 8913, "Sven": 6764, "behulp": 8960, "populair": 17609, "Sneek": 6514, "Mona": 4946, "drama": 10945, "drong": 11002, "Golf": 3001, "griezel": 12876, "deinsde": 10586, "stinkend": 19567, "voorspeld": 21947, "gras": 12853, "Leid": 4289, "Facebook": 2561, "Gabri\u00ebl": 2794, "oren": 17023, "Hero": 3330, "illegalen": 13607, "zit": 22791, "##uhrmann": 29189, "smart": 19068, "opgevoerd": 16882, "Heath": 3241, "voeren": 21798, "bereid": 9144, "passieve": 17319, "##gewicht": 25672, "Byrne": 1555, "Gul": 3108, "cabine": 10036, "t\u00f3": 20467, "genoemd": 12271, "##inga": 26209, "##meesteres": 27090, "armoede": 8563, "##dagen": 24782, "##neem": 27277, "sjiitisch": 18950, "Felipe": 2604, "Lucas": 4473, "geweld": 12586, "schubben": 18795, "onaangeroerd": 16304, "##sens": 28451, "been": 8866, "regenbui": 18118, "stort": 19620, "hoeven": 13341, "gemakkelijk": 12200, "suf": 19761, "geheimen": 12060, "bende": 9102, "evenement": 11405, "##VER": 23719, "heel": 13118, "criterium": 10434, "Wordt": 7701, "gewillig": 12605, "troostend": 20384, "drummer": 11025, "##A": 88, "Groep": 3079, "Macedonisch": 4549, "Giel": 2945, "verkiezen": 21081, "Utah": 7166, "##raam": 27981, "tusschen": 20421, "kloof": 14374, "##gevecht": 25640, "##cla": 24642, "##ll": 26902, "lead": 14882, "videoclip": 21637, "ongewijzigd": 16513, "pelgrims": 17354, "Alberto": 690, "##koorts": 26591, "duurder": 11075, "vormen": 22010, "Bug": 1518, "Ronald": 6066, "Sony": 6552, "All": 719, "##prediker": 27888, "##legende": 26753, "liet": 15062, "Haagse": 3137, "Virginia": 7376, "welgestelde": 22342, "33": 429, "##less": 26787, "mijlen": 15609, "mossel": 15816, "pakte": 17222, "cynisme": 10460, "##anne": 23996, "luidkeels": 15218, "Fins": 2645, "Morgen": 4981, "schone": 18727, "verwoord": 21560, "##teams": 28904, "##ontsteking": 27502, "aanmelden": 7958, "##vi": 29448, "bestudeerde": 9294, "Erg": 2473, "LPF": 4186, "pompen": 17590, "##eigenare": 25044, "Brom": 1483, "##ochtans": 27372, "Stuart": 6721, "voorzorg": 22000, "wissel": 22525, "##RP": 23623, "kalf": 14047, "oom": 16780, "uitgekeerd": 20518, "##graadmeter": 25766, "compositie": 10281, "toevoegen": 20205, "1858": 247, "##ijn": 26156, "Mis": 4899, "lukt": 15234, "##smeet": 28545, "Ska": 6472, "Alain": 682, "opvoeding": 16995, "dreigend": 10956, "##OO": 23556, "ruik": 18459, "info": 13684, "verkreeg": 21112, "Team": 6835, "##\u00e9ri": 29974, "Evangeli": 2518, "labyrint": 14786, "##GC": 23354, "Vermeir": 7312, "hellend": 13173, "##doc": 24886, "Borgerhout": 1368, "Vanaf": 7223, "gevoel": 12555, "spek": 19252, "gelijkmatig": 12173, "Radboud": 5831, "VW": 7199, "##assen": 24074, "typisch": 20464, "##gna": 25743, "debuut": 10546, "Chinees": 1749, "##secretaris": 28436, "Lar": 4232, "Mech": 4740, "##weleens": 29684, "verkoopt": 21103, "ontvoerd": 16679, "systeem": 19810, "schaam": 18572, "trom": 20376, "geliefd": 12165, "##cir": 24627, "Deleu": 2073, "gedicht": 11965, "Charleroi": 1725, "gedo": 11973, "teams": 19886, "vertrouwd": 21443, "bibliotheek": 9532, "Auto": 971, "optima": 16981, "ravage": 18001, "verklapt": 21088, "fee": 11542, "relikwie": 18189, "##leunt": 26800, "geniet": 12265, "evolueren": 11416, "woonde": 22577, "##wis": 29760, "ham": 13020, "##e": 117, "pensioenen": 17364, "razend": 18003, "zwol": 22966, "wip": 22520, "zong": 22832, "lezers": 15012, "instortte": 13791, "##kamp": 26408, "Geo": 2884, "daarover": 10482, "##generator": 25527, "##ally": 23939, "##schriften": 28404, "Super": 6750, "PA": 5436, "Jord": 3798, "strekte": 19673, "verse": 21331, "Great": 3049, "tomaten": 20221, "troef": 20367, "dijbeen": 10713, "staatsbezoek": 19379, "wachtwoord": 22200, "##kanalen": 26415, "##orum": 27584, "voorspelt": 21951, "Not": 5247, "##radi": 27993, "tel": 19930, "Monetair": 4951, "onzer": 16763, "Tower": 7028, "beker": 8980, "Woordvoerder": 7699, "afbeeldingen": 8215, "ontferm": 16594, "##vik": 29465, "##band": 24169, "zending": 22721, "machthebber": 15282, "verdedigde": 20912, "##bio": 24349, "##ssel": 28658, "##41": 23087, "hooi": 13422, "Zwarte": 7844, "gemoedelijk": 12229, "meewerkt": 15494, "##container": 24704, "haven": 13096, "##wick": 29725, "Roy": 6109, "Greet": 3053, "minuten": 15664, "stukjes": 19736, "betonne": 9330, "zenden": 22718, "Flam": 2657, "##bell": 24247, "##zelf": 29866, "MHz": 4524, "Hervormde": 3337, "Antillen": 834, "naam": 15891, "Math": 4696, "##mmen": 27161, "##icia": 26059, "delicate": 10595, "Unie": 7148, "00": 154, "achtste": 8143, "belooft": 9073, "staaf": 19369, "Holsbee": 3419, "sportieve": 19328, "vegetari\u00ebr": 20802, "Delft": 2074, "##klooster": 26542, "eruit": 11357, "par": 17250, "opslag": 16963, "verving": 21469, "Oostenrijk": 5365, "##1859": 23020, "##halen": 25847, "organisatie": 17026, "voorbode": 21900, "##mobiel": 27167, "vuist": 22115, "doekje": 10793, "controleer": 10368, "poos": 17600, "rook": 18418, "zulke": 22897, "##bril": 24474, "wezen": 22438, "Begrijp": 1131, "armen": 8562, "cijfer": 10157, "Dagelijks": 2017, "##llen": 26908, "boeken": 9720, "Schaduw": 6267, "piano": 17415, "##goud": 25762, "##aandeel": 23767, "Sepp": 6366, "##uki": 29211, "##21": 23040, "Contact": 1905, "##geblazen": 25393, "##wasser": 29652, "pedagogisch": 17346, "##atine": 24096, "##zeker": 29864, "kunstwerk": 14719, "ca": 10033, "meesterlijk": 15488, "Fruit": 2768, "##aloude": 23943, "wedstrijden": 22276, "Pas": 5507, "mountainbike": 15834, "paas": 17206, "versterking": 21378, "Paas": 5448, "bloei": 9673, "##spoot": 28621, "verloren": 21164, "Tub": 7086, "gestapt": 12462, "##klem": 26526, "befaamde": 8876, "Afro": 644, "Rol": 6049, "##werkingsverband": 29701, "Acc": 593, "Volgens": 7425, "timing": 20111, "omkoping": 16265, "verwee": 21515, "eigenschap": 11202, "partijbestuur": 17294, "verbeter": 20860, "##vijf": 29460, "Brug": 1495, "Kees": 3940, "Jol": 3780, "##liner": 26879, "biezen": 9544, "Baet": 1029, "verdubbeling": 20954, "Titani": 6974, "nep": 16023, "rijst": 18322, "verweten": 21531, "Oor": 5357, "Knight": 4047, "Frits": 2762, "professionele": 17790, "##wetenschappen": 29714, "##missionair": 27154, "bijnaam": 9559, "Santos": 6233, "hebt": 13107, "kunstwerken": 14720, "lette": 14967, "mais": 15310, "##vermogen": 29397, "respectievelijk": 18245, "track": 20279, "##grafie": 25773, "Biggles": 1244, "parkeer": 17272, "prestatie": 17697, "techno": 19891, "pessimistisch": 17406, "vanwege": 20737, "##group": 25807, "##lor": 26960, "regionale": 18138, "Reynders": 5954, "##zy": 29957, "faalde": 11476, "saamhorigheid": 18506, "##ition": 26305, "uw": 20672, "##legging": 26757, "aangekondigd": 7897, "gebrekkig": 11903, "recepten": 18030, "##continent": 24705, "##zogen": 29918, "Timmer": 6962, "vreselijk": 22049, "overheen": 17112, "objectief": 16174, "Drink": 2251, "royalty": 18443, "##psycholoog": 27942, "##croix": 24734, "##AAR": 23160, "Bourbon": 1392, "##staan": 28672, "Ander": 782, "flinke": 11645, "gezamenlijk": 12624, "perron": 17384, "##SV": 23661, "##fect": 25243, "GEMEENSCHAPPE": 2782, "##ronk": 28239, "reclamecampagne": 18063, "schoonmoeder": 18741, "hefboom": 13134, "piloot": 17442, "intercom": 13820, "Hier": 3355, "sproet": 19354, "geleerde": 12153, "weefsel": 22279, "zonlicht": 22834, "##ness": 27289, "gecomponeerd": 11925, "snoo": 19128, "##caf\u00e9": 24525, "##molecule": 27189, "academische": 8080, "beest": 8871, "Music": 5026, "hack": 12996, "vrede": 22034, "relativeren": 18181, "avond": 8663, "keuken": 14212, "KLM": 3859, "Dat": 2048, "onverbiddelijk": 16717, "uitkeringen": 20562, "vernomen": 21226, "##yama": 29809, "##geboet": 25396, "Endemol": 2440, "baten": 8774, "theoretisch": 20058, "Petra": 5583, "##LV": 23483, "##onderwijs": 27465, "##plan": 27800, "##game": 25364, "films": 11596, "dolblij": 10820, "ondergaan": 16367, "geproduceerd": 12326, "September": 6367, "haalbaar": 12986, "patat": 17326, "fraude": 11731, "smeekbede": 19072, "Wal": 7512, "betrouwbaar": 9351, "cro": 10436, "Start": 6637, "man": 15333, "Snelle": 6518, "Leen": 4273, "Sum": 6744, "kippen": 14269, "##BEEK": 23213, "Breda": 1440, "Overwegend": 5431, "##wi": 29722, "amendement": 8454, "Mind": 4883, "opgebouwd": 16850, "wierook": 22456, "##rooi": 28242, "daadwerkelijk": 10464, "wild": 22483, "##elsnaam": 25096, "##vaar": 29284, "Schiphol": 6291, "nastreven": 15944, "draagbare": 10933, "gi": 12688, "Novi": 5255, "##SML": 23648, "Lotto": 4456, "##hoewel": 25956, "music": 15858, "Fiat": 2626, "zichzelf": 22753, "##leving": 26810, "Kay": 3933, "getuigde": 12513, "##kade": 26400, "organisatorisch": 17029, "giechelde": 12691, "Acteur": 605, "dooie": 10868, "dreigen": 10955, "##ifo": 26130, "Andere": 783, "Eeckhout": 2353, "bestuurder": 9301, "deelt": 10572, "placht": 17479, "Stephen": 6666, "Logisch": 4427, "profetie": 17793, "hoofdingang": 13385, "ongehoord": 16473, "stellingen": 19482, "##gekregen": 25478, "jood": 13977, "une": 20650, "Ster": 6667, "Voorbeelden": 7443, "##ruzie": 28293, "zonnestral": 22841, "vormgeving": 22011, "##aai": 23759, "staken": 19401, "##zame": 29845, "Nova": 5253, "##naast": 27252, "hoopvol": 13428, "soepel": 19153, "Geheim": 2843, "Marie": 4641, "geniaal": 12262, "##kraam": 26614, "inschrijving": 13759, "Go": 2984, "##IS": 23432, "##intercommunale": 26245, "##toppen": 29059, "ambulance": 8453, "AFC": 533, "##ontainer": 27495, "Verscheidene": 7324, "##filmpje": 25278, "componeren": 10278, "about": 8068, "nonnen": 16106, "opgestapeld": 16875, "##mar": 27044, "##uda": 29175, "Dail": 2019, "Pers": 5566, "leefde": 14888, "wassen": 22251, "lastiger": 14869, "verzilver": 21588, "zorgeloos": 22860, "Kinderen": 4005, "conflict": 10314, "Pit": 5640, "beet": 8874, "moesten": 15741, "##gevoelens": 25651, "komen": 14496, "origine": 17038, "nadrukkelijk": 15922, "Handel": 3184, "Jochem": 3759, "dik": 10716, "vruchtbaarheid": 22106, "##cher": 24586, "Lambrecht": 4211, "##monument": 27198, "luisterde": 15229, "Poel": 5674, "##58": 23112, "##gegraven": 25444, "afgespeeld": 8252, "Bondsdag": 1353, "kol": 14483, "##m": 125, "troon": 20380, "pardon": 17266, "##cera": 24563, "##stal": 28687, "##11": 22990, "speelronde": 19243, "Flower": 2678, "3D": 439, "Donovan": 2210, "##derde": 24827, "negatieve": 16006, "##scape": 28315, "fouiller": 11711, "##WERK": 23741, "Duitsch": 2279, "scheel": 18618, "##ENT": 23314, "##coalitiepartijen": 24656, "genetische": 12259, "zware": 22932, "Mathew": 4697, "##biljetten": 24344, "Terug": 6879, "Pardon": 5493, "bestuurd": 9300, "ongewenst": 16511, "Allemaal": 724, "##skaja": 28500, "knop": 14435, "genomen": 12273, "##amo": 23962, "bra": 9850, "bas": 8756, "buitengewone": 9972, "stomverbaasd": 19595, "broos": 9928, "##ction": 24741, "schaamteloos": 18575, "Un": 7144, "meer": 15473, "Bergen": 1182, "merkte": 15551, "Tervuren": 6880, "afgebroken": 8230, "kilometer": 14254, "vrijstelling": 22081, "Is": 3631, "Hove": 3477, "voetbalelftal": 21806, "##gebouwen": 25404, "Major": 4585, "1918": 296, "gasten": 11826, "Media": 4748, "parking": 17279, "groen": 12906, "Chris": 1760, "##ritme": 28193, "##mico": 27126, "gotisch": 12814, "Count": 1937, "penalty": 17356, "37": 436, "cyber": 10455, "##hydr": 26033, "vrijwillig": 22082, "esthetisch": 11374, "Lima": 4379, "SA": 6157, "##congres": 24696, "jeugd": 13944, "Oekra\u00efens": 5286, "provinciaal": 17846, "documentaire": 10782, "##dood": 24911, "Nadal": 5071, "DNA": 1997, "##GG": 23362, "bevorder": 9410, "Cal": 1586, "bl": 9614, "tracht": 20276, "knipperde": 14423, "actualiteit": 8168, "ontsnapping": 16652, "6000": 471, "longkanker": 15159, "##SDAP": 23636, "##nidae": 27311, "##rell": 28093, "genot": 12277, "reik": 18151, "##angst": 23987, "Bruxelles": 1506, "strenger": 19677, "Luitenant": 4490, "vreemdeling": 22044, "Liever": 4362, "cursus": 10452, "##their": 28974, "onderbroken": 16357, "luxueuze": 15243, "##kreet": 26627, "huwelijk": 13535, "##snipper": 28559, "##MG": 23491, "Bornem": 1371, "##schuld": 28418, "hak": 13002, "##politie": 27847, "##erij": 25155, "##Z": 111, "Goos": 3010, "achter": 8100, "beroerte": 9175, "langdurige": 14841, "plan": 17485, "Cruijff": 1962, "##reep": 28061, "##schuiven": 28417, "##anovic": 24000, "hooghartig": 13409, "opmerkelijk": 16923, "Burgeroorlog": 1539, "Macro": 4556, "##els": 25095, "DA": 1988, "Daarop": 2008, "##chirurg": 24593, "durf": 11066, "trilogie": 20361, "##geleefd": 25488, "doorgaans": 10885, "##lef": 26750, "Volg": 7423, "Medewerker": 4747, "canon": 10058, "omhelz": 16259, "schenken": 18644, "##bout": 24443, "##proeven": 27923, "laser": 14864, "uitgebracht": 20508, "Hadden": 3153, "investeerder": 13869, "##soep": 28568, "keurvorst": 14221, "Neerpelt": 5120, "Casper": 1658, "Siegfried": 6429, "trui": 20398, "tweehonderd": 20439, "##card": 24538, "containers": 10352, "afgelost": 8244, "##winkels": 29754, "##gebaar": 25384, "zoo": 22847, "argwa": 8556, "##fjord": 25290, "Juventus": 3853, "prominente": 17817, "verbeteren": 20863, "Sterk": 6668, "Moldavi\u00eb": 4937, "##scanner": 28314, "1986": 364, "beschikbaar": 9200, "golf": 12795, "pakken": 17218, "##jarig": 26355, "wanhopig": 22225, "##deling": 24818, "Gemeenschappen": 2862, "Wadden": 7503, "ongedierte": 16468, "Small": 6502, "Moszk": 4992, "vernieuwen": 21222, "werklozen": 22397, "bijzondere": 9567, "zetels": 22739, "weerszijde": 22301, "Margot": 4635, "240": 412, "Emily": 2431, "Pensioen": 5550, "kunstgras": 14713, "Speer": 6582, "##cy": 24763, "toont": 20237, "##haut": 25879, "mode": 15715, "##penning": 27733, "parlement": 17280, "##vreemd": 29586, "Jordaan": 3799, "Louisian": 4460, "klaagde": 14276, "Hallo": 3169, "dezelfde": 10647, "ontroering": 16644, "vonken": 21874, "Cleveland": 1815, "uitdrukt": 20491, "Gids": 2944, "Hengelo": 3304, "Jazz": 3715, "##lam": 26696, "Till": 6957, "##ling": 26880, "WIL": 7485, "stadion": 19391, "dochtertje": 10779, "socialism": 19143, "Kerstmis": 3970, "##nota": 27345, "balustrade": 8720, "Osaka": 5404, "##oijmans": 27410, "Millennium": 4876, "##ontzeggen": 27510, "##13": 22994, "Williams": 7647, "##dell": 24819, "##koffer": 26568, "##mos": 27206, "bewolking": 9460, "poker": 17567, "##251": 23063, "Samuel": 6218, "onge": 16461, "stem": 19486, "Sluis": 6498, "geregisseerd": 12355, "##verkiezingen": 29377, "Chelsea": 1733, "gewapend": 12579, "vernam": 21209, "Leefmilieu": 4271, "landbouwgrond": 14820, "reddings": 18078, "verhaaltje": 21029, "glunder": 12766, "ui": 20468, "ontoereikend": 16634, "C7": 1560, "##ug": 29184, "instituten": 13785, "Kwart": 4174, "Goor": 3009, "##zaai": 29831, "Bouch": 1388, "meemaken": 15468, "Veendam": 7249, "##FO": 23347, "##geschoven": 25587, "Engelsch": 2448, "zes": 22728, "kristalle": 14657, "toegestaan": 20144, "Thierry": 6913, "hotels": 13456, "Cadillac": 1583, "houtje": 13465, "##viel": 29455, "weekeinde": 22285, "Ierse": 3555, "kenmerkend": 14177, "vervuild": 21486, "vari\u00ebteit": 20747, "voorlichter": 21924, "brandstof": 9865, "daarna": 10477, "negeer": 16007, "personeelsleden": 17395, "##oven": 27631, "##logisch": 26933, "##pauze": 27717, "Hek": 3277, "hogepriester": 13346, "stevige": 19527, "##oise": 27414, "manifesteer": 15346, "##stijgen": 28747, "##undai": 29231, "gangster": 11810, "secret": 18838, "Spek": 6583, "##ves": 29441, "ROTTERDAM": 5814, "uiterste": 20500, "##kal": 26403, "Magazine": 4570, "poule": 17649, "ritje": 18340, "verkracht": 21109, "alliantie": 8413, "Stalin": 6628, "Pin": 5628, "##blik": 24377, "besturen": 9297, "soorten": 19187, "pool": 17597, "monarchie": 15765, "Onbekend": 5325, "conserv": 10326, "benzinemotor": 9118, "dacht": 10488, "##juffrouw": 26384, "eerlijkheid": 11159, "hulp": 13505, "sfeer": 18890, "##or": 27560, "spectaculair": 19231, "Bon": 1348, "schipper": 18708, "teruggevonden": 20014, "Gina": 2955, "##ontwerp": 27505, "verbitterd": 20875, "versta": 21366, "aangeven": 7924, "middelen": 15591, "obligaties": 16178, "farao": 11515, "##gre": 25783, "Beers": 1126, "regisseren": 18140, "gecorrigeerd": 11932, "TC": 6791, "dominante": 10829, "ongelukkige": 16487, "elektronische": 11249, "gesticht": 12470, "##plank": 27802, "bewakings": 9431, "bespeur": 9254, "##writer": 29800, "##ochro": 27371, "ongelooflijke": 16482, "##wurm": 29801, "Heracles": 3314, "Tivoli": 6976, "Marieke": 4642, "\u00bb": 59, "Binnen": 1262, "##gebroed": 25408, "makkelijker": 15321, "Stille": 6685, "relevant": 18184, "5": 20, "pennen": 17360, "zitkamer": 22792, "Pou": 5717, "##quot": 27975, "smeergeld": 19075, "##arts": 24064, "##off": 27394, "geometri": 12286, "medicijnen": 15448, "MKB": 4526, "##muggen": 27225, "toepast": 20173, "4": 19, "Non": 5224, "pleitte": 17521, "thuisploeg": 20073, "##gezocht": 25698, "##pras": 27885, "##ssamenwerking": 28656, "laden": 14797, "afwijkende": 8347, "Th": 6896, "Liberia": 4343, "##borden": 24426, "spaarzaam": 19205, "m2": 15245, "staal": 19371, "meesten": 15486, "##bun": 24504, "Estland": 2489, "Elaine": 2393, "##kleden": 26521, "It": 3647, "##hese": 25925, "soep": 19152, "wisselvallig": 22530, "##bedden": 24200, "City": 1792, "##concentratie": 24687, "koker": 14481, "Gen": 2869, "figuur": 11579, "plassen": 17499, "vertelde": 21415, "onderhevig": 16380, "Vlijmen": 7403, "##ara": 24024, "##gehoord": 25457, "Oorlog": 5358, "##loog": 26944, "Kerkrade": 3966, "vrijheid": 22077, "##brieven": 24472, "##uyck": 29278, "gestemd": 12468, "sep": 18868, "oorlog": 16786, "wandelaars": 22215, "Bulgaars": 1525, "klokken": 14368, "zegen": 22687, "toevoeging": 20206, "konijnen": 14511, "##wetenschapper": 29715, "##kijkend": 26483, "spreuk": 19347, "##odont": 27379, "Diana": 2115, "##houwen": 26003, "vinden": 21675, "stijl": 19547, "Nathan": 5089, "##strijders": 28807, "formaat": 11682, "enig": 11290, "ingelicht": 13706, "vandaar": 20728, "besliste": 9236, "grijs": 12886, "Oost": 5360, "pension": 17366, "Family": 2572, "Gew": 2921, "##plek": 27819, "##strepen": 28804, "##gezicht": 25693, "moord": 15792, "Jim": 3751, "League": 4262, "ontwijken": 16694, "##eerder": 25025, "##97": 23152, "##po": 27831, "Ronaldo": 6067, "kaartjes": 14030, "uitgeoefend": 20528, "huil": 13474, "450": 448, "Robeco": 6016, "uitvoeren": 20621, "##mot": 27207, "##pjes": 27790, "Peper": 5554, "Ziet": 7794, "ieder": 13583, "Halloween": 3170, "##fa": 25228, "lord": 15182, "Lee": 4267, "Saba": 6176, "botsen": 9819, "##scherm": 28358, "##fluit": 25303, "daverend": 10536, "juwelier": 14017, "voelbaar": 21792, "##mble": 27072, "winnares": 22510, "kwam": 14744, "##arbeid": 24027, "##aardig": 23783, "##\u00efst": 29989, "kleinere": 14330, "stukken": 19737, "##AS": 23196, "pink": 17447, "##verlaging": 29384, "Nancy": 5078, "Columbia": 1854, "Ann": 817, "aanzetten": 8036, "brokkel": 9913, "Mississippi": 4901, "decennialang": 10551, "onderstreept": 16416, "##mas": 27052, "kosten": 14580, "conditie": 10309, "groeps": 12914, "##ckel": 24637, "##verschillen": 29412, "##248": 23061, "figuurlijk": 11580, "uitoefen": 20579, "voorval": 21983, "Norfolk": 5241, "morfine": 15805, "Deutschland": 2104, "vermomd": 21205, "Heijden": 3266, "stro": 19693, "papa": 17242, "Vel": 7261, "lange": 14842, "vulden": 22119, "##schets": 28361, "cosmetica": 10394, "materieel": 15409, "kantonrechter": 14095, "Rosen": 6087, "##EA": 23281, "Veel": 7247, "##doek": 24892, "kopers": 14542, "allerbeste": 8405, "beschuldigend": 9221, "mysterieuze": 15876, "1952": 330, "Laan": 4189, "achterhale": 8114, "termijn": 19985, "##geleden": 25487, "CO": 1571, "1902": 280, "vatten": 20773, "bisdom": 9604, "geleidelijk": 12160, "ontwikkeling": 16698, "Plat": 5651, "gecontroleerd": 11931, "Katja": 3926, "juridisch": 14006, "index": 13661, "##noy": 27349, "Hermes": 3329, "##iek": 26096, "oostelijk": 16798, "noch": 16087, "achterdeur": 8106, "92": 513, "middernacht": 15602, "Wessel": 7600, "omgekomen": 16249, "minacht": 15636, "Ambacht": 752, "geld": 12141, "krom": 14664, "##1872": 23027, "sommigen": 19179, "Arriva": 912, "logeren": 15141, "overwonnen": 17192, "Holly": 3415, "##cellen": 24552, "##wing": 29752, "thermometer": 20065, "Gamb": 2804, "##kant": 26423, "##pui": 27952, "minnaar": 15657, "luid": 15214, "uitnodigend": 20577, "##67": 23122, "##ans": 24001, "profiteerde": 17800, "##tijds": 29006, "onderscheid": 16403, "trollen": 20375, "##ovo": 27650, "##koeien": 26562, "##oo": 27514, "bloedend": 9667, "secretaris": 18841, "##ENS": 23313, "Maastricht": 4542, "##komen": 26578, "doodgeschoten": 10852, "40": 440, "blog": 9680, "levende": 14988, "hersen": 13241, "wel": 22339, "fysio": 11785, "hiphop": 13305, "advocaat": 8209, "zonne": 22835, "Heij": 3265, "1966": 344, "transfervrij": 20313, "vinyl": 21685, "##hy": 26032, "luider": 15217, "constateer": 10334, "collectie": 10216, "probleem": 17757, "taakstraf": 19815, "##model": 27172, "##muzikant": 27243, "vroege": 22088, "engelen": 11289, "##kar": 26432, "Judith": 3825, "vanavond": 20724, "mevrouw": 15576, "Fell": 2606, "Eck": 2330, "Malone": 4601, "bont": 9771, "##isha": 26279, "Decker": 2063, "##illard": 26176, "Amber": 753, "##BC": 23211, "##endha": 25115, "lesbisch": 14961, "stamhoofd": 19409, "Koninkrijk": 4087, "bekent": 8978, "landschappen": 14836, "##kampen": 26409, "logische": 15145, "fabrikanten": 11483, "list": 15120, "afstuderen": 8327, "##verpleging": 29404, "Peru": 5572, "slaapt": 18967, "tweevleugelige": 20445, "##pec": 27719, "simpele": 18931, "vacht": 20690, "Leeftijd": 4272, "verstoren": 21392, "Capri": 1624, "verschuil": 21327, "driehoek": 10967, "##koppige": 26596, "arbeids": 8533, "jonger": 13970, "studie": 19725, "rating": 17995, "Arj": 894, "Helena": 3285, "belegerd": 9043, "spottend": 19332, "weerspiegel": 22298, "FBI": 2547, "Nixon": 5212, "Simpel": 6450, "##mpt": 27224, "##eld": 25066, "liep": 15059, "spiritualiteit": 19291, "tegenstander": 19910, "##eder": 25012, "Two": 7116, "stijgen": 19542, "vrijdag": 22067, "Trek": 7045, "ironisch": 13895, "krant": 14619, "Schr\u00f6der": 6318, "##ienne": 26103, "Leeuw": 4277, "thema": 20055, "buitenland": 9975, "inter": 13817, "neder": 15976, "tennistoernooi": 19970, "klaarlichte": 14281, "stilstaan": 19556, "vervatte": 21463, "##motief": 27208, "##hul": 26021, "blanken": 9630, "VN": 7184, "wier": 22455, "onderdanig": 16359, "Ci": 1780, "bijpassend": 9560, "##bracht": 24453, "sluiten": 19051, "##ier": 26108, "##tura": 29147, "afdalen": 8218, "##rtigjarige": 28267, "grensgebied": 12868, "bestel": 9272, "Jihad": 3748, "meende": 15470, "Max": 4716, "scharnier": 18606, "alleen": 8399, "##IB": 23398, "##business": 24515, "fanatiek": 11506, "##overschrijding": 27640, "lidstaten": 15040, "torpedo": 20254, "##aine": 23896, "##uts": 29266, "##azi": 24142, "##oit": 27415, "##processen": 27914, "lief": 15045, "technisch": 19889, "Babel": 1021, "afwijzing": 8349, "afzijdig": 8357, "cavalerie": 10086, "onbehaaglijk": 16318, "##ROS": 23622, "##spreek": 28630, "##243": 23059, "militairen": 15624, "parachute": 17253, "##weggetje": 29677, "kweek": 14753, "Graafschap": 3031, "##leidster": 26764, "aardappelen": 8043, "##ound": 27621, "J": 37, "Garri": 2817, "tab": 19820, "La": 4187, "ontbinding": 16577, "weinige": 22331, "##men": 27102, "##geplukt": 25546, "suisde": 19767, "Voel": 7414, "sp": 19200, "Cliff": 1817, "buitenkant": 9974, "handelsmerk": 13036, "Fritz": 2763, "Guer": 3099, "Pro": 5750, "duikt": 11045, "verdienstelijk": 20930, "Avalon": 976, "Champagne": 1715, "wegge": 22311, "##RK": 23617, "##fabrikant": 25231, "opportunis": 16945, "verstijfde": 21383, "kroeg": 14662, "brutaal": 9945, "##krompen": 26635, "uitgave": 20505, "Pauwels": 5530, "schoorvoetend": 18745, "Toerisme": 6991, "temperaturen": 19960, "Polak": 5680, "gebieden": 11878, "keus": 14222, "behoefde": 8946, "passagier": 17308, "##woningen": 29780, "exclusieve": 11424, "##SA": 23630, "##moto": 27211, "##trent": 29103, "fluisterend": 11653, "roodbruin": 18411, "##knuppel": 26558, "Arjan": 895, "aanvrager": 8026, "Secretaris": 6346, "disc": 10744, "prehistorisch": 17683, "vertrekken": 21437, "krachtiger": 14610, "maandenlang": 15264, "leeft": 14890, "Ever": 2524, "vasteland": 20755, "venijnig": 20822, "bacteri\u00ebn": 8689, "correspondent": 10387, "wetsontwerp": 22433, "##gespeeld": 25605, "##rlementari\u00ebr": 28206, "##gy": 25823, "11": 181, "Tin": 6967, "##onische": 27483, "##scholing": 28383, "vluchten": 21769, "que": 17912, "##zakje": 29841, "plaatsvervanger": 17474, "Mathilde": 4701, "huisarts": 13480, "As": 923, "##ono": 27490, "evenmin": 11407, "##esse": 25184, "host": 13452, "Houtem": 3475, "Houd": 3471, "grondig": 12927, "##spreker": 28635, "Montalb": 4961, "zoeken": 22802, "##quist": 27973, "##streken": 28802, "installeren": 13777, "moordzaak": 15797, "vernieuwd": 21220, "Nero": 5136, "stampen": 19412, "aantreden": 8002, "interpretatie": 13839, "##ernood": 25166, "schuil": 18804, "##ood": 27515, "##ijk": 26153, "kijken": 14244, "Tob": 6981, "##trekkingskracht": 29101, "##verstrekker": 29421, "##girl": 25728, "uitvaart": 20611, "academic": 8077, "-": 12, "beslissende": 9233, "vermijden": 21185, "Tiel": 6940, "parade": 17254, "Westfalen": 7608, "aandoening": 7880, "fenome": 11562, "wallen": 22209, "Beveren": 1229, "Angeles": 802, "Leger": 4284, "maan": 15257, "67": 479, "ontroerd": 16642, "beweeg": 9436, "##icht": 26056, "ontspande": 16655, "koel": 14455, "brood": 9924, "middellange": 15592, "publicist": 17882, "Kai": 3877, "betalen": 9314, "kletsnat": 14342, "##struc": 28818, "jonkvrouw": 13976, "bemiddel": 9082, "Hamas": 3175, "uitstapje": 20599, "Nol": 5222, "##zetting": 29879, "giftige": 12699, "gezond": 12646, "volgend": 21833, "serveer": 18879, "vijandig": 21656, "##isme": 26280, "Rey": 5952, "antieke": 8501, "hartelijk": 13084, "verdriet": 20945, "Klein": 4028, "grof": 12922, "landelijk": 14823, "onverschillig": 16725, "Dehaene": 2069, "urgentie": 20667, "aangekomen": 7896, "Call": 1592, "Zomerspele": 7810, "##cata": 24542, "afgezwakt": 8266, "oplossing": 16919, "##oorlog": 27529, "weggehaald": 22314, "##\u00ebr": 29983, "bioscoop": 9600, "spinnen": 19284, "##meel": 27085, "Nicola": 5165, "##wissel": 29761, "permanent": 17382, "oogenblik": 16771, "souterrain": 19196, "Kruij": 4151, "Roubaix": 6100, "organisme": 17034, "##dichtgeknepen": 24844, "verontrust": 21234, "gezelschap": 12633, "paper": 17244, "poseren": 17629, "Flag": 2656, "##endael": 25113, "geobsedeerd": 12283, "postkantoor": 17638, "Taal": 6802, "toeleverancier": 20160, "##RB": 23603, "ego": 11187, "bloosde": 9692, "gekek": 12096, "behoeften": 8949, "##lijke": 26862, "ranking": 17981, "eer": 11150, "dus": 11070, "terugkwam": 20023, "Nood": 5226, "##shot": 28471, "Nils": 5203, "beschuldigen": 9220, "Vrienden": 7464, "hulpverlening": 13512, "kerk": 14192, "ethische": 11384, "afgeschermd": 8250, "Circuit": 1787, "noodzaak": 16116, "##glas": 25730, "##identiteitsbewij": 26078, "Ju": 3821, "Waterstaat": 7547, "Euronext": 2505, "milder": 15620, "1960": 338, "achterlaten": 8119, "##source": 28581, "##anen": 23982, "handelwijze": 13037, "Bush": 1545, "toegangsweg": 20136, "##schaal": 28323, "verrukking": 21296, "siste": 18943, "thermo": 20064, "mop": 15798, "##ED": 23285, "smartphone": 19069, "##teelt": 28913, "##ntine": 27355, "##ppe": 27876, "industrie": 13676, "Da": 2001, "##FR": 23349, "##pap": 27690, "gebeurtenis": 11875, "vervroegd": 21485, "##corp": 24714, "merkbaar": 15547, "##blazen": 24365, "dronken": 11004, "plezant": 17527, "##elaere": 25062, "Dol": 2190, "aantrekkelijke": 8004, "Drew": 2248, "oprecht": 16949, "An": 776, "namen": 15936, "Silva": 6442, "Klooster": 4039, "fastfood": 11526, "federatie": 11541, "neef": 15983, "pri": 17713, "##start": 28700, "##voetbalbond": 29538, "1931": 309, "##vos": 29576, "##cycl": 24764, "##R": 104, "vooralsnog": 21886, "afwisseling": 8352, "stuip": 19730, "opgesloten": 16872, "Liga": 4365, "vibr": 21629, "Dar": 2043, "Type": 7119, "legende": 14919, "kenbaar": 14172, "Sociale": 6526, "lans": 14857, "Yve": 7744, "steekpenningen": 19460, "##histori": 25945, "Lang": 4225, "1891": 267, "Verenigd": 7290, "##gewisseld": 25674, "Lissabon": 4403, "hoofdkwartier": 13389, "prettig": 17707, "rechterkan": 18043, "martelaar": 15388, "Financi\u00ebn": 2642, "McC": 4725, "radiostation": 17954, "Nacional": 5069, "look": 15168, "denkt": 10613, "Nic": 5157, "Belastingdienst": 1147, "doop": 10870, "n\u00f3": 16168, "gevangen": 12527, "Africa": 640, "Galler": 2803, "Roer": 6039, "statistieken": 19445, "verwerpelijk": 21529, "gehoorzaam": 12072, "##kleuren": 26531, "Kansa": 3895, "bevatten": 9377, "vodden": 21780, "Catalaans": 1669, "##collis": 24664, "##tex": 28967, "##streffer": 28801, "topsporter": 20250, "ontdoe": 16590, "maandag": 15259, "zweren": 22946, "##NU": 23531, "innerlijk": 13754, "knie\u00ebn": 14412, "verloo": 21158, "Moh": 4932, "##NHC": 23515, "vuurwapen": 22132, "beperken": 9132, "islamitisch": 13905, "##HN": 23387, "district": 10760, "Schenk": 6279, "pruimen": 17857, "##meisje": 27093, "motiveren": 15826, "Freek": 2749, "36": 434, "Jill": 3750, "robots": 18357, "##stom": 28769, "Center": 1695, "Neder": 5107, "haal": 12985, "onopgemerkt": 16547, "verwijzing": 21545, "Aid": 666, "KV": 3865, "Stefanie": 6652, "achttien": 8145, "verleden": 21127, "##lyk": 26987, "##formatie": 25320, "##exit": 25220, "Samsung": 6217, "belaagd": 9010, "bezette": 9484, "beledigend": 9035, "luidde": 15215, "Stadsschouwburg": 6625, "luidruchtig": 15219, "Tottenham": 7023, "aanrijding": 7977, "Cord": 1919, "##lich": 26823, "onbeholpen": 16320, "beoordeling": 9126, "overboord": 17078, "graniet": 12846, "##gehouden": 25458, "##,": 71, "##speelde": 28596, "1980": 358, "##CO": 23244, "##duits": 24979, "##HR": 23392, "Bus": 1544, "C": 30, "Congo": 1885, "zowel": 22872, "1991": 369, "##sym": 28859, "afgekeurd": 8235, "Sloveni\u00eb": 6494, "parel": 17267, "schadeclaim": 18585, "##beet": 24214, "diagnose": 10650, "Private": 5747, "Republikeins": 5938, "##rassen": 28026, "VRT": 7191, "Bourgondi\u00eb": 1396, "Patriot": 5519, "ransel": 17982, "verjaagd": 21064, "vingertop": 21683, "brieven": 9893, "##heren": 25918, "drietal": 10973, "like": 15093, "Eleonor": 2401, "Industr": 3586, "Kenmerkend": 3954, "geweest": 12583, "huilen": 13476, "##VV": 23733, "##bord": 24425, "ABC": 526, "arbeiders": 8532, "##kwekerij": 26664, "belga": 9060, "##werk": 29696, "Pod": 5671, "onbekend": 16321, "##vertrek": 29426, "##veronderstelling": 29399, "waan": 22145, "##aki": 23909, "dribbel": 10963, "nalatenschap": 15931, "getest": 12495, "`": 52, "uitbreiding": 20483, "western": 22422, "##oshua": 27593, "Hollander": 3410, "popmuziek": 17605, "##bouillon": 24439, "Wethouder": 7613, "noodlot": 16111, "preek": 17681, "Manfred": 4613, "##lev": 26802, "haaien": 12981, "##adres": 23848, "contre": 10366, "DEN": 1993, "boks": 9742, "geopereerd": 12291, "stadje": 19393, "doorzoeken": 10904, "##rekeningsvatbaar": 28086, "##vest": 29442, "georganiseerd": 12294, "behandeld": 8926, "##vatten": 29314, "kroost": 14677, "kroongetuige": 14674, "materie": 15408, "Rus": 6135, "Aziatisch": 991, "klapte": 14298, "##ontginning": 27497, "voorwendsel": 21988, "##kikker": 26487, "z\u00e9lf": 22969, "##lijst": 26866, "televisie": 19951, "sciencefiction": 18823, "be\u00ebdigd": 9522, "fungeerde": 11774, "trekt": 20347, "##borough": 24429, "Fa": 2554, "Fau": 2588, "##lyn": 26988, "##drink": 24954, "komische": 14501, "wereld": 22370, "Marokkaans": 4668, "klif": 14352, "pigment": 17426, "Kei": 3941, "##geschreven": 25588, "creativiteit": 10418, "Schalke": 6268, "##etti": 25204, "smoes": 19091, "Cas": 1651, "betrokkenen": 9350, "sal": 18515, "gezondheidszorg": 12650, "##unk": 29238, "##gezonken": 25702, "overzien": 17196, "Arthur": 917, "Johnny": 3776, "wensch": 22361, "Sja": 6467, "[MASK]": 4, "vermogens": 21204, "##medaille": 27078, "Jeffrey": 3722, "Columbus": 1855, "vermoeiend": 21202, "##rug": 28272, "leerde": 14899, "verlengde": 21139, "bekommer": 8999, "racist": 17940, "##atus": 24110, "##kies": 26477, "personal": 17392, "kapper": 14112, "publiceren": 17881, "ma": 15246, "Pyrenee\u00ebn": 5804, "weerstand": 22300, "warenhuis": 22244, "emoties": 11277, "Eyck": 2543, "holle": 13357, "aluminium": 8430, "George": 2888, "1898": 274, "Arend": 882, "Zaventem": 7767, "zegevierde": 22688, "geheel": 12057, "minachtend": 15637, "verwilderd": 21547, "Acro": 603, "eier": 11190, "ontwerp": 16689, "donder": 10838, "druppels": 11027, "Scotland": 6333, "##jack": 26346, "##rob": 28212, "overwogen": 17191, "Swift": 6771, "onderwijzer": 16434, "woede": 22541, "##nederlaag": 27274, "##leeg": 26745, "Pomp": 5693, "aangrenzend": 7934, "materialen": 15407, "pionier": 17449, "mummie": 15850, "Rob": 6011, "##gniffel": 25745, "Ny": 5260, "shit": 18899, "Centraal": 1696, "speelse": 19244, "##lant": 26711, "Michelle": 4839, "zoiet": 22813, "sloep": 19030, "bestraft": 9287, "onbeschoft": 16335, "Ris": 6004, "margin": 15368, "adverteerders": 8198, "Flo": 2668, "bank": 8732, "jurist": 14007, "oversteken": 17159, "gesprekspartner": 12457, "procentpunt": 17765, "kiezer": 14240, "masker": 15391, "zone": 22830, "Kyle": 4177, "99": 520, "mariniers": 15374, "##behalve": 24224, "NL": 5053, "Pala": 5460, "echte": 11109, "##ady": 23855, "##mont": 27197, "Dutch": 2295, "kruin": 14682, "1943": 321, "clown": 10194, "vertellen": 21416, "##ificeer": 26128, "ontroerend": 16643, "verwond": 21555, "vermogen": 21203, "##90": 23145, "escalatie": 11364, "gesmolten": 12438, "##kampioenschap": 26411, "gespecialiseerd": 12445, "major": 15314, "1977": 355, "##age": 23879, "Simpson": 6452, "standvastig": 19420, "Koopman": 4094, "bosje": 9809, "stralen": 19649, "##kracht": 26617, "##onwaarschijnlijk": 27512, "klapper": 14297, "##neur": 27298, "historici": 13308, "Foster": 2707, "Wan": 7524, "verwerven": 21530, "Bud": 1514, "Kop": 4097, "types": 20463, "verhandeling": 21032, "aardgas": 8048, "nichtje": 16053, "##visch": 29479, "ritueel": 18344, "##aja": 23902, "##endijk": 25116, "##phus": 27762, "spaghetti": 19206, "##313": 23074, "beklemtoon": 8992, "##vrees": 29587, "psychopa": 17872, "inhaal": 13733, "College": 1845, "niet": 16058, "Duivel": 2285, "aangelegenhe": 7899, "##opslag": 27554, "Airlines": 669, "succesvolle": 19760, "##strijken": 28808, "rukte": 18480, "voorlopig": 21927, "Cent": 1694, "raapte": 17932, "eronder": 11350, "machines": 15277, "retor": 18263, "knel": 14406, "Kevin": 3979, "hervatte": 13255, "##boekje": 24399, "##poedig": 27836, "Druk": 2260, "stilletje": 19555, "betoging": 9328, "uiteenvallen": 20494, "##ELS": 23306, "song": 19182, "Britanni": 1468, "##personeel": 27743, "verhouding": 21051, "Alzheimer": 745, "droef": 10993, "Renaissance": 5931, "knoei": 14427, "pizza": 17458, "##elia": 25075, "ongenad": 16492, "relevante": 18185, "lef": 14911, "bedoel": 8819, "voorover": 21937, "Zundert": 7834, "##ander": 23974, "##verzameling": 29435, "achtergrond": 8112, "Josh": 3810, "landgoed": 14829, "##up": 29243, "droomde": 11008, "longi": 15158, "dwang": 11090, "ve": 20775, "##poort": 27853, "##wagen": 29630, "Positie": 5712, "##300": 23071, "##huiveringwekkend": 26019, "##leem": 26746, "keurmerk": 14220, "onderdrukt": 16364, "Richter": 5975, "Heer": 3256, "sein": 18850, "perfect": 17374, "##tjens": 29031, "Dor": 2215, "##trans": 29082, "situatie": 18945, "##uint": 29197, "giechel": 12690, "medailles": 15428, "monoloog": 15776, "##concentratiekamp": 24688, "activist": 8163, "gespierd": 12448, "##dossier": 24922, "alert": 8384, "durven": 11069, "##hen": 25916, "rustte": 18495, "Gerald": 2896, "muziek": 15867, "blokjes": 9682, "##chel": 24581, "##puzzel": 27960, "bezuinigingen": 9515, "Az": 989, "exploitatie": 11449, "sterfelijk": 19503, "hechtte": 13111, "intentie": 13816, "nicotine": 16054, "##gewricht": 25681, "##igheid": 26140, "zodanig": 22798, "##abele": 23791, "Aph": 850, "onderdeel": 16360, "projectie": 17813, "vakantie": 20698, "Merelbeke": 4800, "##honderd": 25972, "Pedro": 5535, "##sein": 28440, "Hassan": 3216, "Hebben": 3245, "Spanje": 6572, "Hans": 3193, "Schelle": 6277, "folder": 11664, "rechtstreeks": 18054, "##KING": 23446, "##sia": 28473, "##vriezen": 29595, "monopolie": 15777, "Eagles": 2320, "voornamelijk": 21932, "bovenstaande": 9843, "predikant": 17679, "deeltjes": 10574, "##onttrekken": 27504, "##lingen": 26881, "zonnetje": 22842, "##stein": 28718, "##talig": 28884, "versloeg": 21349, "Afrika": 641, "##leiding": 26763, "vertoond": 21430, "drank": 10949, "Bed": 1115, "Alkmaar": 718, "Metropolitan": 4817, "vermeld": 21177, "asielzoekers": 8595, "dol": 10819, "beer": 8869, "explosieven": 11455, "Teun": 6890, "##nning": 27331, "Sl": 6476, "##ceptie": 24562, "achttiende": 8146, "Wandel": 7526, "Fan": 2573, "van": 20722, "schenk": 18643, "##thi": 28981, "##ambtenaar": 23954, "kordaat": 14558, "feil": 11550, "geworteld": 12617, "reconstrue": 18066, "Economie": 2335, "hero\u00efne": 13238, "waanzin": 22146, "##UIT": 23698, "##ernis": 25164, "##cil": 24618, "Thra": 6925, "Panne": 5479, "passeren": 17316, "ochtend": 16188, "karakteristiek": 14117, "herbouwd": 13194, "!": 5, "##werd": 29693, "dergelijk": 10622, "liter": 15121, "##onderhandeling": 27462, "Schepen": 6281, "gebouw": 11896, "##EU": 23328, "##gepakt": 25539, "Er": 2466, "##hek": 25904, "##gels": 25502, "##technologie": 28911, "##pot": 27871, "geeuw": 12014, "210": 405, "Kip": 4008, "##aeda": 23857, "##\u00f3n": 29991, "amusement": 8460, "##vorst": 29575, "from": 11745, "beetje": 8875, "lobby": 15128, "Viking": 7358, "onschatba": 16566, "kro": 14661, "Holstein": 3421, "vaartuig": 20682, "web": 22265, "##suitdrukking": 28847, "##bestemming": 24287, "benen": 9105, "##scherp": 28360, "Mike": 4865, "maandelijks": 15262, "stallen": 19405, "Mora": 4976, "Project": 5763, "autochtone": 8644, "opgroeide": 16890, "Brad": 1417, "##waait": 29616, "kennen": 14180, "Chang": 1719, "creditcard": 10419, "balken": 8711, "protesteerde": 17839, "werkelijkheid": 22386, "luguber": 15212, "ticket": 20076, "dienaar": 10672, "##rente": 28105, "##dien": 24848, "##schaats": 28325, "\u00e9en": 22974, "carrosserie": 10072, "geestverwant": 12013, "vari\u00ebrend": 20746, "discriminatie": 10751, "##L": 99, "Oceaan": 5274, "kolonel": 14487, "Portugezen": 5711, "Mee": 4752, "olifanten": 16231, "Financial": 2640, "Craig": 1946, "Vreselijk": 7462, "Verwacht": 7334, "##loeiende": 26925, "schade": 18584, "afnemen": 8296, "IJsland": 3522, "Bolkestein": 1340, "luchtaanvallen": 15204, "uitgeleend": 20522, "herinrichting": 13219, "worstelen": 22599, "##alomtegenwoordig": 23942, "millimeter": 15634, "mager": 15295, "RIVM": 5812, "Travel": 7042, "Wie": 7624, "mensen": 15534, "moedeloos": 15725, "wethouder": 22431, "beantwoord": 8781, "##krachten": 26618, "Wijnschenk": 7632, "Persoons": 5571, "##methode": 27117, "vergadering": 20988, "##geroepen": 25569, "bezighoud": 9495, "uitgekozen": 20520, "beter": 9322, "nachtclub": 15901, "mum": 15849, "beweeglijk": 9437, "volslagen": 21856, "##bepaling": 24254, "TT": 6798, "##woordenwisseling": 29786, "overgeplaatst": 17103, "##werken": 29697, "Zoveel": 7823, "gere": 12339, "voorafgaand": 21882, "verwachtte": 21503, "Alphons": 737, "Reit": 5919, "consumeren": 10347, "##nig": 27320, "traag": 20272, "Gen\u00e8ve": 2883, "Ac": 588, "Dacht": 2013, "##hey": 25930, "hij": 13291, "tweedehands": 20435, "luchtig": 15206, "##promoot": 27931, "Victor": 7348, "bezitten": 9498, "excursie": 11425, "Erik": 2477, "begaan": 8878, "##zingen": 29902, "plooi": 17540, "dialect": 10652, "waar": 22149, "sinterklaas": 18939, "veilige": 20806, "doodsoorzaak": 10860, "gebaren": 11863, "Verzekering": 7338, "Whi": 7617, "Chef": 1732, "stichtte": 19534, "emplo": 11280, "##tellen": 28935, "lonen": 15155, "Oog": 5353, "grondstoffen": 12932, "gevlekt": 12549, "groente": 12908, "passie": 17317, "blokkeren": 9687, "omstreden": 16282, "regeren": 18125, "twist": 20458, "verzocht": 21591, "indringer": 13672, "verbaasde": 20848, "verscherpt": 21308, "Labour": 4195, "illusie": 13608, "##kerke": 26462, "ouderwetse": 17060, "Landkreis": 4223, "omgebouwd": 16244, "##syl": 28858, "##tafel": 28871, "makers": 15319, "##bezitters": 24326, "roer": 18374, "1830": 233, "opgemaakt": 16862, "tonnen": 20230, "##debat": 24806, "Overijse": 5428, "Jess": 3738, "gewaardeerd": 12576, "cor": 10380, "##lastingverlaging": 26721, "molen": 15756, "fysiotherapeut": 11786, "misverstand": 15699, "willekeurige": 22490, "Tomas": 7000, "for": 11677, "treur": 20350, "##gier": 25717, "Trijnt": 7053, "##verenigingen": 29363, "naburige": 15899, "##woorden": 29785, "C6": 1559, "vizier": 21712, "hutten": 13525, "zichtbaar": 22751, "##ssy": 28669, "handhaven": 13040, "Canadees": 1611, "##lands": 26706, "##wood": 29781, "fatale": 11528, "genees": 12243, "kandidatenlijst": 14079, "zijkant": 22776, "cafetaria": 10041, "##pop": 27855, "Vit": 7380, "Factor": 2562, "marktleider": 15383, "##piloot": 27777, "##gene": 25523, "abnormaal": 8063, "spoedig": 19302, "Daisy": 2021, "Pieters": 5619, "gloeiend": 12760, "pasgeboren": 17304, "##wandeling": 29640, "nogal": 16099, "Bartholome": 1077, "topman": 20242, "##r\u00e8s": 28297, "Challenge": 1711, "stenen": 19496, "muurschildering": 15866, "sleurde": 19008, "Lowlands": 4467, "##trui": 29125, "vi": 21626, "NV": 5063, "klooster": 14375, "Athene": 940, "knokken": 14430, "spa": 19201, "##gevallen": 25638, "##print": 27906, "koets": 14469, "keversoort": 14226, "Fatah": 2586, "Harris": 3209, "gehore": 12075, "kluit": 14383, "zagen": 22649, "Maas": 4539, "Infrastructuur": 3592, "jury": 14010, "##gezaagd": 25682, "##korps": 26599, "1840": 240, "Felicit": 2603, "Thuis": 6929, "form": 11681, "liefdadigheid": 15046, "gemene": 12218, "tenein": 19964, "om": 16237, "##wit": 29763, "1835": 235, "verspillen": 21359, "word": 22590, "doorgrond": 10889, "##ident": 26077, "##inae": 26193, "democratisch": 10601, "##initiatie": 26220, "##hield": 25934, "schat": 18608, "re\u00efntegratie": 18287, "havik": 13099, "verhit": 21041, "Commandant": 1862, "KN": 3860, "Constance": 1899, "oefeninterland": 16196, "tenger": 19966, "##verkiezing": 29376, "##examen": 25219, "email": 11268, "administratie": 8187, "Rangers": 5857, "scheut": 18670, "Meij": 4763, "isoleren": 13908, "##tta": 29131, "Arie": 890, "82": 500, "verzwegen": 21610, "Vandaag": 7226, "##duk": 24983, "Lev": 4327, "Trop": 7061, "fabrieken": 11480, "Aziz": 992, "knabbel": 14393, "##color": 24665, "##golven": 25754, "##studio": 28827, "##tale": 28882, "tevreden": 20040, "##ben": 24250, "doos": 10905, "To": 6980, "irr": 13896, "##issen": 26286, "Neg": 5122, "schorre": 18752, "Vliet": 7402, "spreker": 19346, "##aliseren": 23931, "##oliemaatschappij": 27431, "uitgaans": 20502, "partij": 17293, "V": 48, "##BERG": 23215, "procent": 17764, "Citi": 1790, "##ssa": 28655, "sukkel": 19770, "Bruijn": 1498, "hulpmiddel": 13508, "televisieserie": 19952, "verhoging": 21044, "##nslotte": 27350, "koolstof": 14525, "ondeugd": 16446, "Belgische": 1156, "fooi": 11675, "Andrea": 790, "zelden": 22701, "voornaam": 21930, "gewoonweg": 12614, "Ptero": 5785, "##pie": 27768, "veilinghui": 20811, "waarschuwing": 22185, "Hemi": 3296, "hieraan": 13278, "boog": 9780, "bandje": 8727, "rechtszaak": 18056, "##trix": 29109, "Corsica": 1929, "wang": 22222, "##neukt": 27297, "raming": 17967, "##festijn": 25255, "Organ": 5392, "veto": 21621, "##rei": 28076, "crematie": 10420, "draafde": 10931, "##IOD": 23428, "##idium": 26086, "##eten": 25191, "gepleegd": 12314, "fusie": 11781, "##enti": 25129, "Onderwijs": 5333, "##vakantie": 29295, "ProRa": 5751, "gemiddeld": 12223, "gier": 12692, "spanning": 19213, "Costa": 1932, "Rai": 5837, "Wilders": 7638, "steel": 19463, "##stuursvoorzitter": 28838, "Gud": 3098, "Remc": 5927, "ongehinderd": 16472, "wreken": 22612, "Sin": 6453, "droeg": 10994, "samenwerken": 18536, "ding": 10724, "##211": 23041, "##pre": 27887, "Groningen": 3082, "pu": 17873, "schurk": 18817, "Heerlijk": 3259, "##erwijs": 25176, "Kho": 3988, "grenzelo": 12870, "kreupelhout": 14639, "Navo": 5102, "##wereld": 29694, "Russische": 6141, "##x": 136, "stop": 19607, "Feitelijk": 2599, "portefeuille": 17621, "Divisie": 2164, "grondlegger": 12929, "rekenen": 18167, "telegram": 19944, "##ienke": 26102, "##arbeiders": 24028, "Hollywood": 3416, "Nest": 5137, "##knoop": 26556, "bestoken": 9283, "ontvoerders": 16680, "prijkt": 17717, "##verwerking": 29432, "Michelin": 4838, "##dreef": 24941, "erotiek": 11352, "command": 10234, "ideologie": 13576, "set": 18886, "Abdij": 576, "kajuit": 14042, "roman": 18390, "sluizen": 19054, "verstikt": 21385, "riolering": 18333, "voor": 21877, "elegant": 11238, "overnemen": 17148, "misvatting": 15698, "Dertig": 2097, "##genoemde": 25529, "Ey": 2542, "loon": 15170, "verdediging": 20916, "##maak": 26994, "##ontstan": 27501, "Bir": 1266, "Braziliaans": 1434, "Bourne": 1397, "vlooien": 21762, "##vrienden": 29594, "Schouwburg": 6311, "doel": 10794, "Kro": 4139, "##ahl": 23891, "fuck": 11755, "##reus": 28121, "hapte": 13064, "ontbreken": 16582, "locaties": 15131, "ce": 10089, "achterwaarts": 8138, "Celeb": 1686, "##ATE": 23200, "##ych": 29813, "Rah": 5836, "Lep": 4313, "##bia": 24333, "##pakken": 27677, "Delhaize": 2077, "##oed": 27383, "chaotisch": 10116, "richten": 18293, "tankstation": 19860, "##culus": 24754, "wrijf": 22614, "Y": 50, "begeven": 8889, "Gereformeerde": 2902, "eraan": 11316, "fundamenteel": 11770, "Pon": 5694, "EURO": 2318, "Olie": 5303, "geneeskunde": 12245, "lachte": 14792, "haring": 13077, "Virgin": 7375, "gebruind": 11917, "winter": 22518, "honderdduizend": 13371, "idool": 13581, "Lub": 4469, "oosten": 16800, "populistisch": 17616, "##ques": 27967, "enthousiasme": 11301, "vroedvrouw": 22086, "gewicht": 12599, "junioren": 14003, "CA": 1562, "opstandige": 16972, "##ijck": 26149, "koelkast": 14458, "Marsh": 4672, "##vijand": 29459, "schaats": 18580, "toog": 20231, "gematigd": 12206, "IJsselmeer": 3524, "Monster": 4959, "agressieve": 8367, "##rijk": 28168, "introduceerde": 13856, "##stijging": 28748, "dissident": 10757, "gehate": 12054, "bezinning": 9496, "verworven": 21563, "##dracht": 24933, "##the": 28972, "##commissaria": 24674, "Denis": 2086, "nature": 15956, "politiechef": 17580, "gestrekt": 12482, "Larry": 4234, "Delh": 2076, "sporthal": 19326, "onzorgvuldig": 16768, "##vijzel": 29464, "geconfronteerd": 11928, "kennismak": 14183, "##DL": 23269, "Pic": 5608, "##leeftijd": 26744, "##rat": 28027, "Japanners": 3704, "contour": 10361, "taxonomisch": 19881, "verzekering": 21581, "##\u00eble": 29981, "miniatuur": 15646, "bandieten": 8726, "##geven": 25643, "##tegenstaan": 28919, "marine": 15372, "aanschaf": 7978, "stagiair": 19399, "##dij": 24856, "geruststellend": 12386, "overhandigde": 17109, "tendens": 19963, "##disciplinair": 24874, "Beijer": 1136, "##burger": 24511, "Sterre": 6671, "##ggy": 25710, "Bul": 1524, "streepje": 19668, "##spaar": 28583, "##waakhond": 29618, "lossen": 15193, "orthodoxe": 17047, "meebrengen": 15456, "##99": 23154, "bleke": 9637, "hoger": 13347, "##ME": 23489, "griezelig": 12877, "Trophy": 7062, "##85": 23139, "sprake": 19335, "testament": 20034, "tekeningen": 19924, "geland": 12138, "Like": 4372, "greppel": 12872, "##IJN": 23414, "##rina": 28178, "##rom": 28232, "Mala": 4588, "##TON": 23679, "vraag": 22022, "##somstandigheden": 28572, "bleef": 9635, "##ste": 28705, "gevarieerd": 12535, "##llo": 26914, "ondergrond": 16372, "doeltreffend": 10808, "Arcelor": 872, "Wilt": 7652, "catering": 10084, "Herbert": 3318, "Sho": 6415, "Picture": 5611, "##WI": 23743, "damp": 10514, "##gediend": 25420, "##pho": 27759, "wijden": 22462, "##horn": 25988, "##onvoorwaardelijk": 27511, "Lisa": 4402, "##ytisc": 29827, "Schmidt": 6297, "afgekondigd": 8236, "betreuren": 9346, "vicepresident": 21632, "##CL": 23241, "chauffeurs": 10125, "##geest": 25436, "Japanner": 3703, "frazion": 11732, "stok": 19584, "dinosauri\u00ebr": 10727, "##66": 23121, "##pio": 27782, "impulsie": 13643, "speeltuin": 19248, "Ras": 5862, "trillen": 20358, "##issa": 26282, "##gedachtenis": 25415, "bouwt": 9830, "##ingsplaats": 26216, "##kunnen": 26651, "onbemand": 16326, "meenemen": 15471, "fatsoen": 11529, "sjokte": 18952, "##vlaag": 29487, "##rit": 28192, "gps": 12822, "doping": 10908, "munitie": 15851, "kameraden": 14062, "##rhynch": 28132, "Bridge": 1455, "VOLGEN": 7187, "P": 43, "Me": 4738, "hygi\u00ebne": 13541, "Close": 1823, "##stro": 28809, "betrouwbaarheid": 9352, "Eredivisie": 2471, "diploma": 10733, "Wand": 7525, "fladderen": 11625, "schoenen": 18716, "Blood": 1306, "Verdonk": 7288, "voorbarig": 21888, "Falk": 2568, "Maz": 4723, "wekken": 22335, "##RL": 23618, "gebouwen": 11898, "Halle": 3168, "##lobby": 26918, "voedings": 21784, "gered": 12347, "vul": 22117, "uitgescho": 20537, "##GEM": 23358, "Jersey": 3735, "pony": 17594, "burgerrechten": 10012, "Dekker": 2072, "hinderlijk": 13297, "Brent": 1448, "Bosni\u00eb": 1380, "Gentse": 2881, "belast": 9027, "beland": 9015, "##uitzending": 29206, "cocktail": 10205, "##schreef": 28399, "Schot": 6306, "Adrian": 623, "gespot": 12453, "dak": 10504, "pakje": 17216, "##vertegenwoordigd": 29425, "##geschud": 25591, "Singer": 6458, "Ori\u00ebntaals": 5396, "laatst": 14779, "Kurt": 4167, "kwetsbaarheid": 14760, "Logan": 4426, "##LF": 23467, "##SSEN": 23654, "Ortho": 5402, "smid": 19088, "film": 11591, "bevestigen": 9392, "Gu": 3092, "wekt": 22337, "graad": 12825, "English": 2454, "gehandicapten": 12051, "##ouf": 27619, "stapje": 19427, "vernieuwend": 21223, "##isch": 26270, "##sorteer": 28580, "gelekt": 12161, "Weg": 7563, "arrondissement": 8578, "Oxford": 5434, "definitieve": 10579, "doordrenkt": 10880, "rekening": 18168, "onbeduidend": 16316, "kunstenaar": 14710, "Algerijn": 712, "Gall": 2802, "Hem": 3294, "tuitte": 20409, "Nations": 5094, "grimmig": 12892, "pleidooi": 17516, "Josie": 3811, "Lor": 4447, "109": 180, "##eloos": 25093, "##ladder": 26684, "##layne": 26730, "##logeerd": 26930, "Glo": 2979, "tellen": 19955, "Cambuur": 1601, "R\u00e9gi": 6155, "inwoners": 13885, "pretpark": 17706, "Hong": 3433, "schrijf": 18777, "deugd": 10639, "eredivisie": 11322, "geschonden": 12407, "Libanon": 4340, "Niemand": 5171, "Nieuw": 5175, "biologisch": 9598, "blafte": 9626, "stroom": 19703, "##modus": 27176, "goedkeurend": 12785, "Pandoer": 5478, "Stichting": 6682, "gebonden": 11889, "golflengte": 12797, "##maken": 27025, "Tarzan": 6829, "##wo": 29766, "##cini": 24623, "##ajo": 23904, "Prachtig": 5727, "menselijke": 15533, "lichtblauw": 15026, "##rie": 28154, "##alia": 23927, "afkeur": 8275, "##inanci\u00eble": 26194, "##plicatie": 27823, "Waarschijnlijk": 7499, "aanzienlijke": 8039, "verheven": 21038, "Mass": 4688, "##schen": 28351, "salariss": 18518, "smekend": 19078, "bedoelt": 8823, "##rella": 28094, "diffu": 10708, "transport": 20319, "grondwet": 12934, "Josef": 3808, "fronste": 11748, "Albani\u00eb": 688, "##BH": 23217, "huwde": 13534, "##metal": 27115, "ordinair": 17022, "eventueel": 11409, "##gaan": 25354, "boosdoener": 9790, "internet": 13837, "regelen": 18107, "hysterie": 13550, "##haar": 25834, "##lith": 26897, "Hel": 3278, "Council": 1936, "geschorst": 12410, "gynaecolo": 12977, "actieve": 8159, "##hoorn": 25984, "horen": 13443, "revolutionair": 18281, "Aleppo": 699, "vergroten": 21023, "cli\u00ebnten": 10192, "hapje": 13061, "Bonaparte": 1349, "import": 13636, "versturen": 21402, "Rufus": 6122, "Johannes": 3772, "##wak": 29633, "meervoud": 15478, "kandidaten": 14078, "##republiek": 28109, "##bury": 24513, "Verschrikkelijk": 7326, "rolde": 18385, "Rom": 6054, "##treedt": 29091, "Samir": 6215, "Ant": 828, "toegezegd": 20148, "##korting": 26601, "##lax": 26728, "Britis": 1469, "Head": 3238, "geb": 11857, "Friezen": 2760, "Succes": 6735, "handel": 13028, "Europe": 2507, "opgevouw": 16884, "schep": 18646, "toehoorder": 20149, "populatie": 17614, "##breuk": 24469, "##otte": 27610, "##well": 29685, "coulissen": 10395, "verschrikkelijk": 21322, "panorama": 17238, "Elvis": 2424, "bekom": 8998, "##geboren": 25400, "##versiering": 29414, "Informatie": 3591, "motorfietsen": 15830, "Zij": 7796, "vals": 20716, "##ssus": 28668, "wensen": 22363, "baard": 8679, "##dri": 24946, "##phone": 27760, "braaf": 9851, "comp": 10258, "fraaie": 11719, "##SI": 23641, "Kalf": 3881, "invloedrijke": 13876, "##osci": 27590, "##vers": 29409, "neergestoken": 15991, "ziekelijk": 22757, "willekeurig": 22489, "##munt": 27231, "krokodillen": 14663, "##\u00e9": 142, "Ath": 939, "Grove": 3089, "landelijke": 14824, "Fen": 2608, "##sbeleid": 28311, "eigenaar": 11193, "uiterlijk": 20498, "WHO": 7484, "Bericht": 1186, "##NY": 23534, "teksten": 19929, "Ooster": 5368, "Rooij": 6075, "verloofd": 21160, "Expeditie": 2534, "##ENE": 23312, "waarto": 22188, "fluistert": 11654, "pour": 17650, "achterstand": 8129, "onderzee\u00ebr": 16437, "gehuurd": 12083, "Perzische": 5573, "oorlogen": 16787, "Rekenkamer": 5923, "##gehalte": 25450, "Hoo": 3440, "Remkes": 5928, "project": 17811, "##tube": 29137, "Luxemburg": 4504, "##archief": 24032, "paren": 17268, "##swijk": 28857, "##ure": 29246, "Gucht": 3097, "reportage": 18222, "##elarij": 25065, "verbluft": 20884, "Il": 3560, "hersenen": 13243, "##belang": 24241, "Irene": 3626, "Sk": 6471, "##concept": 24689, "##trakteerd": 29080, "##ellen": 25085, "##fil": 25275, "globalisering": 12756, "aaneenge": 7884, "overschrijd": 17154, "overlijd": 17139, "belangstelling": 9025, "behaaglijk": 8918, "Institute": 3600, "educatieve": 11128, "werkzaam": 22409, "##geruimd": 25574, "afgrijselijk": 8267, "Jou": 3813, "##ambi": 23952, "Dylan": 2304, "res": 18231, "terugdenk": 20006, "Natuurlijk": 5098, "Uruguay": 7165, "##mo": 27166, "dood": 10850, "Carr": 1646, "besparing": 9252, "##own": 27657, "Elliot": 2419, "Julius": 3835, "sterrenbeeld": 19513, "wielrenner": 22454, "##brouwen": 24486, "afscheiding": 8304, "verdacht": 20906, "Ad": 608, "Slachtoffer": 6479, "gewassen": 12581, "kantoortje": 14098, "soundtrack": 19195, "##ory": 27585, "kelk": 14169, "besluiten": 9241, "redt": 18086, "expressie": 11462, "Manuel": 4619, "noten": 16145, "Special": 6579, "By": 1554, "athe\u00efs": 8615, "glorieuze": 12765, "clubs": 10196, "Servi\u00eb": 6382, "douche": 10922, "ontplofte": 16638, "AOW": 545, "##drup": 24967, "onschadelijk": 16565, "leermeester": 14904, "vergaderzaal": 20990, "##cur": 24758, "##afstand": 23872, "Mount": 4997, "krullen": 14697, "knokkel": 14429, "moeiza": 15735, "Moslim": 4990, "doeleinde": 10796, "Kil": 3998, "Vito": 7383, "Moto": 4993, "gebit": 11879, "Miles": 4869, "singles": 18937, "slimme": 19023, "horror": 13449, "onwrikba": 16759, "vaststellen": 20766, "verrassing": 21277, "romans": 18392, "##ST": 23655, "##gestemd": 25615, "Cat": 1667, "toewijding": 20207, "ruime": 18463, "riva": 18348, "Andy": 798, "Juist": 3827, "Dorian": 2219, "ST": 6169, "Rivier": 6008, "Gevangen": 2919, "langs": 14847, "opereerde": 16843, "##stalten": 28689, "screen": 18830, "kindje": 14267, "poort": 17598, "Wang": 7527, "23": 409, "Nature": 5096, "Dracht": 2236, "##pp": 27875, "slot": 19041, "Efteling": 2369, "Titan": 6973, "verhuis": 21052, "Prijs": 5738, "night": 16074, "buitengewoon": 9973, "##aanval": 23776, "brengen": 9886, "##cta": 24739, "icoon": 13563, "##stoffen": 28765, "kat": 14140, "##punten": 27956, "##ipes": 26254, "geschikte": 12401, "omheining": 16256, "theatral": 20052, "Ellen": 2417, "bibliotheken": 9533, "Cornelius": 1925, "waarden": 22157, "Talbot": 6812, "##ary": 24065, "bestuursli": 9306, "Albrecht": 691, "##selier": 28448, "opereren": 16844, "##transacties": 29083, "stapt": 19429, "##petto": 27752, "pols": 17587, "Mall": 4597, "vooruit": 21979, "Werf": 7590, "statistisch": 19446, "Im": 3564, "kwal": 14736, "woordvoerder": 22589, "populis": 17615, "inbrekers": 13649, "Koppel": 4099, "gelanceerd": 12137, "##ers": 25169, "stemrecht": 19494, "Europeaan": 2508, "Harderwijk": 3200, "bukte": 9989, "beveiliging": 9382, "Cer": 1702, "grenst": 12869, "beschuldig": 9217, "frequentie": 11738, "##bergh": 24263, "Price": 5737, "##pool": 27852, "spontane": 19311, "theologisch": 20057, "1922": 300, "##proportion": 27933, "verlichting": 21146, "Aznar": 994, "##83": 23137, "overleef": 17130, "anderhalf": 8474, "brandstoffen": 9866, "taken": 19839, "##erhaupt": 25150, "Oliv": 5304, "sovjet": 19198, "technologie": 19892, "arbiter": 8537, "##titel": 29026, "Barneveld": 1072, "##mogelijkheden": 27183, "ditmaal": 10762, "##phor": 27761, "Pharma": 5592, "##werkers": 29699, "Bekijk": 1142, "NUTS": 5062, "favoriete": 11535, "Rud": 6117, "Clare": 1799, "hand": 13024, "sul": 19771, "##remmer": 28098, "ongeregeld": 16497, "##gemeenschap": 25510, "##K": 98, "##ige": 26136, "afwachting": 8338, "Krabb": 4121, "happen": 13062, "Piet": 5617, "wapenrusting": 22236, "America": 757, "komiek": 14499, "zenuw": 22724, "Schro": 6317, "lullig": 15237, "Vriend": 7463, "School": 6304, "werven": 22416, "Avond": 981, "Fass": 2583, "Halt": 3171, "krekel": 14632, "##shop": 28470, "autopsie": 8655, "nachtelijke": 15902, "Sardini\u00eb": 6241, "voorspelde": 21948, "HO": 3133, "Mu": 5006, "had": 12998, "omzet": 16295, "overbruggen": 17079, "bloemen": 9676, "##springen": 28637, "gegijzeld": 12035, "sluw": 19057, "3": 18, "gesprek": 12455, "Passion": 5510, "hetzij": 13264, "##barometer": 24178, "##lampen": 26698, "##uweel": 29274, "##loze": 26967, "Holmes": 3417, "blad": 9619, "verantwoord": 20843, "Liefde": 4354, "##RIS": 23616, "##cyrt": 24767, "##ata": 24082, "Dus": 2294, "##zij": 29896, "Darwin": 2046, "brokstuk": 9915, "abortus": 8067, "gra": 12824, "Henni": 3308, "Miami": 4830, "handelaars": 13030, "verloeder": 21156, "relax": 18182, "gapend": 11813, "##uebec": 29177, "##T": 106, "kiezel": 14238, "2012": 393, "intellectueel": 13805, "Uytte": 7171, "Gaulle": 2827, "Salv": 6208, "uitgestippeld": 20543, "afdaling": 8219, "Arbeids": 869, "verdrag": 20942, "##waardig": 29624, "IBM": 3514, "##spectieven": 28594, "kleefde": 14322, "sliert": 19014, "tennisser": 19969, "##eters": 25193, "millennium": 15633, "dodental": 10789, "handen": 13038, "1885": 261, "vredig": 22039, "##schermen": 28359, "Adel": 613, "beweer": 9439, "Loc": 4420, "verrassingen": 21278, "verweren": 21524, "groep": 12910, "coke": 10210, "leefgebied": 14889, "Roep": 6038, "Prinsjesdag": 5746, "##camp": 24531, "spiegel": 19271, "21": 404, "staart": 19376, "##dekkingsreiziger": 24814, "##getakeld": 25625, "Chinezen": 1751, "Trent": 7046, "afsluiting": 8313, "gala": 11799, "lift": 15070, "galerij": 11801, "Roosendaal": 6079, "Democraten": 2080, "Liefst": 4355, "Bui": 1520, "drankje": 10950, "meteoriet": 15561, "natuurbescherm": 15958, "navolging": 15971, "waarborgen": 22152, "wo": 22538, "##mour": 27217, "##0": 75, "onmetelijk": 16534, "publiceerde": 17880, "minderjarige": 15641, "##baarheid": 24150, "##onotu": 27491, "Andries": 795, "verstrooid": 21401, "link": 15103, "Zeg": 7775, "unaniem": 20647, "rechterhand": 18042, "begrotings": 8916, "Westelijke": 7602, "infuus": 13695, "planeto\u00efde": 17488, "Kalm": 3883, "klauwen": 14312, "gesneuveld": 12441, "Hoor": 3455, "eikenhout": 11207, "terugkerend": 20020, "holocaust": 13359, "Duitsland": 2283, "stengel": 19497, "gezegend": 12629, "##aagd": 23758, "##rep": 28107, "##portier": 27863, "mysterieus": 15875, "Astana": 934, "appartement": 8521, "##LIE": 23469, "overstroomd": 17162, "##verbond": 29347, "tekenen": 19921, "##bed": 24198, "ontketend": 16617, "zand": 22664, "dokters": 10817, "onopvallend": 16549, "##genen": 25525, "##verbazingwekkend": 29341, "Klassiek": 4023, "1935": 313, "Casey": 1655, "Aart": 569, "Occitani": 5273, "Apeldoorn": 849, "ondermijnen": 16393, "slee": 18999, "Gestapo": 2915, "##streep": 28799, "Emb": 2427, "Ocean": 5275, "opgepikt": 16866, "Mijn": 4861, "heleboel": 13167, "dubbel": 11029, "gade": 11794, "onderwijs": 16433, "westelijk": 22418, "arm": 8559, "verhuizen": 21055, "opbrengst": 16808, "kring": 14654, "McM": 4736, "cholesterol": 10143, "geprobeerd": 12325, "vervormd": 21483, "behartig": 8932, "opmerkte": 16926, "Kuiper": 4158, "pleegde": 17514, "##TC": 23668, "blik": 9651, "bonnetje": 9769, "##adem": 23838, "Ivoorkust": 3659, "kasteel": 14136, "Tru": 7067, "stilgelegd": 19553, "beton": 9329, "##tic": 28989, "1914": 292, "confrontatie": 10317, "##koop": 26589, "1929": 307, "##feld": 25250, "##kwestie": 26665, "Cuba": 1968, "keizerrijk": 14166, "uitge": 20507, "machteloos": 15281, "Henry": 3312, "type": 20460, "Thy": 6932, "sier": 18911, "kostbaar": 14577, "windmolens": 22499, "##EEL": 23289, "slaapkamer": 18966, "Reginald": 5908, "Copa": 1914, "eenvoudiger": 11145, "vegetarisch": 20801, "zaakvoerder": 22638, "Gord": 3014, "NAVO": 5044, "assistentie": 8606, "blinde": 9658, "##ufo": 29182, "bladeren": 9622, "dreiging": 10958, "improviseren": 13641, "##vorming": 29574, "Sz": 6788, "##bodem": 24394, "gebruikelijk": 11908, "Graham": 3035, "puzzel": 17904, "vooraan": 21878, "rangschikking": 17979, "exploiteer": 11450, "##versterker": 29420, "ontslaa": 16648, "##plaatsvervangend": 27797, "##roux": 28257, "##50": 23100, "##lept": 26780, "##lijm": 26863, "regie": 18133, "##beambte": 24196, "##ION": 23429, "fit": 11621, "spreken": 19345, "cirkel": 10168, "melancholie": 15502, "Jurgen": 3848, "gevolgen": 12564, "##aaien": 23760, "Oorspronkelijk": 5359, "brokken": 9914, "konings": 14515, "##maatregelen": 27006, "uitgewerkt": 20553, "uitgaan": 20501, "lucifer": 15210, "verknoei": 21096, "Anth": 830, "Exchange": 2533, "toentertijd": 20169, "fragmenten": 11724, "##oxi": 27660, "Sak": 6197, "vervalst": 21458, "effe": 11176, "##uil": 29194, "onbeperkt": 16330, "bureaucratie": 10003, "halfjaar": 13010, "kwartaal": 14746, "##vechten": 29319, "kleiner": 14329, "groepsfase": 12915, "Noo": 5225, "geallieerde": 11847, "kastelen": 14137, "##galerij": 25361, "halt": 13016, "discipline": 10745, "ruimteschepen": 18469, "vacu": 20691, "Buur": 1551, "haastte": 12992, "misleidend": 15683, "opgeheven": 16855, "zuilen": 22889, "verschillen": 21317, "lopend": 15180, "##voed": 29522, "hoe": 13324, "##eschrokken": 25180, "##lo": 26915, "##voetbalinterland": 29539, "draaide": 10937, "straffen": 19641, "##rud": 28270, "Zitten": 7803, "##gemeenschappe": 25511, "##tor": 29060, "studeer": 19719, "Ross": 6091, "vertrouwelijk": 21445, "informeer": 13689, "Noors": 5235, "party": 17302, "Bloemendaal": 1301, "Rambo": 5847, "Online": 5341, "huivering": 13500, "summier": 19773, "Green": 3050, "##aster": 24080, "cl": 10180, "identificeer": 13573, "##zat": 29854, "Gorbatsjov": 3013, "Almelo": 730, "sociaaldemocrat": 19140, "Arnau": 906, "betere": 9323, "Normaal": 5242, "Gould": 3025, "foute": 11713, "terugtrekken": 20024, "##plegers": 27816, "revanche": 18279, "##gebonden": 25398, "bladerde": 9621, "Marjori": 4657, "##rin": 28177, "eurozone": 11395, "verovering": 21253, "Com": 1856, "Kleine": 4029, "##12": 22993, "Mel": 4770, "Dwerg": 2301, "##groepen": 25800, "##Ma": 23505, "pre": 17674, "##amantha": 23950, "franc": 11727, "bespeuren": 9255, "doods": 10854, "gekenmerkt": 12098, "Heverlee": 3347, "Albert": 689, "verdeling": 20921, "##radio": 27994, "McD": 4729, "##bahn": 24158, "dader": 10492, "##tief": 28995, "misstand": 15694, "zege": 22685, "brandstapel": 9863, "foutje": 11715, "speer": 19249, "##ochtend": 27373, "##rino": 28184, "kampioenschap": 14070, "Admiral": 617, "lijstje": 15090, "##62": 23117, "verlangde": 21124, "verbranding": 20898, "toereikend": 20174, "Highway": 3361, "Wenne": 7582, "Hingis": 3374, "hof": 13343, "Communication": 1871, "##computer": 24685, "eenzaam": 11146, "##rlin": 28207, "1961": 339, "##ellida": 25087, "microscoop": 15581, "plein": 17517, "Erdogan": 2469, "bekommerd": 9000, "##00": 22978, "Timo": 6964, "bemanning": 9081, "kunst": 14708, "bedenken": 8808, "bizar": 9611, "kaart": 14027, "registreerde": 18145, "zolder": 22814, "Gor": 3012, "bevorderd": 9411, "Engeland": 2446, "##ij": 26148, "Italianen": 3653, "gespeculeer": 12446, "##com": 24666, "nicht": 16052, "liederen": 15042, "##looze": 26953, "weerzinwekkend": 22303, "##sculpt": 28430, "astro": 8610, "brom": 9916, "stemmer": 19490, "##makelij": 27024, "##pke": 27791, "zaag": 22635, "spreiding": 19344, "aanknopingspunt": 7945, "linksaf": 15109, "meldpunt": 15507, "Stuur": 6729, "Pijp": 5624, "##stoornis": 28772, "95": 516, "allerminst": 8411, "Aes": 631, "samengevat": 18526, "binnendrong": 9582, "##medi": 27082, "back": 8687, "mondiale": 15769, "kauwde": 14149, "##oc": 27366, "Lloyd": 4417, "verdronk": 20950, "Courant": 1941, "Stre": 6712, "Shakespeare": 6394, "manipulatie": 15347, "pikant": 17438, "hurkte": 13523, "schroot": 18793, "Gerbrand": 2899, "wortels": 22603, "scherpte": 18662, "##VG": 23721, "roebel": 18363, "Haver": 3227, "essentieel": 11369, "vernieling": 21216, "Cla": 1794, "Riek": 5983, "Dolly": 2194, "drukte": 11023, "klassieker": 14308, "##platform": 27811, "Sid": 6425, "temperament": 19959, "##y": 137, "Extra": 2540, "Mond": 4948, "podium": 17559, "Staat": 6618, "staarde": 19375, "##rew": 28124, "##show": 28472, "knot": 14441, "Kelly": 3946, "bedenker": 8809, "Nikola": 5201, "kruit": 14691, "##kind": 26491, "aangevuld": 7927, "teruggaan": 20008, "begin": 8890, "##sjenko": 28496, "##sky": 28507, "Heijmans": 3267, "Algemene": 710, "betrapp": 9337, "Kha": 3983, "Richmond": 5974, "Universit": 7154, "gedecoreerd": 11946, "communism": 10254, "raketten": 17961, "urine": 20668, "Flori": 2674, "##IR": 23431, "##gelden": 25485, "gedood": 11978, "Kom": 4075, "wateroverlast": 22257, "##NL": 23519, "Surinamer": 6755, "gedoopt": 11981, "begroet": 8911, "Bayer": 1098, "##sloeg": 28529, "ide": 13564, "Vegas": 7256, "streek": 19664, "##ertoe": 25171, "##toestelle": 29044, "verried": 21287, "stelen": 19477, "Steun": 6673, "koninklijke": 14518, "noem": 16092, "bloedbad": 9664, "dragen": 10943, "Fri": 2754, "stemde": 19488, "gevestigde": 12546, "gelijk": 12167, "##ader": 23840, "##conferentie": 24694, "lam": 14811, "saaie": 18505, "INSE": 3531, "uitverkocht": 20615, "##owitz": 27656, "falen": 11498, "dammen": 10513, "bedrijfsleider": 8839, "va": 20673, "Clercq": 1814, "Coppens": 1916, "dweil": 11097, "Yellow": 7729, "Vercauteren": 7283, "##van": 29302, "##klimmen": 26536, "Stewart": 6680, "magnetron": 15304, "weeshui": 22305, "erover": 11354, "inspecteur": 13766, "##mazzel": 27068, "##MK": 23493, "Stel": 6658, "##cra": 24725, "Yard": 7724, "leuning": 14982, "voordeel": 21901, "genoten": 12279, "presentatrice": 17692, "Milo": 4879, "onopgelost": 16546, "##tour": 29067, "gepolijst": 12317, "##komst": 26581, "bedekken": 8801, "ingediend": 13701, "Orkest": 5397, "blos": 9697, "vloeibaar": 21748, "Leys": 4335, "Or": 5383, "##gara": 25369, "Documentaire": 2178, "geslingerd": 12433, "Tracy": 7034, "rijke": 18313, "##FOR": 23348, "Resolutie": 5942, "schijnbaar": 18682, "klinkende": 14363, "nuttige": 16165, "lepel": 14955, "oorkonde": 16785, "##regime": 28069, "zeer": 22679, "Italia": 3649, "Dichter": 2119, "Klaar": 4017, "Studie": 6723, "lippen": 15115, "##atlee": 24100, "Derde": 2092, "record": 18067, "Berend": 1180, "Madis": 4564, "##resten": 28115, "Basten": 1085, "##toon": 29057, "maximum": 15419, "noteren": 16146, "Meisjes": 4768, "Admiraal": 616, "gevoed": 12553, "riskeren": 18338, "##keek": 26444, "Villiers": 7364, "Yorkshire": 7735, "hing": 13301, "Software": 6536, "basketballer": 8768, "##sink": 28486, "NOS": 5056, "strand": 19654, "elementen": 11252, "ingenomen": 13711, "##ijl": 26155, "vissers": 21703, "vuurwerk": 22133, "etentje": 11381, "##binden": 24346, "mond": 15766, "hoofden": 13384, "##bereik": 24259, "zonneschijn": 22839, "tijdschrift": 20098, "Eduard": 2349, "Merckx": 4797, "overleden": 17128, "emmer": 11275, "jeugdige": 13945, "eetlepel": 11165, "wolkenkrabber": 22558, "theelepel": 20054, "uitbreiden": 20482, "rookwolk": 18420, "##inspectie": 26235, "zien": 22769, "##imi": 26187, "wedden": 22269, "##lige": 26852, "componisten": 10280, "scherpzinnig": 18663, "Batt": 1092, "elftal": 11256, "Aston": 935, "verklede": 21092, "##ift": 26132, "Taiwan": 6808, "##hri": 26010, "Job": 3758, "##VS": 23730, "##isse": 26285, "sloten": 19042, "##heet": 25896, "Gaan": 2790, "ballingschap": 8717, "gezeur": 12635, "vergeving": 21007, "wurmde": 22621, "##jongens": 26375, "welwillend": 22350, "##leu": 26796, "barri\u00e8re": 8752, "##bannen": 24175, "na\u00efv": 15975, "Sofia": 6534, "Paula": 5524, "collage": 10214, "Brussels": 1504, "kast": 14133, "##zwam": 29948, "gemarteld": 12204, "Nel": 5125, "Jonge": 3787, "grappen": 12849, "##boot": 24423, "onbevangen": 16340, "terzijde": 20032, "zevende": 22744, "wachtpost": 22197, "1915": 293, "stamboom": 19407, "raadplegen": 17920, "48": 451, "wijk": 22465, "##duo": 24985, "Hind": 3372, "getuige": 12514, "Magnus": 4575, "hartslag": 13088, "batterij": 8775, "vergif": 21010, "Carla": 1637, "##adre": 23847, "Glen": 2975, "##92": 23147, "aangrijpend": 7935, "gerekend": 12357, "leerling": 14902, "##1860": 23021, "##uichot": 29191, "grijpt": 12885, "Manager": 4608, "Comt\u00e9": 1877, "##effecten": 25033, "Arabisch": 863, "openlijk": 16834, "long": 15156, "zelfrijdend": 22709, "Internet": 3611, "sonde": 19181, "geschor": 12409, "Ag": 646, "Kooi": 4089, "##kaas": 26396, "gebroken": 11906, "Paradijs": 5488, "##m\u00e9": 27245, "on": 16300, "optimale": 16982, "deelgenomen": 10561, "Lig": 4364, "Fortis": 2703, "Vietnam": 7354, "epidemie": 11311, "Jules": 3828, "##laken": 26694, "##pic": 27766, "graafschap": 12827, "oprichter": 16951, "plattegrond": 17509, "menen": 15515, "aangestoken": 7918, "IMF": 3527, "overging": 17106, "##ANDER": 23182, "broer": 9910, "geprivatiseerd": 12324, "##NI": 23516, "buurvrouw": 10029, "schokken": 18719, "redenering": 18084, "stuiten": 19732, "00u": 156, "buitenshuis": 9979, "nederig": 15977, "FOTO": 2552, "quasi": 17911, "Record": 5891, "##earctisch": 24998, "##RW": 23629, "Antonia": 840, "##xi": 29805, "##NIS": 23517, "digitaal": 10710, "fu": 11754, "RADIO": 5807, "Home": 3424, "maatschappij": 15273, "##thro": 28985, "Wolfsburg": 7686, "kuil": 14703, "uitwerpsel": 20627, "Zwerver": 7850, "##OS": 23564, "##hinder": 25942, "tref": 20334, "Inwoners": 3617, "begroe": 8908, "r\u00e9": 18502, "r\u00f6ntgen": 18503, "bescherm": 9193, "ingrijpend": 13731, "##bedrijventerrein": 24206, "Namibi\u00eb": 5077, "Park": 5496, "Ruth": 6145, "menschelijk": 15530, "Modder": 4917, "Stem": 6660, "##lep": 26778, "oppakken": 16934, "vanbinnen": 20725, "Sylvia": 6778, "slaven": 18991, "Vluchtelingen": 7408, "Thailand": 6898, "langer": 14844, "Pru": 5775, "leunde": 14980, "##neuzen": 27301, "staf": 19397, "##loe": 26924, "##verkeer": 29374, "##rijtuig": 28172, "##stok": 28766, "houd": 13458, "benaming": 9100, "Ecolo": 2332, "geval": 12525, "Zolder": 7808, "vazal": 20774, "prikken": 17727, "Burke": 1540, "hertogin": 13252, "Ergens": 2474, "blijkbaar": 9647, "Bazel": 1101, "Julian": 3831, "##RIE": 23613, "kankerpati\u00ebnt": 14082, "ballet": 8715, "Schotse": 6308, "mededogen": 15433, "##PEN": 23581, "Molen": 4938, "##teur": 28964, "Fletcher": 2662, "##stuurde": 28837, "##tru": 29122, "Monte": 4962, "Simpl": 6451, "telt": 19957, "Gunnar": 3112, "keurig": 14218, "olijven": 16234, "linker": 15104, "Productie": 5758, "zonen": 22831, "##pistolen": 27785, "werkzame": 22410, "##klampen": 26509, "Hat": 3219, "bon": 9758, "dieren": 10698, "opvolger": 16998, "aandoen": 7879, "optillen": 16980, "##fir": 25286, "##iste": 26290, "Best": 1213, "spoel": 19303, "Luc": 4471, "##gui": 25813, "huw": 13533, "Atta": 952, "pick": 17417, "##verband": 29340, "30": 423, "Hubert": 3482, "Stijn": 6683, "##enzestig": 25133, "vaal": 20676, "bevol": 9403, "spijker": 19276, "##komende": 26579, "##laarzen": 26674, "harten": 13085, "##worp": 29794, "hoedje": 13328, "##module": 27175, "##art": 24059, "##go": 25747, "pragmatisch": 17666, "verlenging": 21141, "##inia": 26219, "##ole": 27427, "onvruchtbaar": 16747, "##helmin": 25911, "aanhouden": 7939, "directe": 10739, "Conserva": 1896, "afkorting": 8282, "Sound": 6559, "grondwater": 12933, "intelligente": 13808, "inventaris": 13865, "sexy": 18889, "Res": 5939, "beschouwen": 9211, "gevlucht": 12552, "ruil": 18461, "##spi": 28606, "##14": 22995, "bezetten": 9485, "vee": 20780, "opnieuw": 16932, "81": 499, "Benfica": 1170, "Atjeh": 942, "##nagel": 27255, "overeenkom": 17088, "verdwijnt": 20965, "Guinee": 3106, "dodelijk": 10786, "##karakter": 26434, "##lectuur": 26736, "hoopt": 13426, "verzegeld": 21574, "##1867": 23026, "afwerking": 8345, "Roeselare": 6041, "Cher": 1737, "buiging": 9962, "vlijmscherp": 21744, "grill": 12888, "Schoon": 6305, "staatsgreep": 19381, "##prijzen": 27901, "revue": 18284, "vrijgekomen": 22072, "calcium": 10045, "eist": 11227, "tweelingbroer": 20442, "voortbreng": 21962, "heldere": 13162, "zakje": 22657, "##veld": 29330, "Sevilla": 6388, "psychiatrisch": 17865, "alvast": 8431, "deuk": 10640, "Ryanair": 6153, "audi\u00ebntie": 8629, "##staten": 28701, "##:": 85, "##been": 24211, "lavendel": 14877, "##sturingssysteem": 28836, "bespreking": 9262, "woeker": 22545, "Rood": 6074, "jeugdopleiding": 13946, "medewerkster": 15443, "Ierland": 3554, "voortvluchtig": 21976, "uitgerust": 20535, "gelaatstrek": 12134, "personage": 17390, "Instituut": 3601, "afzetten": 8354, "doorzocht": 10903, "TNT": 6796, "Buck": 1512, "honderden": 13372, "nare": 15942, "Mondriaan": 4950, "strepen": 19678, "afspeelt": 8315, "gigantische": 12701, "consequentie": 10325, "##slomp": 28531, "##mogendheden": 27186, "winstgevend": 22514, "##lia": 26817, "Miguel": 4859, "Ginn": 2958, "kalender": 14046, "Sc": 6257, "cur": 10449, "eten": 11380, "schuiven": 18809, "Canvas": 1619, "Oudenaarde": 5418, "n\u00e9t": 16167, "ontwor": 16702, "klemde": 14337, "##heilig": 25901, "##beeck": 24207, "warmte": 22248, "schrede": 18768, "##atieve": 24095, "bestelle": 9276, "McEwen": 4731, "kunstmatig": 14715, "uitsprak": 20595, "puberteit": 17876, "leren": 14959, "Worth": 7705, "##andpasta": 23978, "zwierig": 22956, "##rechtelijk": 28045, "retail": 18262, "bijwerkingen": 9564, "paviljoen": 17341, "Museeuw": 5023, "##uiven": 29207, "culinair": 10444, "##HE": 23379, "##RF": 23609, "##osse": 27598, "Tempel": 6862, "##uld": 29217, "komst": 14504, "##campagne": 24532, "uitgedeeld": 20512, "helden": 13159, "##hoef": 25952, "##oka": 27418, "practi": 17664, "asperge": 8600, "offshore": 16215, "erg": 11330, "aanvaardde": 8010, "praktisch": 17670, "##traditioneel": 29076, "neerge": 15989, "Isabelle": 3636, "laf": 14800, "merrie": 15554, "docenten": 10775, "gespierde": 12449, "voorwaarts": 21987, "##ov": 27628, "Poperinge": 5701, "gefaald": 12016,
[...]
